{
  "version": "1.0",
  "truncation": null,
  "padding": null,
  "added_tokens": [],
  "normalizer": null,
  "pre_tokenizer": {
    "type": "Whitespace"
  },
  "post_processor": null,
  "decoder": null,
  "model": {
    "type": "BPE",
    "dropout": null,
    "unk_token": null,
    "continuing_subword_prefix": null,
    "end_of_word_suffix": null,
    "fuse_unk": false,
    "byte_fallback": false,
    "ignore_merges": false,
    "vocab": {
      "!": 0,
      "\"": 1,
      "#": 2,
      "$": 3,
      "%": 4,
      "&": 5,
      "'": 6,
      "(": 7,
      ")": 8,
      "*": 9,
      "+": 10,
      ",": 11,
      "-": 12,
      ".": 13,
      "/": 14,
      "0": 15,
      "1": 16,
      "2": 17,
      "3": 18,
      "4": 19,
      "5": 20,
      "6": 21,
      "7": 22,
      "8": 23,
      "9": 24,
      ":": 25,
      ";": 26,
      "<": 27,
      "=": 28,
      ">": 29,
      "?": 30,
      "A": 31,
      "B": 32,
      "C": 33,
      "D": 34,
      "E": 35,
      "F": 36,
      "G": 37,
      "H": 38,
      "I": 39,
      "J": 40,
      "K": 41,
      "L": 42,
      "M": 43,
      "N": 44,
      "O": 45,
      "P": 46,
      "Q": 47,
      "R": 48,
      "S": 49,
      "T": 50,
      "U": 51,
      "V": 52,
      "W": 53,
      "X": 54,
      "Y": 55,
      "Z": 56,
      "[": 57,
      "\\": 58,
      "]": 59,
      "^": 60,
      "_": 61,
      "`": 62,
      "a": 63,
      "b": 64,
      "c": 65,
      "d": 66,
      "e": 67,
      "f": 68,
      "g": 69,
      "h": 70,
      "i": 71,
      "j": 72,
      "k": 73,
      "l": 74,
      "m": 75,
      "n": 76,
      "o": 77,
      "p": 78,
      "q": 79,
      "r": 80,
      "s": 81,
      "t": 82,
      "u": 83,
      "v": 84,
      "w": 85,
      "x": 86,
      "y": 87,
      "z": 88,
      "{": 89,
      "|": 90,
      "}": 91,
      "~": 92,
      "£": 93,
      "§": 94,
      "ª": 95,
      "«": 96,
      "¬": 97,
      "­": 98,
      "°": 99,
      "±": 100,
      "²": 101,
      "³": 102,
      "´": 103,
      "µ": 104,
      "·": 105,
      "º": 106,
      "»": 107,
      "½": 108,
      "À": 109,
      "Á": 110,
      "Â": 111,
      "Ã": 112,
      "Å": 113,
      "Ç": 114,
      "É": 115,
      "Ê": 116,
      "Í": 117,
      "Ï": 118,
      "Ñ": 119,
      "Ó": 120,
      "Ô": 121,
      "Ö": 122,
      "×": 123,
      "Ø": 124,
      "Ú": 125,
      "Þ": 126,
      "ß": 127,
      "à": 128,
      "á": 129,
      "â": 130,
      "ã": 131,
      "ä": 132,
      "å": 133,
      "æ": 134,
      "ç": 135,
      "è": 136,
      "é": 137,
      "ê": 138,
      "ë": 139,
      "ì": 140,
      "í": 141,
      "î": 142,
      "ï": 143,
      "ð": 144,
      "ñ": 145,
      "ò": 146,
      "ó": 147,
      "ô": 148,
      "õ": 149,
      "ö": 150,
      "ø": 151,
      "ù": 152,
      "ú": 153,
      "û": 154,
      "ü": 155,
      "þ": 156,
      "Ā": 157,
      "ā": 158,
      "ć": 159,
      "Č": 160,
      "č": 161,
      "Đ": 162,
      "ē": 163,
      "ě": 164,
      "ğ": 165,
      "ħ": 166,
      "ī": 167,
      "Ł": 168,
      "ł": 169,
      "Ō": 170,
      "ō": 171,
      "ő": 172,
      "ř": 173,
      "ś": 174,
      "Ş": 175,
      "Š": 176,
      "š": 177,
      "ũ": 178,
      "ū": 179,
      "ž": 180,
      "ơ": 181,
      "ǃ": 182,
      "ǐ": 183,
      "ɐ": 184,
      "ɑ": 185,
      "ɒ": 186,
      "ɔ": 187,
      "ə": 188,
      "ɛ": 189,
      "ɨ": 190,
      "ɪ": 191,
      "ɫ": 192,
      "ɲ": 193,
      "ɹ": 194,
      "ɾ": 195,
      "ʁ": 196,
      "ʃ": 197,
      "ʊ": 198,
      "ʏ": 199,
      "ʒ": 200,
      "ʔ": 201,
      "ʦ": 202,
      "ʱ": 203,
      "ʲ": 204,
      "ˈ": 205,
      "ˌ": 206,
      "ː": 207,
      "˙": 208,
      "́": 209,
      "̃": 210,
      "̪": 211,
      "ͤ": 212,
      "ͭ": 213,
      "Α": 214,
      "Β": 215,
      "Δ": 216,
      "Ε": 217,
      "Ι": 218,
      "Λ": 219,
      "Μ": 220,
      "Ν": 221,
      "Σ": 222,
      "Ω": 223,
      "ά": 224,
      "έ": 225,
      "ή": 226,
      "ί": 227,
      "α": 228,
      "β": 229,
      "γ": 230,
      "δ": 231,
      "ε": 232,
      "ζ": 233,
      "η": 234,
      "θ": 235,
      "ι": 236,
      "κ": 237,
      "λ": 238,
      "μ": 239,
      "ν": 240,
      "ο": 241,
      "π": 242,
      "ρ": 243,
      "ς": 244,
      "σ": 245,
      "τ": 246,
      "υ": 247,
      "φ": 248,
      "χ": 249,
      "ψ": 250,
      "ω": 251,
      "ό": 252,
      "ύ": 253,
      "ώ": 254,
      "ϕ": 255,
      "ϵ": 256,
      "З": 257,
      "Л": 258,
      "Н": 259,
      "П": 260,
      "Р": 261,
      "Ф": 262,
      "Х": 263,
      "а": 264,
      "б": 265,
      "в": 266,
      "д": 267,
      "е": 268,
      "и": 269,
      "й": 270,
      "к": 271,
      "л": 272,
      "м": 273,
      "н": 274,
      "о": 275,
      "п": 276,
      "р": 277,
      "с": 278,
      "т": 279,
      "у": 280,
      "ц": 281,
      "ш": 282,
      "ь": 283,
      "я": 284,
      "і": 285,
      "ְ": 286,
      "ִ": 287,
      "ַ": 288,
      "י": 289,
      "ם": 290,
      "מ": 291,
      "צ": 292,
      "ר": 293,
      "ة": 294,
      "ج": 295,
      "ر": 296,
      "م": 297,
      "ن": 298,
      "ه": 299,
      "و": 300,
      "ي": 301,
      "چ": 302,
      "ی": 303,
      "ग": 304,
      "च": 305,
      "ज": 306,
      "ट": 307,
      "ण": 308,
      "त": 309,
      "न": 310,
      "भ": 311,
      "य": 312,
      "र": 313,
      "श": 314,
      "स": 315,
      "ा": 316,
      "ी": 317,
      "्": 318,
      "Ḏ": 319,
      "ḏ": 320,
      "ḗ": 321,
      "ḥ": 322,
      "ṃ": 323,
      "ṇ": 324,
      "ṛ": 325,
      "ṣ": 326,
      "ẩ": 327,
      "ễ": 328,
      "ệ": 329,
      "ọ": 330,
      "ổ": 331,
      "ớ": 332,
      "ữ": 333,
      "ἀ": 334,
      "ἄ": 335,
      "ἐ": 336,
      "Ἑ": 337,
      "ὀ": 338,
      "ὑ": 339,
      "ὴ": 340,
      "ᾱ": 341,
      "ῐ": 342,
      "Ῥ": 343,
      "ῶ": 344,
      "​": 345,
      "‎": 346,
      "–": 347,
      "—": 348,
      "―": 349,
      "‘": 350,
      "’": 351,
      "“": 352,
      "”": 353,
      "†": 354,
      "•": 355,
      "…": 356,
      "‰": 357,
      "′": 358,
      "″": 359,
      "‹": 360,
      "›": 361,
      "⁄": 362,
      "⁡": 363,
      "₂": 364,
      "€": 365,
      "ℏ": 366,
      "↑": 367,
      "→": 368,
      "↓": 369,
      "↔": 370,
      "↦": 371,
      "⇒": 372,
      "⇔": 373,
      "∂": 374,
      "∈": 375,
      "∑": 376,
      "−": 377,
      "∘": 378,
      "√": 379,
      "∞": 380,
      "∩": 381,
      "∫": 382,
      "≈": 383,
      "≤": 384,
      "⊕": 385,
      "⋅": 386,
      "ⓘ": 387,
      "○": 388,
      "●": 389,
      "★": 390,
      "☉": 391,
      "♦": 392,
      "⟩": 393,
      "⟶": 394,
      "け": 395,
      "っ": 396,
      "に": 397,
      "ほ": 398,
      "ぽ": 399,
      "み": 400,
      "ん": 401,
      "ィ": 402,
      "ゥ": 403,
      "テ": 404,
      "デ": 405,
      "ト": 406,
      "ー": 407,
      "三": 408,
      "中": 409,
      "人": 410,
      "代": 411,
      "会": 412,
      "倭": 413,
      "共": 414,
      "剛": 415,
      "北": 416,
      "华": 417,
      "協": 418,
      "南": 419,
      "受": 420,
      "呉": 421,
      "和": 422,
      "唐": 423,
      "国": 424,
      "國": 425,
      "型": 426,
      "基": 427,
      "墨": 428,
      "妙": 429,
      "始": 430,
      "山": 431,
      "帝": 432,
      "徒": 433,
      "手": 434,
      "技": 435,
      "拳": 436,
      "撃": 437,
      "攻": 438,
      "文": 439,
      "日": 440,
      "易": 441,
      "時": 442,
      "本": 443,
      "柔": 444,
      "梁": 445,
      "楷": 446,
      "民": 447,
      "沖": 448,
      "派": 449,
      "流": 450,
      "王": 451,
      "白": 452,
      "皇": 453,
      "神": 454,
      "秘": 455,
      "秦": 456,
      "空": 457,
      "組": 458,
      "縄": 459,
      "组": 460,
      "華": 461,
      "蛮": 462,
      "術": 463,
      "語": 464,
      "讀": 465,
      "貿": 466,
      "足": 467,
      "道": 468,
      "霊": 469,
      "頭": 470,
      "館": 471,
      "de": 472,
      "ra": 473,
      "os": 474,
      "es": 475,
      "nt": 476,
      "as": 477,
      "co": 478,
      "do": 479,
      "da": 480,
      "er": 481,
      "is": 482,
      "ia": 483,
      "ma": 484,
      "or": 485,
      "re": 486,
      "in": 487,
      "ão": 488,
      "ta": 489,
      "em": 490,
      "ca": 491,
      "ent": 492,
      "qu": 493,
      "pa": 494,
      "ti": 495,
      "en": 496,
      "ro": 497,
      "ri": 498,
      "na": 499,
      "com": 500,
      "ci": 501,
      "se": 502,
      "la": 503,
      "ção": 504,
      "que": 505,
      "al": 506,
      "no": 507,
      "ment": 508,
      "dos": 509,
      "to": 510,
      "po": 511,
      "li": 512,
      "te": 513,
      "di": 514,
      ".[": 515,
      "ar": 516,
      "el": 517,
      "mo": 518,
      "so": 519,
      "si": 520,
      "tu": 521,
      "res": 522,
      "um": 523,
      "cia": 524,
      "ni": 525,
      "con": 526,
      "ou": 527,
      "ei": 528,
      "va": 529,
      "por": 530,
      "uma": 531,
      "das": 532,
      "des": 533,
      "vi": 534,
      "lo": 535,
      "su": 536,
      "pe": 537,
      "gu": 538,
      "an": 539,
      "para": 540,
      "pro": 541,
      "ões": 542,
      "cu": 543,
      "ram": 544,
      "ha": 545,
      "tra": 546,
      "ex": 547,
      "fi": 548,
      "mente": 549,
      "fo": 550,
      "mi": 551,
      "le": 552,
      "dade": 553,
      "como": 554,
      "]\\": 555,
      "\\\"": 556,
      "ter": 557,
      "vo": 558,
      "us": 559,
      "un": 560,
      "ist": 561,
      "nte": 562,
      "ve": 563,
      "19": 564,
      "cio": 565,
      "ver": 566,
      "for": 567,
      "du": 568,
      "ções": 569,
      "tr": 570,
      "za": 571,
      "lu": 572,
      "ran": 573,
      "mento": 574,
      "ga": 575,
      "per": 576,
      "go": 577,
      "gi": 578,
      "mais": 579,
      "cas": 580,
      "me": 581,
      "tos": 582,
      "ria": 583,
      "cont": 584,
      "pos": 585,
      "cos": 586,
      "sa": 587,
      "ce": 588,
      "mb": 589,
      "ina": 590,
      "par": 591,
      "são": 592,
      "ên": 593,
      "ser": 594,
      "era": 595,
      "tor": 596,
      "mu": 597,
      "on": 598,
      "foi": 599,
      "tem": 600,
      "ça": 601,
      "ant": 602,
      "ho": 603,
      "esta": 604,
      "tica": 605,
      "20": 606,
      "Es": 607,
      "ne": 608,
      "ís": 609,
      "tura": 610,
      "pres": 611,
      "pi": 612,
      "ciona": 613,
      "pu": 614,
      "pri": 615,
      "im": 616,
      "ém": 617,
      "dia": 618,
      "at": 619,
      "ári": 620,
      "ao": 621,
      "não": 622,
      "pr": 623,
      "pel": 624,
      "mas": 625,
      "ior": 626,
      "fa": 627,
      "bi": 628,
      "cor": 629,
      "pre": 630,
      "int": 631,
      "he": 632,
      "lí": 633,
      "cial": 634,
      "ência": 635,
      "est": 636,
      ".\\": 637,
      "][": 638,
      "ismo": 639,
      "ndo": 640,
      "nA": 641,
      "nos": 642,
      "pode": 643,
      "ente": 644,
      "mei": 645,
      "ob": 646,
      "gra": 647,
      "ista": 648,
      "forma": 649,
      "ros": 650,
      "ces": 651,
      "ntes": 652,
      "au": 653,
      "tas": 654,
      "ns": 655,
      "entre": 656,
      "fica": 657,
      "ap": 658,
      "Em": 659,
      "Co": 660,
      "ras": 661,
      "),": 662,
      "país": 663,
      "bo": 664,
      "sua": 665,
      "am": 666,
      "fer": 667,
      "tal": 668,
      "ando": 669,
      "lica": 670,
      "vol": 671,
      "cul": 672,
      "18": 673,
      "maior": 674,
      "dis": 675,
      "vel": 676,
      "mbém": 677,
      "lh": 678,
      "ch": 679,
      "cional": 680,
      "nas": 681,
      "cer": 682,
      "istas": 683,
      "ba": 684,
      "ele": 685,
      "segu": 686,
      "ul": 687,
      "Os": 688,
      "sob": 689,
      "man": 690,
      "endo": 691,
      "também": 692,
      "Re": 693,
      "ali": 694,
      "éri": 695,
      "mos": 696,
      "fun": 697,
      "tro": 698,
      "qui": 699,
      "primei": 700,
      "cons": 701,
      "gia": 702,
      "tado": 703,
      "parti": 704,
      "mes": 705,
      "fin": 706,
      "inter": 707,
      "dades": 708,
      "lar": 709,
      "ru": 710,
      "mar": 711,
      "pela": 712,
      "pelo": 713,
      "Uni": 714,
      "min": 715,
      "ab": 716,
      "seu": 717,
      "ori": 718,
      "mui": 719,
      "No": 720,
      "pes": 721,
      "sem": 722,
      "gen": 723,
      "enta": 724,
      "00": 725,
      "cri": 726,
      "gran": 727,
      "cl": 728,
      "tiva": 729,
      "erra": 730,
      "pla": 731,
      "lia": 732,
      "mun": 733,
      "ês": 734,
      "cha": 735,
      "je": 736,
      "anto": 737,
      "sé": 738,
      "ais": 739,
      "vas": 740,
      "entes": 741,
      "uro": 742,
      "vos": 743,
      "tes": 744,
      "óri": 745,
      "men": 746,
      "Na": 747,
      "gem": 748,
      "car": 749,
      "der": 750,
      "envol": 751,
      "tar": 752,
      "uni": 753,
      "culo": 754,
      "tados": 755,
      "foram": 756,
      "ir": 757,
      "dera": 758,
      "pen": 759,
      "nto": 760,
      "15": 761,
      "ide": 762,
      "ten": 763,
      "dor": 764,
      "cipa": 765,
      "tru": 766,
      "bu": 767,
      "ja": 768,
      "inc": 769,
      "gover": 770,
      "sobre": 771,
      "lação": 772,
      "popu": 773,
      "titu": 774,
      "nO": 775,
      "ição": 776,
      "sil": 777,
      "liza": 778,
      "ge": 779,
      "bal": 780,
      "ino": 781,
      "tros": 782,
      "gos": 783,
      "pera": 784,
      "polí": 785,
      "tri": 786,
      "pl": 787,
      "conhe": 788,
      "ju": 789,
      "10": 790,
      "produ": 791,
      "rasil": 792,
      "anos": 793,
      "mer": 794,
      "fe": 795,
      "As": 796,
      "cada": 797,
      "dores": 798,
      "nar": 799,
      "pas": 800,
      "pan": 801,
      "ças": 802,
      "nti": 803,
      "vez": 804,
      "rei": 805,
      "mentos": 806,
      "vis": 807,
      "via": 808,
      "ós": 809,
      "vam": 810,
      "ário": 811,
      "iste": 812,
      "17": 813,
      ",[": 814,
      "século": 815,
      "16": 816,
      "indo": 817,
      "Por": 818,
      "ber": 819,
      "Al": 820,
      "ticas": 821,
      "contra": 822,
      "eiro": 823,
      "porta": 824,
      "ase": 825,
      "14": 826,
      "ários": 827,
      "tico": 828,
      "cr": 829,
      "cre": 830,
      "io": 831,
      "conheci": 832,
      "espe": 833,
      "200": 834,
      "13": 835,
      "rante": 836,
      "ins": 837,
      "até": 838,
      "fí": 839,
      "prin": 840,
      "val": 841,
      "desenvol": 842,
      "inha": 843,
      "ol": 844,
      "Pa": 845,
      "regi": 846,
      "blica": 847,
      "cent": 848,
      "cam": 849,
      "principa": 850,
      "mundo": 851,
      "esti": 852,
      "pú": 853,
      "plo": 854,
      "este": 855,
      "Ma": 856,
      "cra": 857,
      "il": 858,
      "parte": 859,
      "sica": 860,
      "12": 861,
      "vimento": 862,
      "enas": 863,
      "tá": 864,
      "té": 865,
      "eral": 866,
      "volu": 867,
      "ass": 868,
      "ado": 869,
      "cias": 870,
      "eira": 871,
      "ás": 872,
      "grande": 873,
      "emb": 874,
      "rit": 875,
      "veis": 876,
      "rela": 877,
      "gua": 878,
      "sim": 879,
      "mina": 880,
      "Ca": 881,
      "Ch": 882,
      "oria": 883,
      "inclu": 884,
      "Con": 885,
      "ven": 886,
      "ço": 887,
      "seus": 888,
      "eram": 889,
      "sos": 890,
      "Se": 891,
      "istema": 892,
      "jo": 893,
      "lidade": 894,
      "cria": 895,
      "niza": 896,
      "nica": 897,
      "ix": 898,
      "ini": 899,
      "rança": 900,
      "De": 901,
      "orte": 902,
      "consi": 903,
      "ad": 904,
      "xi": 905,
      "ticos": 906,
      "ona": 907,
      "sistema": 908,
      "mé": 909,
      "ener": 910,
      "los": 911,
      "outros": 912,
      "trabal": 913,
      "social": 914,
      "tivo": 915,
      "che": 916,
      "inf": 917,
      "qual": 918,
      "eito": 919,
      "nia": 920,
      "aria": 921,
      "\\\\": 922,
      "ática": 923,
      "governo": 924,
      "estu": 925,
      "Gu": 926,
      "II": 927,
      "Estados": 928,
      "emas": 929,
      "pois": 930,
      "Brasil": 931,
      "ur": 932,
      "anti": 933,
      "nacional": 934,
      "pon": 935,
      "cultura": 936,
      "ío": 937,
      "Euro": 938,
      "ciais": 939,
      "nio": 940,
      "ores": 941,
      "cidade": 942,
      "tempo": 943,
      "tras": 944,
      "sub": 945,
      "iu": 946,
      "quanto": 947,
      "ada": 948,
      "ing": 949,
      "és": 950,
      "suas": 951,
      "energia": 952,
      "inda": 953,
      "ér": 954,
      "nEm": 955,
      "be": 956,
      "hist": 957,
      "quer": 958,
      "sendo": 959,
      "tores": 960,
      "dent": 961,
      "rece": 962,
      "ória": 963,
      "mica": 964,
      "ano": 965,
      "perío": 966,
      "sas": 967,
      "trans": 968,
      "pró": 969,
      "difer": 970,
      "durante": 971,
      "ral": 972,
      "cimento": 973,
      "fre": 974,
      "rá": 975,
      "ível": 976,
      "lan": 977,
      "cal": 978,
      "tria": 979,
      "nú": 980,
      "mesmo": 981,
      "nta": 982,
      "inte": 983,
      "cou": 984,
      "almente": 985,
      "199": 986,
      "ério": 987,
      "exem": 988,
      "esa": 989,
      "considera": 990,
      "funda": 991,
      "áre": 992,
      "sig": 993,
      "aos": 994,
      "ân": 995,
      "atra": 996,
      "ín": 997,
      "diver": 998,
      "tação": 999,
      "chama": 1000,
      "repres": 1001,
      "países": 1002,
      "quando": 1003,
      "hi": 1004,
      "primeiro": 1005,
      "cí": 1006,
      "todos": 1007,
      "las": 1008,
      "vida": 1009,
      "edade": 1010,
      "ração": 1011,
      "apenas": 1012,
      "árias": 1013,
      "importa": 1014,
      "Ar": 1015,
      "depen": 1016,
      "alg": 1017,
      "está": 1018,
      "cesso": 1019,
      "muito": 1020,
      "período": 1021,
      "demo": 1022,
      "ng": 1023,
      "corre": 1024,
      "onde": 1025,
      "gre": 1026,
      "econ": 1027,
      "lti": 1028,
      "ainda": 1029,
      "guns": 1030,
      "ica": 1031,
      "pelos": 1032,
      "ências": 1033,
      "ganiza": 1034,
      "ribu": 1035,
      "tugu": 1036,
      "indi": 1037,
      "Jo": 1038,
      "lmente": 1039,
      "obje": 1040,
      "mia": 1041,
      "ind": 1042,
      "ac": 1043,
      "dé": 1044,
      "estão": 1045,
      "st": 1046,
      "lhões": 1047,
      "faz": 1048,
      "gar": 1049,
      "reali": 1050,
      "cur": 1051,
      "Mun": 1052,
      "dial": 1053,
      "tí": 1054,
      "esse": 1055,
      "\\\",": 1056,
      "colo": 1057,
      "huma": 1058,
      "base": 1059,
      "30": 1060,
      "teoria": 1061,
      "22": 1062,
      "númer": 1063,
      "ação": 1064,
      "sur": 1065,
      "influ": 1066,
      "pública": 1067,
      ").": 1068,
      "ética": 1069,
      "geral": 1070,
      "atu": 1071,
      "ógi": 1072,
      "gan": 1073,
      "contin": 1074,
      "inas": 1075,
      "cis": 1076,
      "amb": 1077,
      "fen": 1078,
      "exemplo": 1079,
      "ela": 1080,
      "gal": 1081,
      "tê": 1082,
      "cla": 1083,
      "já": 1084,
      "primeira": 1085,
      "outras": 1086,
      "lon": 1087,
      "população": 1088,
      "serva": 1089,
      "cionais": 1090,
      "rac": 1091,
      "Unidos": 1092,
      "lin": 1093,
      "má": 1094,
      "uti": 1095,
      "política": 1096,
      "capi": 1097,
      "tivos": 1098,
      "mí": 1099,
      "pesso": 1100,
      "sido": 1101,
      "25": 1102,
      "bele": 1103,
      "11": 1104,
      "zi": 1105,
      "dois": 1106,
      "mili": 1107,
      "econô": 1108,
      "defin": 1109,
      "et": 1110,
      "Par": 1111,
      "equi": 1112,
      "pé": 1113,
      "come": 1114,
      "197": 1115,
      "narqu": 1116,
      "dência": 1117,
      "fu": 1118,
      "cialmente": 1119,
      "todo": 1120,
      "gas": 1121,
      "nça": 1122,
      "ório": 1123,
      "fia": 1124,
      "bem": 1125,
      "bli": 1126,
      "rou": 1127,
      "guerra": 1128,
      "idade": 1129,
      "tivas": 1130,
      "Ro": 1131,
      "podem": 1132,
      "volução": 1133,
      "vido": 1134,
      "sidade": 1135,
      "vés": 1136,
      "ânti": 1137,
      "fei": 1138,
      "gru": 1139,
      "24": 1140,
      "les": 1141,
      "pério": 1142,
      "ús": 1143,
      "Com": 1144,
      "portugu": 1145,
      "torno": 1146,
      "eco": 1147,
      "após": 1148,
      "vent": 1149,
      "matem": 1150,
      "nico": 1151,
      "poder": 1152,
      "ício": 1153,
      "liv": 1154,
      "198": 1155,
      "tinha": 1156,
      "usa": 1157,
      "resul": 1158,
      "às": 1159,
      "rica": 1160,
      "desde": 1161,
      "medi": 1162,
      "mel": 1163,
      "estabele": 1164,
      "tamente": 1165,
      "Guerra": 1166,
      "organiza": 1167,
      "23": 1168,
      "bilidade": 1169,
      "uso": 1170,
      "emente": 1171,
      "tre": 1172,
      "ços": 1173,
      "nda": 1174,
      "pra": 1175,
      "lares": 1176,
      "três": 1177,
      "ses": 1178,
      "constru": 1179,
      "Ale": 1180,
      "cres": 1181,
      "dro": 1182,
      "entanto": 1183,
      "sia": 1184,
      "nifica": 1185,
      "edi": 1186,
      "Europa": 1187,
      "últi": 1188,
      "dire": 1189,
      "tou": 1190,
      "espa": 1191,
      "dados": 1192,
      "alguns": 1193,
      "196": 1194,
      "memb": 1195,
      "nter": 1196,
      "So": 1197,
      "sist": 1198,
      "partir": 1199,
      "direi": 1200,
      "cerca": 1201,
      "Po": 1202,
      "dio": 1203,
      "super": 1204,
      "cen": 1205,
      "contro": 1206,
      "torna": 1207,
      "França": 1208,
      "posição": 1209,
      "vidade": 1210,
      "nome": 1211,
      "ária": 1212,
      "logia": 1213,
      "início": 1214,
      "Mar": 1215,
      "fran": 1216,
      "milhões": 1217,
      "número": 1218,
      "enquanto": 1219,
      "bora": 1220,
      "manha": 1221,
      "Qu": 1222,
      "nOs": 1223,
      "mil": 1224,
      "significa": 1225,
      "esco": 1226,
      "Im": 1227,
      "através": 1228,
      "ag": 1229,
      "ál": 1230,
      "desenvolvimento": 1231,
      "Alemanha": 1232,
      "sen": 1233,
      "ável": 1234,
      "nomia": 1235,
      "grandes": 1236,
      "iam": 1237,
      "50": 1238,
      "cin": 1239,
      "ceu": 1240,
      "atro": 1241,
      "clas": 1242,
      "moder": 1243,
      "constitu": 1244,
      "Mo": 1245,
      "26": 1246,
      "ntos": 1247,
      "Estado": 1248,
      "duas": 1249,
      "final": 1250,
      "vezes": 1251,
      "depois": 1252,
      "apro": 1253,
      "menos": 1254,
      "apo": 1255,
      "arte": 1256,
      "Su": 1257,
      "escri": 1258,
      "tradi": 1259,
      "hos": 1260,
      "cado": 1261,
      "nal": 1262,
      "tera": 1263,
      "acor": 1264,
      "exist": 1265,
      "28": 1266,
      "{\\\\": 1267,
      "cios": 1268,
      "neces": 1269,
      "dem": 1270,
      "Para": 1271,
      "eiros": 1272,
      "trutura": 1273,
      "posi": 1274,
      "péci": 1275,
      "expres": 1276,
      "bas": 1277,
      "ligi": 1278,
      "gens": 1279,
      "can": 1280,
      "lado": 1281,
      "dist": 1282,
      "euro": 1283,
      "estra": 1284,
      "espéci": 1285,
      "tais": 1286,
      "preside": 1287,
      "mor": 1288,
      "estrutura": 1289,
      "muda": 1290,
      "sistemas": 1291,
      "\\\".[": 1292,
      "ava": 1293,
      "pec": 1294,
      "natura": 1295,
      ").[": 1296,
      "alem": 1297,
      "prob": 1298,
      "cion": 1299,
      "então": 1300,
      "terra": 1301,
      "maioria": 1302,
      "territ": 1303,
      "têm": 1304,
      "racter": 1305,
      "27": 1306,
      "socia": 1307,
      "nicas": 1308,
      "ki": 1309,
      "fl": 1310,
      "muitos": 1311,
      "comun": 1312,
      "bol": 1313,
      "China": 1314,
      "além": 1315,
      "utiliza": 1316,
      "ido": 1317,
      "essa": 1318,
      "tido": 1319,
      "leva": 1320,
      "escra": 1321,
      "caracter": 1322,
      "sul": 1323,
      "érica": 1324,
      "lha": 1325,
      "religi": 1326,
      "art": 1327,
      "quis": 1328,
      "brasil": 1329,
      "fra": 1330,
      "arqui": 1331,
      "antes": 1332,
      "rada": 1333,
      "Ent": 1334,
      "Segu": 1335,
      "sões": 1336,
      "nd": 1337,
      "tanto": 1338,
      "nu": 1339,
      "vem": 1340,
      "zar": 1341,
      "mode": 1342,
      "muitas": 1343,
      "panha": 1344,
      "representa": 1345,
      "Ex": 1346,
      "possu": 1347,
      "loca": 1348,
      "194": 1349,
      "permi": 1350,
      "ância": 1351,
      "bio": 1352,
      "capital": 1353,
      "Portu": 1354,
      "principais": 1355,
      "pou": 1356,
      "há": 1357,
      "década": 1358,
      "produção": 1359,
      "\":": 1360,
      "ise": 1361,
      "Ba": 1362,
      "Um": 1363,
      "clás": 1364,
      "lógi": 1365,
      "assim": 1366,
      "seja": 1367,
      "movimento": 1368,
      "Portugal": 1369,
      "auto": 1370,
      "fas": 1371,
      "meio": 1372,
      "região": 1373,
      "Mundial": 1374,
      "pessoas": 1375,
      "Am": 1376,
      "cli": 1377,
      "peri": 1378,
      "ãos": 1379,
      "acordo": 1380,
      "desta": 1381,
      "continu": 1382,
      "indepen": 1383,
      "cident": 1384,
      "trabalho": 1385,
      "bri": 1386,
      "Li": 1387,
      "umas": 1388,
      "realiza": 1389,
      "vários": 1390,
      "bro": 1391,
      "has": 1392,
      "estado": 1393,
      "publica": 1394,
      "capa": 1395,
      "formas": 1396,
      "aplica": 1397,
      "anarqu": 1398,
      "29": 1399,
      "câ": 1400,
      "rar": 1401,
      "có": 1402,
      "fos": 1403,
      "Reino": 1404,
      "stitu": 1405,
      "dente": 1406,
      "XV": 1407,
      "varia": 1408,
      "processo": 1409,
      "eses": 1410,
      "épo": 1411,
      "mico": 1412,
      "qualquer": 1413,
      "força": 1414,
      "Di": 1415,
      "ement": 1416,
      "istra": 1417,
      "tornou": 1418,
      "din": 1419,
      "sal": 1420,
      "áveis": 1421,
      "refer": 1422,
      "lib": 1423,
      "história": 1424,
      "públi": 1425,
      "Entre": 1426,
      "ger": 1427,
      "ene": 1428,
      "baix": 1429,
      "União": 1430,
      "ida": 1431,
      "norte": 1432,
      "teria": 1433,
      "longo": 1434,
      "termo": 1435,
      "formação": 1436,
      "culos": 1437,
      "çou": 1438,
      "propri": 1439,
      "neg": 1440,
      "Car": 1441,
      "opera": 1442,
      "Fran": 1443,
      "ocu": 1444,
      "ór": 1445,
      "dei": 1446,
      "nova": 1447,
      "Império": 1448,
      "Uma": 1449,
      "geo": 1450,
      "havia": 1451,
      "pare": 1452,
      "República": 1453,
      "visão": 1454,
      "vou": 1455,
      "conc": 1456,
      "tec": 1457,
      "fim": 1458,
      "ofi": 1459,
      "só": 1460,
      "rado": 1461,
      "ritâ": 1462,
      "Du": 1463,
      "lô": 1464,
      "fir": 1465,
      "deter": 1466,
      "ambi": 1467,
      "economia": 1468,
      "XI": 1469,
      "ban": 1470,
      "encontra": 1471,
      "tivamente": 1472,
      "época": 1473,
      "Mé": 1474,
      "mada": 1475,
      "disso": 1476,
      "lín": 1477,
      "000": 1478,
      "reza": 1479,
      "arquite": 1480,
      "Itá": 1481,
      "Le": 1482,
      "plica": 1483,
      "isso": 1484,
      "embora": 1485,
      "nças": 1486,
      "yle": 1487,
      "áreas": 1488,
      "europe": 1489,
      "física": 1490,
      "diferentes": 1491,
      "mbo": 1492,
      "incluindo": 1493,
      "membros": 1494,
      "espécies": 1495,
      "democra": 1496,
      "hou": 1497,
      "cidades": 1498,
      "Inter": 1499,
      "frica": 1500,
      "ck": 1501,
      "deu": 1502,
      "talia": 1503,
      "passa": 1504,
      "den": 1505,
      "dida": 1506,
      "veu": 1507,
      "téc": 1508,
      "aque": 1509,
      "Lu": 1510,
      "fico": 1511,
      "forças": 1512,
      "play": 1513,
      "glo": 1514,
      "dez": 1515,
      "roma": 1516,
      "cle": 1517,
      "cação": 1518,
      "soci": 1519,
      "Itália": 1520,
      "ados": 1521,
      "cida": 1522,
      "autor": 1523,
      "volta": 1524,
      "style": 1525,
      "Des": 1526,
      "Mi": 1527,
      "gera": 1528,
      "tividade": 1529,
      "matemática": 1530,
      "dá": 1531,
      "cular": 1532,
      "íveis": 1533,
      "tante": 1534,
      "área": 1535,
      "Pe": 1536,
      "cient": 1537,
      "obra": 1538,
      "segundo": 1539,
      "importante": 1540,
      "pós": 1541,
      "elei": 1542,
      "ens": 1543,
      "amer": 1544,
      ":\\": 1545,
      "várias": 1546,
      "ental": 1547,
      "outro": 1548,
      "ustria": 1549,
      "sequ": 1550,
      "conf": 1551,
      "display": 1552,
      "presidente": 1553,
      "displaystyle": 1554,
      "quais": 1555,
      "wi": 1556,
      "total": 1557,
      "Per": 1558,
      "mú": 1559,
      "ntu": 1560,
      "associa": 1561,
      "comuni": 1562,
      "aca": 1563,
      "ima": 1564,
      "lho": 1565,
      "conhecido": 1566,
      "própri": 1567,
      "nNo": 1568,
      "teve": 1569,
      "principalmente": 1570,
      "América": 1571,
      "21": 1572,
      "todas": 1573,
      "limi": 1574,
      "}\\": 1575,
      "Cor": 1576,
      "lei": 1577,
      "quânti": 1578,
      "grafia": 1579,
      "dar": 1580,
      "nor": 1581,
      "ata": 1582,
      "zação": 1583,
      "ves": 1584,
      "domina": 1585,
      "liber": 1586,
      "mpi": 1587,
      "ton": 1588,
      "ndi": 1589,
      "conju": 1590,
      "surgi": 1591,
      "var": 1592,
      "oi": 1593,
      "tada": 1594,
      "habi": 1595,
      "nAs": 1596,
      "Is": 1597,
      "relação": 1598,
      "event": 1599,
      "mis": 1600,
      "crip": 1601,
      "ficação": 1602,
      "bra": 1603,
      "gres": 1604,
      "Ta": 1605,
      "america": 1606,
      "tin": 1607,
      "ero": 1608,
      "respon": 1609,
      "lização": 1610,
      "eles": 1611,
      "prote": 1612,
      "espaço": 1613,
      "conserva": 1614,
      "sou": 1615,
      "195": 1616,
      "massa": 1617,
      "devido": 1618,
      "posta": 1619,
      "40": 1620,
      "dita": 1621,
      "bus": 1622,
      "liga": 1623,
      "Sa": 1624,
      "mou": 1625,
      "Ou": 1626,
      "ocorre": 1627,
      "frequ": 1628,
      "grá": 1629,
      "deste": 1630,
      "tipo": 1631,
      "governa": 1632,
      "italia": 1633,
      "rais": 1634,
      "desco": 1635,
      "eta": 1636,
      "gin": 1637,
      "tia": 1638,
      "ciência": 1639,
      "aument": 1640,
      "compu": 1641,
      "dou": 1642,
      "nicos": 1643,
      "melh": 1644,
      "cidental": 1645,
      "sociedade": 1646,
      "fis": 1647,
      "osa": 1648,
      "condi": 1649,
      "ações": 1650,
      "num": 1651,
      "comp": 1652,
      "conqu": 1653,
      "pequ": 1654,
      "ússia": 1655,
      "militar": 1656,
      "Tra": 1657,
      "apres": 1658,
      "tur": 1659,
      "alidade": 1660,
      "território": 1661,
      "ocupa": 1662,
      "defen": 1663,
      "fontes": 1664,
      "ena": 1665,
      "35": 1666,
      "Jap": 1667,
      "São": 1668,
      "real": 1669,
      "sico": 1670,
      "prov": 1671,
      "embro": 1672,
      ")\\": 1673,
      "Pro": 1674,
      "solu": 1675,
      "veram": 1676,
      "Japão": 1677,
      "dios": 1678,
      "terior": 1679,
      "rando": 1680,
      "Espanha": 1681,
      "ares": 1682,
      "peti": 1683,
      "porte": 1684,
      "influência": 1685,
      "rem": 1686,
      "dr": 1687,
      "maiores": 1688,
      "lhas": 1689,
      "Unido": 1690,
      "Nacional": 1691,
      "tempera": 1692,
      "univer": 1693,
      "movi": 1694,
      "gent": 1695,
      "érci": 1696,
      "lher": 1697,
      "34": 1698,
      "divi": 1699,
      "proje": 1700,
      "pesquis": 1701,
      "In": 1702,
      "fal": 1703,
      "tantes": 1704,
      "dido": 1705,
      "experi": 1706,
      "estados": 1707,
      "campo": 1708,
      "ui": 1709,
      "pelas": 1710,
      "To": 1711,
      "zu": 1712,
      "água": 1713,
      "comum": 1714,
      "apre": 1715,
      "corpo": 1716,
      "obras": 1717,
      "regiões": 1718,
      "britâ": 1719,
      "tebol": 1720,
      "principal": 1721,
      "element": 1722,
      "estas": 1723,
      "onal": 1724,
      "estudo": 1725,
      "algumas": 1726,
      "alemã": 1727,
      "probl": 1728,
      "cola": 1729,
      "isto": 1730,
      "límpi": 1731,
      "inos": 1732,
      "ença": 1733,
      "NA": 1734,
      "popular": 1735,
      "federa": 1736,
      "Cana": 1737,
      "feito": 1738,
      "toda": 1739,
      "importantes": 1740,
      "\",": 1741,
      "nível": 1742,
      "tax": 1743,
      "encia": 1744,
      "wiki": 1745,
      "ía": 1746,
      "servi": 1747,
      "Rússia": 1748,
      "evi": 1749,
      "ias": 1750,
      "tão": 1751,
      "arti": 1752,
      "exi": 1753,
      "abri": 1754,
      "Roma": 1755,
      "caso": 1756,
      "poss": 1757,
      "sion": 1758,
      "mem": 1759,
      "comer": 1760,
      "vari": 1761,
      "duz": 1762,
      "Sul": 1763,
      "âne": 1764,
      "dentes": 1765,
      "quatro": 1766,
      "meta": 1767,
      "ísticas": 1768,
      "grama": 1769,
      "ministra": 1770,
      "fundament": 1771,
      "Durante": 1772,
      "Or": 1773,
      "micas": 1774,
      "lugar": 1775,
      "rio": 1776,
      "determina": 1777,
      "rus": 1778,
      "sar": 1779,
      "chin": 1780,
      "problemas": 1781,
      "33": 1782,
      "bar": 1783,
      "quase": 1784,
      "nacionais": 1785,
      "crí": 1786,
      "flor": 1787,
      "Vi": 1788,
      "cido": 1789,
      "tecno": 1790,
      "tares": 1791,
      "ística": 1792,
      "XIX": 1793,
      "música": 1794,
      "Ori": 1795,
      "ze": 1796,
      "espan": 1797,
      "Copa": 1798,
      "origem": 1799,
      "siva": 1800,
      "Esta": 1801,
      "Ne": 1802,
      "Ver": 1803,
      "séri": 1804,
      "duzi": 1805,
      "Como": 1806,
      "classi": 1807,
      "(\\": 1808,
      "Ho": 1809,
      "har": 1810,
      "lio": 1811,
      "sovi": 1812,
      "internacional": 1813,
      "produz": 1814,
      "ecu": 1815,
      "fro": 1816,
      "compl": 1817,
      "dentro": 1818,
      "políticas": 1819,
      "tó": 1820,
      "esca": 1821,
      "ques": 1822,
      "Da": 1823,
      "primeiros": 1824,
      "reg": 1825,
      "intro": 1826,
      "zuela": 1827,
      "afir": 1828,
      "sent": 1829,
      "ático": 1830,
      "aumento": 1831,
      "ema": 1832,
      "xo": 1833,
      "trabalha": 1834,
      "conquista": 1835,
      "37": 1836,
      "Gr": 1837,
      "III": 1838,
      "necess": 1839,
      "vista": 1840,
      "sicos": 1841,
      "Europe": 1842,
      "Jogos": 1843,
      "Partido": 1844,
      "dão": 1845,
      "Gran": 1846,
      "XX": 1847,
      "inv": 1848,
      "cente": 1849,
      "\\\".": 1850,
      "criação": 1851,
      "ts": 1852,
      "novo": 1853,
      "Bo": 1854,
      "eli": 1855,
      "tendo": 1856,
      "teratura": 1857,
      "popula": 1858,
      "contribu": 1859,
      "grupos": 1860,
      "Cam": 1861,
      "Revolução": 1862,
      "geralmente": 1863,
      "36": 1864,
      "zes": 1865,
      "maz": 1866,
      "finan": 1867,
      "órios": 1868,
      "tenha": 1869,
      "cursos": 1870,
      "militares": 1871,
      "tenta": 1872,
      "ído": 1873,
      "ponto": 1874,
      "hoje": 1875,
      "democracia": 1876,
      "zo": 1877,
      "étri": 1878,
      "leg": 1879,
      "função": 1880,
      "grupo": 1881,
      "temperatura": 1882,
      "padr": 1883,
      "fil": 1884,
      "entemente": 1885,
      "começou": 1886,
      "Norte": 1887,
      "tando": 1888,
      "cus": 1889,
      "relaciona": 1890,
      "administra": 1891,
      "ípi": 1892,
      "deri": 1893,
      "decla": 1894,
      "plos": 1895,
      "ércio": 1896,
      "cé": 1897,
      "ndia": 1898,
      "tan": 1899,
      "gação": 1900,
      "seria": 1901,
      "precis": 1902,
      "conhecimento": 1903,
      "econômica": 1904,
      "cem": 1905,
      "cro": 1906,
      "mecâ": 1907,
      "simpl": 1908,
      "natural": 1909,
      "ições": 1910,
      "rí": 1911,
      "org": 1912,
      "comércio": 1913,
      "incípi": 1914,
      "institu": 1915,
      "Jos": 1916,
      "sí": 1917,
      "eiras": 1918,
      "nNa": 1919,
      "expan": 1920,
      "plane": 1921,
      "joga": 1922,
      "consegu": 1923,
      "corri": 1924,
      "Go": 1925,
      "th": 1926,
      "ntas": 1927,
      "papel": 1928,
      "ída": 1929,
      "vada": 1930,
      "especialmente": 1931,
      "inicia": 1932,
      "organização": 1933,
      "confli": 1934,
      "zado": 1935,
      "conta": 1936,
      "189": 1937,
      "Índia": 1938,
      "diz": 1939,
      "sociais": 1940,
      "ército": 1941,
      "série": 1942,
      "En": 1943,
      "aneiro": 1944,
      "quântica": 1945,
      "deno": 1946,
      "conhecida": 1947,
      "incluem": 1948,
      "frances": 1949,
      "comple": 1950,
      "nx": 1951,
      "lav": 1952,
      "execu": 1953,
      "trá": 1954,
      "participa": 1955,
      "alia": 1956,
      "levou": 1957,
      "atin": 1958,
      "observa": 1959,
      "deix": 1960,
      "dias": 1961,
      "Canadá": 1962,
      "Bar": 1963,
      "Pau": 1964,
      "km": 1965,
      "ár": 1966,
      "migra": 1967,
      "Embo": 1968,
      "materia": 1969,
      "crescimento": 1970,
      "op": 1971,
      "quanti": 1972,
      "comb": 1973,
      "chamada": 1974,
      "represent": 1975,
      "48": 1976,
      "bre": 1977,
      "fici": 1978,
      "gol": 1979,
      "diversidade": 1980,
      "Embora": 1981,
      "cel": 1982,
      "mercado": 1983,
      "Ha": 1984,
      "competi": 1985,
      "sol": 1986,
      "micos": 1987,
      "princípi": 1988,
      "língua": 1989,
      "tt": 1990,
      "chamado": 1991,
      "pria": 1992,
      "tória": 1993,
      "38": 1994,
      "60": 1995,
      "morte": 1996,
      "mesma": 1997,
      "arquitetura": 1998,
      "ani": 1999,
      "pó": 2000,
      "mag": 2001,
      "forne": 2002,
      "bura": 2003,
      "La": 2004,
      "Ni": 2005,
      "Vene": 2006,
      "ví": 2007,
      "anu": 2008,
      "quad": 2009,
      "nação": 2010,
      "proces": 2011,
      "simples": 2012,
      "Ing": 2013,
      "fato": 2014,
      "feitos": 2015,
      "Ju": 2016,
      "cole": 2017,
      "regu": 2018,
      "cula": 2019,
      "homen": 2020,
      "controle": 2021,
      "possível": 2022,
      "áticos": 2023,
      "estilo": 2024,
      "fazer": 2025,
      "190": 2026,
      "campe": 2027,
      "mudanças": 2028,
      "Ri": 2029,
      "edu": 2030,
      "fera": 2031,
      "gência": 2032,
      "igu": 2033,
      "numa": 2034,
      "civi": 2035,
      "situ": 2036,
      "desa": 2037,
      "direitos": 2038,
      "cinco": 2039,
      "conjunto": 2040,
      "39": 2041,
      "cto": 2042,
      "empres": 2043,
      "empre": 2044,
      "tureza": 2045,
      "Este": 2046,
      "identi": 2047,
      "nucle": 2048,
      "anarquistas": 2049,
      "ial": 2050,
      "Mundo": 2051,
      "atual": 2052,
      "modelo": 2053,
      "movimentos": 2054,
      "fes": 2055,
      "cadas": 2056,
      "literatura": 2057,
      "mulher": 2058,
      "sempre": 2059,
      "pesquisa": 2060,
      "complex": 2061,
      "aus": 2062,
      "taram": 2063,
      "sele": 2064,
      "manda": 2065,
      "tinham": 2066,
      "zou": 2067,
      "mane": 2068,
      "revolu": 2069,
      "novas": 2070,
      "toma": 2071,
      "assina": 2072,
      "históri": 2073,
      "começa": 2074,
      "conte": 2075,
      "tadas": 2076,
      "mbia": 2077,
      "bili": 2078,
      "Pr": 2079,
      "Rio": 2080,
      "esses": 2081,
      "palav": 2082,
      "estava": 2083,
      "Além": 2084,
      "substitu": 2085,
      "Aus": 2086,
      "político": 2087,
      "gentina": 2088,
      "..": 2089,
      "Pi": 2090,
      "her": 2091,
      "escre": 2092,
      "forte": 2093,
      "80": 2094,
      "elo": 2095,
      "mundial": 2096,
      "direito": 2097,
      "pouco": 2098,
      "futebol": 2099,
      "mecânica": 2100,
      "gou": 2101,
      "tl": 2102,
      "tam": 2103,
      "ang": 2104,
      "valor": 2105,
      "Do": 2106,
      "equ": 2107,
      "programa": 2108,
      "ceram": 2109,
      "xico": 2110,
      "An": 2111,
      "pei": 2112,
      "ale": 2113,
      "resultado": 2114,
      "dinâ": 2115,
      "Fer": 2116,
      "aju": 2117,
      "decis": 2118,
      "povo": 2119,
      "ticamente": 2120,
      "inten": 2121,
      "chado": 2122,
      "Chi": 2123,
      "tório": 2124,
      "ficou": 2125,
      "culas": 2126,
      "passou": 2127,
      "téria": 2128,
      "edades": 2129,
      "ka": 2130,
      "rede": 2131,
      "dimen": 2132,
      "usado": 2133,
      "famí": 2134,
      "char": 2135,
      "ingl": 2136,
      "construção": 2137,
      "cês": 2138,
      "natureza": 2139,
      "pot": 2140,
      "anter": 2141,
      "relações": 2142,
      "fasc": 2143,
      "cientí": 2144,
      "eno": 2145,
      "laterra": 2146,
      "porque": 2147,
      "considerado": 2148,
      "lingua": 2149,
      "Inglaterra": 2150,
      "anterior": 2151,
      "nN": 2152,
      "deve": 2153,
      "descri": 2154,
      "estes": 2155,
      "aproxi": 2156,
      "local": 2157,
      "segunda": 2158,
      "Sovi": 2159,
      "Pri": 2160,
      "África": 2161,
      "recursos": 2162,
      "dução": 2163,
      "média": 2164,
      "chega": 2165,
      "classe": 2166,
      "clu": 2167,
      "carece": 2168,
      "seis": 2169,
      "selho": 2170,
      "explo": 2171,
      "boa": 2172,
      "assum": 2173,
      "diversos": 2174,
      "ígen": 2175,
      "descre": 2176,
      "locais": 2177,
      "Grande": 2178,
      "elha": 2179,
      "termos": 2180,
      "impres": 2181,
      "domí": 2182,
      "dado": 2183,
      "ismos": 2184,
      "riam": 2185,
      "socialismo": 2186,
      "industria": 2187,
      "México": 2188,
      "investi": 2189,
      "pli": 2190,
      "vio": 2191,
      "figu": 2192,
      "orias": 2193,
      "séculos": 2194,
      "70": 2195,
      "úde": 2196,
      "causa": 2197,
      "fíci": 2198,
      "AD": 2199,
      "Cas": 2200,
      "are": 2201,
      "ônia": 2202,
      "posto": 2203,
      "pul": 2204,
      "hidro": 2205,
      "ende": 2206,
      "nov": 2207,
      "permane": 2208,
      "metros": 2209,
      "possi": 2210,
      "pesar": 2211,
      "objetivo": 2212,
      "lé": 2213,
      "mula": 2214,
      "dispu": 2215,
      "45": 2216,
      "Ber": 2217,
      "ame": 2218,
      "tir": 2219,
      "son": 2220,
      "extre": 2221,
      "Internacional": 2222,
      "gê": 2223,
      "matéria": 2224,
      "vado": 2225,
      "ficas": 2226,
      "impera": 2227,
      "ampla": 2228,
      "novos": 2229,
      "estre": 2230,
      "campos": 2231,
      "Olímpi": 2232,
      "organ": 2233,
      "rec": 2234,
      "pensa": 2235,
      "clássica": 2236,
      "global": 2237,
      "Mui": 2238,
      "ético": 2239,
      "regra": 2240,
      "tamento": 2241,
      "separa": 2242,
      "tarde": 2243,
      "integra": 2244,
      "tografia": 2245,
      "poli": 2246,
      "diu": 2247,
      "anál": 2248,
      "velmente": 2249,
      "particular": 2250,
      "possui": 2251,
      "31": 2252,
      "Fe": 2253,
      "promo": 2254,
      "partí": 2255,
      "indús": 2256,
      "indígen": 2257,
      "lhe": 2258,
      "sor": 2259,
      "tário": 2260,
      "ciou": 2261,
      "guas": 2262,
      "exce": 2263,
      "terna": 2264,
      "Machado": 2265,
      "deira": 2266,
      "cir": 2267,
      "gio": 2268,
      "metria": 2269,
      "Mas": 2270,
      "ceiro": 2271,
      "tex": 2272,
      "eleito": 2273,
      "impor": 2274,
      "portuguesa": 2275,
      "taxa": 2276,
      "front": 2277,
      "vor": 2278,
      "outra": 2279,
      "escala": 2280,
      "Venezuela": 2281,
      "-\\": 2282,
      "Argentina": 2283,
      "lamento": 2284,
      "provín": 2285,
      "32": 2286,
      "leis": 2287,
      "luz": 2288,
      "188": 2289,
      "crist": 2290,
      "objetos": 2291,
      "ana": 2292,
      "elas": 2293,
      "modo": 2294,
      "sust": 2295,
      "tró": 2296,
      "Terra": 2297,
      "2010": 2298,
      "império": 2299,
      "ológi": 2300,
      "parece": 2301,
      "estavam": 2302,
      "brasileiro": 2303,
      "próprio": 2304,
      "japon": 2305,
      "escravos": 2306,
      "características": 2307,
      "descober": 2308,
      "espanho": 2309,
      "Ele": 2310,
      "momento": 2311,
      "gias": 2312,
      "bur": 2313,
      "42": 2314,
      "=\\": 2315,
      "dra": 2316,
      "damente": 2317,
      "respo": 2318,
      "net": 2319,
      "centro": 2320,
      "indica": 2321,
      "francês": 2322,
      "condições": 2323,
      "denomina": 2324,
      "Cent": 2325,
      "fesa": 2326,
      "gresso": 2327,
      "melhor": 2328,
      "afirma": 2329,
      "ble": 2330,
      "linha": 2331,
      "aber": 2332,
      "orit": 2333,
      "Nova": 2334,
      "políticos": 2335,
      "propriedade": 2336,
      "nun": 2337,
      "deram": 2338,
      "recu": 2339,
      "camente": 2340,
      "quí": 2341,
      "tipos": 2342,
      "filos": 2343,
      "lema": 2344,
      "corr": 2345,
      "respons": 2346,
      "Te": 2347,
      "},": 2348,
      "tudo": 2349,
      "religios": 2350,
      "homens": 2351,
      "aram": 2352,
      "mani": 2353,
      "exten": 2354,
      "capacidade": 2355,
      "Soviética": 2356,
      "ito": 2357,
      "ris": 2358,
      "áticas": 2359,
      "inastia": 2360,
      "econômico": 2361,
      "livre": 2362,
      "independência": 2363,
      "Europeia": 2364,
      "CO": 2365,
      "ps": 2366,
      "tent": 2367,
      "vin": 2368,
      "aspec": 2369,
      "alta": 2370,
      "elétri": 2371,
      "máqu": 2372,
      "Também": 2373,
      "linguagem": 2374,
      "Ci": 2375,
      "•\\": 2376,
      "ordem": 2377,
      "logo": 2378,
      "erais": 2379,
      "talha": 2380,
      "segurança": 2381,
      "maneira": 2382,
      "elementos": 2383,
      "Si": 2384,
      "−\\": 2385,
      "Constitu": 2386,
      "naturais": 2387,
      "José": 2388,
      "vendo": 2389,
      "rito": 2390,
      "guer": 2391,
      "Nações": 2392,
      "análise": 2393,
      "pia": 2394,
      "pontos": 2395,
      "fora": 2396,
      "títu": 2397,
      "distribu": 2398,
      "conceito": 2399,
      "revolucion": 2400,
      "jul": 2401,
      "povos": 2402,
      "poten": 2403,
      "conce": 2404,
      "gara": 2405,
      "pré": 2406,
      "Desde": 2407,
      "aprendi": 2408,
      "IB": 2409,
      "velo": 2410,
      "único": 2411,
      "posterior": 2412,
      "combina": 2413,
      "100": 2414,
      "FA": 2415,
      "Sant": 2416,
      "ny": 2417,
      "nias": 2418,
      "viol": 2419,
      "istro": 2420,
      "cordas": 2421,
      "superior": 2422,
      "técnicas": 2423,
      "emo": 2424,
      "argu": 2425,
      "formações": 2426,
      "estuda": 2427,
      "diversas": 2428,
      "europeus": 2429,
      "domínio": 2430,
      ".,": 2431,
      "orde": 2432,
      "media": 2433,
      "origin": 2434,
      "medida": 2435,
      "única": 2436,
      "fez": 2437,
      "moderna": 2438,
      "47": 2439,
      "desig": 2440,
      "pintu": 2441,
      "1990": 2442,
      "tlânti": 2443,
      "gí": 2444,
      "tância": 2445,
      "rados": 2446,
      "ref": 2447,
      "cima": 2448,
      "nidade": 2449,
      "exer": 2450,
      "verdade": 2451,
      "saúde": 2452,
      "especí": 2453,
      "cultural": 2454,
      "português": 2455,
      "jus": 2456,
      "quia": 2457,
      "vação": 2458,
      "atribu": 2459,
      "valores": 2460,
      "ambiente": 2461,
      "Lis": 2462,
      "écia": 2463,
      "rea": 2464,
      "arma": 2465,
      "influencia": 2466,
      "atualmente": 2467,
      "apoia": 2468,
      "problema": 2469,
      "legis": 2470,
      "dó": 2471,
      "desse": 2472,
      "diam": 2473,
      "marca": 2474,
      "livro": 2475,
      "estrang": 2476,
      "aconte": 2477,
      "cendo": 2478,
      "cade": 2479,
      "ladas": 2480,
      "artes": 2481,
      "and": 2482,
      "propor": 2483,
      "abor": 2484,
      "órias": 2485,
      "insta": 2486,
      "Joh": 2487,
      "público": 2488,
      "liberdade": 2489,
      "fase": 2490,
      "vul": 2491,
      "terras": 2492,
      "prática": 2493,
      "class": 2494,
      "crise": 2495,
      "baixo": 2496,
      "eventos": 2497,
      "inglês": 2498,
      "Anti": 2499,
      "invas": 2500,
      "sucesso": 2501,
      "partes": 2502,
      "produzi": 2503,
      "alemão": 2504,
      "Segunda": 2505,
      "lógica": 2506,
      "Chile": 2507,
      "amea": 2508,
      "Ao": 2509,
      "eu": 2510,
      "oeste": 2511,
      "eio": 2512,
      "gado": 2513,
      "casa": 2514,
      "homem": 2515,
      "minu": 2516,
      "própria": 2517,
      "democr": 2518,
      "portugueses": 2519,
      "artistas": 2520,
      "norma": 2521,
      "metade": 2522,
      "Primei": 2523,
      "?]\\": 2524,
      "Egi": 2525,
      "Ocidental": 2526,
      "dica": 2527,
      "procu": 2528,
      "ficar": 2529,
      "gosto": 2530,
      "liberal": 2531,
      "célu": 2532,
      "trália": 2533,
      "49": 2534,
      "ofer": 2535,
      "pí": 2536,
      "col": 2537,
      "isa": 2538,
      "semelha": 2539,
      "instru": 2540,
      "Segundo": 2541,
      "Austrália": 2542,
      "Egito": 2543,
      "Ant": 2544,
      "ridade": 2545,
      "mul": 2546,
      "Colô": 2547,
      "Conselho": 2548,
      "melho": 2549,
      "46": 2550,
      "Atlânti": 2551,
      "tina": 2552,
      "compre": 2553,
      "lhos": 2554,
      "rápi": 2555,
      "João": 2556,
      "idos": 2557,
      "suces": 2558,
      "derro": 2559,
      "2006": 2560,
      "expressão": 2561,
      "frequentemente": 2562,
      "pt": 2563,
      "esar": 2564,
      "prova": 2565,
      "posições": 2566,
      "FI": 2567,
      "For": 2568,
      "UE": 2569,
      "blo": 2570,
      "tô": 2571,
      "solar": 2572,
      "impl": 2573,
      "bola": 2574,
      "humanos": 2575,
      "Olímpicos": 2576,
      "adas": 2577,
      "rios": 2578,
      "rique": 2579,
      "lada": 2580,
      "lim": 2581,
      "apresenta": 2582,
      "Au": 2583,
      "evolução": 2584,
      "lidera": 2585,
      "correspon": 2586,
      "Univer": 2587,
      "semble": 2588,
      "lança": 2589,
      "gênio": 2590,
      "sembleia": 2591,
      "cho": 2592,
      "Ásia": 2593,
      "éticos": 2594,
      "dendo": 2595,
      "ficos": 2596,
      "serem": 2597,
      "venção": 2598,
      "Pedro": 2599,
      "Mer": 2600,
      "gên": 2601,
      "pção": 2602,
      "quar": 2603,
      "consequ": 2604,
      "istência": 2605,
      "pressão": 2606,
      "negros": 2607,
      "Tratado": 2608,
      "educação": 2609,
      ").\\": 2610,
      "cru": 2611,
      "jam": 2612,
      "ouro": 2613,
      "leo": 2614,
      "postos": 2615,
      "populares": 2616,
      "onais": 2617,
      "ADN": 2618,
      "flu": 2619,
      "deus": 2620,
      "monarqu": 2621,
      "mio": 2622,
      "família": 2623,
      "classes": 2624,
      "Foi": 2625,
      "dir": 2626,
      "somente": 2627,
      "dura": 2628,
      "apesar": 2629,
      "seguinte": 2630,
      "diferen": 2631,
      "algorit": 2632,
      "Isso": 2633,
      "Federa": 2634,
      "Bre": 2635,
      "acre": 2636,
      "gram": 2637,
      "iza": 2638,
      "nDe": 2639,
      "dever": 2640,
      "revolução": 2641,
      "casos": 2642,
      "2008": 2643,
      "Paulo": 2644,
      "gor": 2645,
      "central": 2646,
      "religião": 2647,
      "quantidade": 2648,
      "jun": 2649,
      "defesa": 2650,
      "tiu": 2651,
      "enos": 2652,
      "vidu": 2653,
      "nização": 2654,
      "clima": 2655,
      "negro": 2656,
      "Bu": 2657,
      "gé": 2658,
      "jor": 2659,
      "zando": 2660,
      "pedia": 2661,
      "extin": 2662,
      "greja": 2663,
      "apoio": 2664,
      "reuni": 2665,
      "terr": 2666,
      "estar": 2667,
      "ferência": 2668,
      "partido": 2669,
      "regime": 2670,
      "velocidade": 2671,
      "cál": 2672,
      "}}": 2673,
      "esia": 2674,
      "caus": 2675,
      "lida": 2676,
      "tubro": 2677,
      "gora": 2678,
      "curso": 2679,
      "dãos": 2680,
      "lá": 2681,
      "tida": 2682,
      "liter": 2683,
      "mont": 2684,
      "favor": 2685,
      "interpre": 2686,
      "jogo": 2687,
      "individu": 2688,
      "modelos": 2689,
      "Ra": 2690,
      "imigra": 2691,
      "nismo": 2692,
      "bate": 2693,
      "especial": 2694,
      "equipe": 2695,
      "existem": 2696,
      "territórios": 2697,
      "padrão": 2698,
      "imperador": 2699,
      "55": 2700,
      "our": 2701,
      "explica": 2702,
      "vege": 2703,
      "inais": 2704,
      "manu": 2705,
      "adap": 2706,
      "count": 2707,
      "1970": 2708,
      "tradição": 2709,
      "ati": 2710,
      "efeitos": 2711,
      "exército": 2712,
      "mostra": 2713,
      "governos": 2714,
      "indústria": 2715,
      "41": 2716,
      "adi": 2717,
      "nem": 2718,
      "informação": 2719,
      "emin": 2720,
      "estadu": 2721,
      "objeto": 2722,
      "avan": 2723,
      "geometria": 2724,
      "90": 2725,
      "Alia": 2726,
      "Após": 2727,
      "Fo": 2728,
      "Sch": 2729,
      "bá": 2730,
      "essas": 2731,
      "tran": 2732,
      "primeiras": 2733,
      "tador": 2734,
      "estima": 2735,
      "escravi": 2736,
      "públicas": 2737,
      "cidadãos": 2738,
      "cidos": 2739,
      "vir": 2740,
      "verno": 2741,
      "gir": 2742,
      "aten": 2743,
      "números": 2744,
      "fenô": 2745,
      "oficial": 2746,
      "Ge": 2747,
      "PIB": 2748,
      "bran": 2749,
      "sores": 2750,
      "mant": 2751,
      "cana": 2752,
      "nações": 2753,
      "concent": 2754,
      "content": 2755,
      "tornar": 2756,
      "multi": 2757,
      "187": 2758,
      "Assim": 2759,
      "capitalismo": 2760,
      "dezembro": 2761,
      "busca": 2762,
      "Lisboa": 2763,
      "58": 2764,
      "apare": 2765,
      "íram": 2766,
      "destru": 2767,
      "gue": 2768,
      "profis": 2769,
      "marx": 2770,
      "pratica": 2771,
      "animais": 2772,
      "mulheres": 2773,
      "regras": 2774,
      "oce": 2775,
      "eros": 2776,
      "tion": 2777,
      "milh": 2778,
      "usão": 2779,
      "partidos": 2780,
      "considerada": 2781,
      "//": 2782,
      "ôs": 2783,
      "tual": 2784,
      "van": 2785,
      "luta": 2786,
      "autores": 2787,
      "url": 2788,
      "décadas": 2789,
      "utili": 2790,
      "tradicional": 2791,
      "aquecimento": 2792,
      "habitantes": 2793,
      "dências": 2794,
      "ânia": 2795,
      "vidades": 2796,
      "1980": 2797,
      "mudança": 2798,
      "wikipedia": 2799,
      "trabalhadores": 2800,
      "monarquia": 2801,
      "65": 2802,
      "://": 2803,
      "Lei": 2804,
      "_count": 2805,
      "htt": 2806,
      "nD": 2807,
      "nen": 2808,
      "conver": 2809,
      "dessa": 2810,
      "forme": 2811,
      "bilhões": 2812,
      "nAl": 2813,
      "Unidas": 2814,
      "últimos": 2815,
      "propriedades": 2816,
      "char_count": 2817,
      "partículas": 2818,
      "https": 2819,
      "reti": 2820,
      "paz": 2821,
      "monar": 2822,
      "tembro": 2823,
      "resultados": 2824,
      "último": 2825,
      "agri": 2826,
      "floresta": 2827,
      "Há": 2828,
      "Lo": 2829,
      "ólica": 2830,
      "tações": 2831,
      "sona": 2832,
      "intes": 2833,
      "inteli": 2834,
      "processos": 2835,
      "importância": 2836,
      "67": 2837,
      "cros": 2838,
      "ocidental": 2839,
      "enten": 2840,
      "neu": 2841,
      "funções": 2842,
      "inspi": 2843,
      "line": 2844,
      "fosse": 2845,
      "palavra": 2846,
      "lados": 2847,
      "meados": 2848,
      "costa": 2849,
      "criar": 2850,
      "humana": 2851,
      "brasileira": 2852,
      "eleições": 2853,
      "novembro": 2854,
      "rações": 2855,
      "didos": 2856,
      "interior": 2857,
      "produtos": 2858,
      "tornaram": 2859,
      "Fi": 2860,
      "níveis": 2861,
      "raram": 2862,
      "cate": 2863,
      "suce": 2864,
      "Essa": 2865,
      "internacionais": 2866,
      "operação": 2867,
      "experiment": 2868,
      "tecnologia": 2869,
      "53": 2870,
      "Apesar": 2871,
      "ama": 2872,
      "docu": 2873,
      "ine": 2874,
      "sicas": 2875,
      "meios": 2876,
      "trou": 2877,
      "tadores": 2878,
      "feita": 2879,
      "alemães": 2880,
      "afe": 2881,
      "len": 2882,
      "ementa": 2883,
      "nada": 2884,
      "desem": 2885,
      "vidos": 2886,
      "tropas": 2887,
      "madamente": 2888,
      "Organiza": 2889,
      "sentido": 2890,
      "Colômbia": 2891,
      ";[": 2892,
      "Fl": 2893,
      "evolu": 2894,
      "nC": 2895,
      "perce": 2896,
      "ficado": 2897,
      "ideias": 2898,
      "apresent": 2899,
      "Nor": 2900,
      "lista": 2901,
      "setembro": 2902,
      "poeta": 2903,
      "proba": 2904,
      "contex": 2905,
      "Min": 2906,
      "iso": 2907,
      "emi": 2908,
      "camin": 2909,
      "armas": 2910,
      "outubro": 2911,
      "vidas": 2912,
      "minou": 2913,
      "abs": 2914,
      "ximo": 2915,
      "acei": 2916,
      "existência": 2917,
      "indígenas": 2918,
      "59": 2919,
      "efeito": 2920,
      "sin": 2921,
      "maio": 2922,
      "interesse": 2923,
      "estudos": 2924,
      "ficiente": 2925,
      "ajuda": 2926,
      "organismos": 2927,
      "of": 2928,
      "over": 2929,
      "oposição": 2930,
      "vão": 2931,
      "devem": 2932,
      "tacional": 2933,
      "compara": 2934,
      "exclu": 2935,
      "conhecidos": 2936,
      "cript": 2937,
      "julho": 2938,
      "John": 2939,
      "gás": 2940,
      "heiro": 2941,
      "leste": 2942,
      "mando": 2943,
      "rias": 2944,
      "nave": 2945,
      "teóri": 2946,
      "desen": 2947,
      "funciona": 2948,
      "absolu": 2949,
      "ideia": 2950,
      "socialistas": 2951,
      "humano": 2952,
      "buraco": 2953,
      "57": 2954,
      "dê": 2955,
      "n2": 2956,
      "ídos": 2957,
      "esas": 2958,
      "engen": 2959,
      "obri": 2960,
      "menor": 2961,
      "antigos": 2962,
      "querda": 2963,
      "recebe": 2964,
      "Grécia": 2965,
      "participação": 2966,
      "Constituição": 2967,
      "potencial": 2968,
      "ofere": 2969,
      "junho": 2970,
      "43": 2971,
      "Janeiro": 2972,
      "africa": 2973,
      "agora": 2974,
      "çar": 2975,
      "enti": 2976,
      "encont": 2977,
      "mon": 2978,
      "ficial": 2979,
      "impa": 2980,
      "Ter": 2981,
      "cidente": 2982,
      "diminu": 2983,
      "resol": 2984,
      "poderia": 2985,
      "membro": 2986,
      "cinema": 2987,
      "expression": 2988,
      "XVI": 2989,
      "começaram": 2990,
      "circu": 2991,
      "acredita": 2992,
      "51": 2993,
      "Man": 2994,
      "anal": 2995,
      "quem": 2996,
      "guar": 2997,
      "última": 2998,
      "ensino": 2999,
      "conflito": 3000,
      "empresas": 3001,
      "ônica": 3002,
      "cara": 3003,
      "pob": 3004,
      "digo": 3005,
      "nios": 3006,
      "faci": 3007,
      "diretamente": 3008,
      "superfíci": 3009,
      "necessidade": 3010,
      "68": 3011,
      "dri": 3012,
      "jas": 3013,
      "del": 3014,
      "alto": 3015,
      "contem": 3016,
      "lizado": 3017,
      "antiga": 3018,
      "edição": 3019,
      "estruturas": 3020,
      "abril": 3021,
      ",\\": 3022,
      "Ir": 3023,
      "teatro": 3024,
      "2007": 3025,
      "tária": 3026,
      "tável": 3027,
      "defini": 3028,
      "definição": 3029,
      "tornando": 3030,
      "Oriental": 3031,
      "material": 3032,
      "aproximadamente": 3033,
      "FIFA": 3034,
      "54": 3035,
      "ceira": 3036,
      "ner": 3037,
      "peito": 3038,
      "deci": 3039,
      "mal": 3040,
      "república": 3041,
      "gradu": 3042,
      "fícios": 3043,
      "dinâmica": 3044,
      "argument": 3045,
      "clo": 3046,
      "emis": 3047,
      "nando": 3048,
      "eletro": 3049,
      "métodos": 3050,
      "gíp": 3051,
      "56": 3052,
      "76": 3053,
      "NU": 3054,
      "agosto": 3055,
      "xe": 3056,
      "sex": 3057,
      "teorias": 3058,
      "usada": 3059,
      "gravidade": 3060,
      "março": 3061,
      "Quando": 3062,
      "bases": 3063,
      "comuns": 3064,
      "fundamental": 3065,
      "desempen": 3066,
      "Organização": 3067,
      "Idade": 3068,
      "espor": 3069,
      "existe": 3070,
      "istem": 3071,
      "persona": 3072,
      "presença": 3073,
      "landa": 3074,
      "1960": 3075,
      "estraté": 3076,
      "instituições": 3077,
      "nunca": 3078,
      "pintura": 3079,
      "Amaz": 3080,
      "gando": 3081,
      "nUm": 3082,
      "mara": 3083,
      "altera": 3084,
      "porém": 3085,
      "líbri": 3086,
      "Carlos": 3087,
      "serviços": 3088,
      "colô": 3089,
      "india": 3090,
      "capo": 3091,
      "ministro": 3092,
      "desenvolveu": 3093,
      "bastante": 3094,
      "Francis": 3095,
      "houve": 3096,
      "variedade": 3097,
      "corrida": 3098,
      "título": 3099,
      "ameaça": 3100,
      "Ban": 3101,
      "Igreja": 3102,
      "Renas": 3103,
      "Sha": 3104,
      "hum": 3105,
      "ko": 3106,
      "tis": 3107,
      "contr": 3108,
      "Assembleia": 3109,
      "guai": 3110,
      "ambos": 3111,
      "expansão": 3112,
      "competição": 3113,
      "princípios": 3114,
      "Primeira": 3115,
      "compreen": 3116,
      "Nos": 3117,
      "hia": 3118,
      "iro": 3119,
      "ell": 3120,
      "eitos": 3121,
      "fonte": 3122,
      "possa": 3123,
      "imper": 3124,
      "volum": 3125,
      "larga": 3126,
      "junta": 3127,
      "179": 3128,
      "realidade": 3129,
      "autori": 3130,
      "52": 3131,
      "atividade": 3132,
      "ecos": 3133,
      "egíp": 3134,
      "ry": 3135,
      "raz": 3136,
      "reci": 3137,
      "tiveram": 3138,
      "rom": 3139,
      "modi": 3140,
      "tuais": 3141,
      "respec": 3142,
      "chu": 3143,
      "minar": 3144,
      "plantas": 3145,
      "visi": 3146,
      "2009": 3147,
      "Fa": 3148,
      "amente": 3149,
      "ios": 3150,
      "íti": 3151,
      "dora": 3152,
      "manter": 3153,
      "lament": 3154,
      "tele": 3155,
      "restri": 3156,
      "vios": 3157,
      "2011": 3158,
      "Alguns": 3159,
      "País": 3160,
      "ilha": 3161,
      "transforma": 3162,
      "continente": 3163,
      "máticas": 3164,
      "Entretanto": 3165,
      "aspectos": 3166,
      "Script": 3167,
      "sta": 3168,
      "esfor": 3169,
      "esporte": 3170,
      "comporta": 3171,
      "sof": 3172,
      "usando": 3173,
      "perten": 3174,
      "frente": 3175,
      "escrita": 3176,
      "candida": 3177,
      "Fre": 3178,
      "ira": 3179,
      "nUma": 3180,
      "óis": 3181,
      "sula": 3182,
      "1930": 3183,
      "eração": 3184,
      "estões": 3185,
      "demons": 3186,
      "conservação": 3187,
      "Fu": 3188,
      "^{": 3189,
      "ig": 3190,
      "iram": 3191,
      "reformas": 3192,
      "informações": 3193,
      "cap": 3194,
      "qualidade": 3195,
      "sofre": 3196,
      "criou": 3197,
      "lizada": 3198,
      "portanto": 3199,
      "onato": 3200,
      "sustent": 3201,
      "atividades": 3202,
      "44": 3203,
      "IA": 3204,
      "Lat": 3205,
      "acima": 3206,
      "ofia": 3207,
      "sis": 3208,
      "zados": 3209,
      "gados": 3210,
      "inado": 3211,
      "chil": 3212,
      "especia": 3213,
      "comunistas": 3214,
      "biodiversidade": 3215,
      "americano": 3216,
      "dólares": 3217,
      "categ": 3218,
      "rapi": 3219,
      "emer": 3220,
      "alcan": 3221,
      "lidades": 3222,
      "sidades": 3223,
      "porâne": 3224,
      "vitória": 3225,
      "terceiro": 3226,
      "torn": 3227,
      "abran": 3228,
      "aborda": 3229,
      "líbrio": 3230,
      "63": 3231,
      "77": 3232,
      "And": 3233,
      "ilhas": 3234,
      "n1": 3235,
      "radia": 3236,
      "data": 3237,
      "orge": 3238,
      "tiv": 3239,
      "enor": 3240,
      "famos": 3241,
      "ficada": 3242,
      "entais": 3243,
      "150": 3244,
      "Portugu": 3245,
      "2005": 3246,
      "físicos": 3247,
      "socialista": 3248,
      "evento": 3249,
      "projeto": 3250,
      "superfície": 3251,
      "Rob": 3252,
      "Wil": 3253,
      "roman": 3254,
      "pol": 3255,
      "conhecidas": 3256,
      "especi": 3257,
      "antigo": 3258,
      "europeia": 3259,
      "ataque": 3260,
      "extrema": 3261,
      "correr": 3262,
      "responsável": 3263,
      "implementa": 3264,
      "64": 3265,
      "Cr": 3266,
      "Cu": 3267,
      "fé": 3268,
      "vá": 3269,
      "coro": 3270,
      "cipl": 3271,
      "suger": 3272,
      "ficul": 3273,
      "disti": 3274,
      "inclui": 3275,
      "chegou": 3276,
      "historia": 3277,
      "matemáticos": 3278,
      "magn": 3279,
      "nuclear": 3280,
      "abstra": 3281,
      "ade": 3282,
      "bor": 3283,
      "gente": 3284,
      "mão": 3285,
      "cados": 3286,
      "tempos": 3287,
      "jogos": 3288,
      "línguas": 3289,
      "ocorreu": 3290,
      "princípio": 3291,
      "garant": 3292,
      "85": 3293,
      "bes": 3294,
      "reconhe": 3295,
      "questões": 3296,
      "nais": 3297,
      "sejam": 3298,
      "dificul": 3299,
      "vadas": 3300,
      "visões": 3301,
      "gregos": 3302,
      "baseada": 3303,
      "Paris": 3304,
      "direção": 3305,
      "XVII": 3306,
      "igual": 3307,
      "profissi": 3308,
      "72": 3309,
      ":[": 3310,
      "bia": 3311,
      "gestão": 3312,
      "cicl": 3313,
      "tein": 3314,
      "unda": 3315,
      "2000": 3316,
      "elec": 3317,
      "ultra": 3318,
      "crescente": 3319,
      "fundamentais": 3320,
      "situação": 3321,
      "elétrica": 3322,
      "cálculo": 3323,
      "61": 3324,
      "99": 3325,
      "Sal": 3326,
      "tórias": 3327,
      "zin": 3328,
      "compan": 3329,
      "reside": 3330,
      "cujo": 3331,
      "ham": 3332,
      "toria": 3333,
      "constante": 3334,
      "unidades": 3335,
      "visto": 3336,
      "nial": 3337,
      "futu": 3338,
      "surgiu": 3339,
      "gráfica": 3340,
      "introduzi": 3341,
      "Muitos": 3342,
      "contexto": 3343,
      "75": 3344,
      "El": 3345,
      "Her": 3346,
      "janeiro": 3347,
      "neste": 3348,
      "essen": 3349,
      "quele": 3350,
      "nou": 3351,
      "interna": 3352,
      "tribu": 3353,
      "transporte": 3354,
      "constituição": 3355,
      "independente": 3356,
      "federal": 3357,
      "máquina": 3358,
      "normalmente": 3359,
      "células": 3360,
      "contemporâne": 3361,
      "Não": 3362,
      "tindo": 3363,
      "civis": 3364,
      "propa": 3365,
      "atle": 3366,
      "aliment": 3367,
      "genética": 3368,
      "tenção": 3369,
      "Social": 3370,
      "escolas": 3371,
      "baixa": 3372,
      "missão": 3373,
      "tróleo": 3374,
      "filosofia": 3375,
      "Universidade": 3376,
      "69": 3377,
      "89": 3378,
      "idência": 3379,
      "ren": 3380,
      "tualmente": 3381,
      "sus": 3382,
      "onda": 3383,
      "estat": 3384,
      "nego": 3385,
      "presente": 3386,
      "seguintes": 3387,
      "sobrevi": 3388,
      "inicial": 3389,
      "econômicas": 3390,
      "livros": 3391,
      "comunismo": 3392,
      "clássico": 3393,
      "golpe": 3394,
      "vídu": 3395,
      "distribuição": 3396,
      "contrário": 3397,
      "62": 3398,
      "Mais": 3399,
      "cção": 3400,
      "mó": 3401,
      "esquerda": 3402,
      "ascen": 3403,
      "mação": 3404,
      "vers": 3405,
      "giu": 3406,
      "ístico": 3407,
      "genera": 3408,
      "urba": 3409,
      "indivídu": 3410,
      "tradicionais": 3411,
      "descobri": 3412,
      "amplamente": 3413,
      "províncias": 3414,
      "rapidamente": 3415,
      "(\\\"": 3416,
      "nCom": 3417,
      "ua": 3418,
      "queda": 3419,
      "1950": 3420,
      "contín": 3421,
      "gravi": 3422,
      "discipl": 3423,
      "viam": 3424,
      "equipes": 3425,
      "medidas": 3426,
      "aplicações": 3427,
      "Oriente": 3428,
      "hidrogênio": 3429,
      ");": 3430,
      "Mes": 3431,
      "bos": 3432,
      "nT": 3433,
      "uda": 3434,
      "remo": 3435,
      "postas": 3436,
      "líder": 3437,
      "180": 3438,
      "cará": 3439,
      "fazendo": 3440,
      "usados": 3441,
      "italiano": 3442,
      "Grã": 3443,
      "manif": 3444,
      "agricultura": 3445,
      "Latina": 3446,
      "66": 3447,
      "Hist": 3448,
      "ONU": 3449,
      "Pen": 3450,
      "Rus": 3451,
      "clí": 3452,
      "fá": 3453,
      "petróleo": 3454,
      "provo": 3455,
      "valia": 3456,
      "equilíbrio": 3457,
      "escola": 3458,
      "XVIII": 3459,
      "francesa": 3460,
      "legisla": 3461,
      "gramas": 3462,
      "82": 3463,
      "êmio": 3464,
      "simi": 3465,
      "trás": 3466,
      "ísticos": 3467,
      "disse": 3468,
      "método": 3469,
      "técnica": 3470,
      "comunidade": 3471,
      "crítica": 3472,
      "planeta": 3473,
      "conflitos": 3474,
      "posteriormente": 3475,
      "estaduni": 3476,
      "500": 3477,
      "abo": 3478,
      "ep": 3479,
      "vê": 3480,
      "ídas": 3481,
      "deres": 3482,
      "compro": 3483,
      "secu": 3484,
      "nota": 3485,
      "lide": 3486,
      "porto": 3487,
      "pico": 3488,
      "preocupa": 3489,
      "chave": 3490,
      "chamados": 3491,
      "cífico": 3492,
      "capita": 3493,
      "seleção": 3494,
      "Medi": 3495,
      "téri": 3496,
      "íam": 3497,
      "dens": 3498,
      "dando": 3499,
      "questão": 3500,
      "resta": 3501,
      "desses": 3502,
      "usar": 3503,
      "primi": 3504,
      "tér": 3505,
      "Congresso": 3506,
      "acab": 3507,
      "comercial": 3508,
      "refle": 3509,
      "Ja": 3510,
      "xim": 3511,
      "ard": 3512,
      "conso": 3513,
      "Esse": 3514,
      "ínsula": 3515,
      "grego": 3516,
      "Sua": 3517,
      "anarquismo": 3518,
      "Peru": 3519,
      "comerciais": 3520,
      "tentativa": 3521,
      "tanha": 3522,
      "Enquanto": 3523,
      "Flor": 3524,
      "Francisco": 3525,
      "Me": 3526,
      "Sh": 3527,
      "mática": 3528,
      "mãos": 3529,
      "pá": 3530,
      "rama": 3531,
      "inva": 3532,
      "nob": 3533,
      "consu": 3534,
      "impe": 3535,
      "formal": 3536,
      "organizações": 3537,
      "geração": 3538,
      "populações": 3539,
      "civil": 3540,
      "Bretanha": 3541,
      "extinção": 3542,
      "negocia": 3543,
      "Nas": 3544,
      "SS": 3545,
      "TO": 3546,
      "éticas": 3547,
      "enfre": 3548,
      "roco": 3549,
      "secre": 3550,
      "2012": 3551,
      "partici": 3552,
      "chefe": 3553,
      "universal": 3554,
      "financia": 3555,
      "pensamento": 3556,
      "98": 3557,
      "centes": 3558,
      "jei": 3559,
      "tino": 3560,
      "taman": 3561,
      "musica": 3562,
      "pica": 3563,
      "ferro": 3564,
      "culturas": 3565,
      "etc": 3566,
      "órg": 3567,
      "Outros": 3568,
      "solução": 3569,
      "exploração": 3570,
      "industrial": 3571,
      "Java": 3572,
      "tismo": 3573,
      "ual": 3574,
      "ônio": 3575,
      "espera": 3576,
      "entrada": 3577,
      "diri": 3578,
      "moda": 3579,
      "respeito": 3580,
      "peças": 3581,
      "extra": 3582,
      "Batalha": 3583,
      "buracos": 3584,
      "inteligência": 3585,
      "Shak": 3586,
      "Hen": 3587,
      "hon": 3588,
      "ologia": 3589,
      "resistência": 3590,
      "gada": 3591,
      "perman": 3592,
      "2016": 3593,
      "neo": 3594,
      "pura": 3595,
      "pros": 3596,
      "fatores": 3597,
      "físico": 3598,
      "métri": 3599,
      "cidentais": 3600,
      "padrões": 3601,
      "escreveu": 3602,
      "texto": 3603,
      "aprendizado": 3604,
      "jornal": 3605,
      "Já": 3606,
      "Pla": 3607,
      "ler": 3608,
      "ón": 3609,
      "redes": 3610,
      "tidos": 3611,
      "arre": 3612,
      "resposta": 3613,
      "será": 3614,
      "líderes": 3615,
      "cesa": 3616,
      "seguida": 3617,
      "consist": 3618,
      "Pacífico": 3619,
      "relatividade": 3620,
      "estabelecer": 3621,
      "aplicação": 3622,
      "romana": 3623,
      "guerras": 3624,
      "pírito": 3625,
      "montan": 3626,
      "71": 3627,
      "73": 3628,
      "Maria": 3629,
      "Sob": 3630,
      "bel": 3631,
      "tim": 3632,
      "diram": 3633,
      "logias": 3634,
      "ung": 3635,
      "Esses": 3636,
      "intelec": 3637,
      "ficados": 3638,
      "certo": 3639,
      "junto": 3640,
      "trabalhos": 3641,
      "calor": 3642,
      "Existem": 3643,
      "oficiais": 3644,
      "imagem": 3645,
      "americanos": 3646,
      "britânico": 3647,
      "Ser": 3648,
      "efe": 3649,
      "ke": 3650,
      "wa": 3651,
      "erva": 3652,
      "pal": 3653,
      "tiça": 3654,
      "solo": 3655,
      "pular": 3656,
      "atmos": 3657,
      "reira": 3658,
      "táveis": 3659,
      "algum": 3660,
      "alguma": 3661,
      "equival": 3662,
      "código": 3663,
      "oficialmente": 3664,
      "florestas": 3665,
      "Dinastia": 3666,
      "The": 3667,
      "acesso": 3668,
      "cum": 3669,
      "jos": 3670,
      "nPor": 3671,
      "nPara": 3672,
      "nDurante": 3673,
      "assu": 3674,
      "til": 3675,
      "divisão": 3676,
      "ciam": 3677,
      "cuja": 3678,
      "tralia": 3679,
      "rania": 3680,
      "costu": 3681,
      "2014": 3682,
      "turas": 3683,
      "grau": 3684,
      "Alex": 3685,
      "pessoa": 3686,
      "distin": 3687,
      "possuem": 3688,
      "romanos": 3689,
      "New": 3690,
      "imperial": 3691,
      "78": 3692,
      "Gal": 3693,
      "Ins": 3694,
      "deles": 3695,
      "declí": 3696,
      "ntemente": 3697,
      "reforma": 3698,
      "tiza": 3699,
      "mias": 3700,
      "onas": 3701,
      "nega": 3702,
      "Comun": 3703,
      "partida": 3704,
      "meses": 3705,
      "merica": 3706,
      "espeare": 3707,
      "dense": 3708,
      "chinesa": 3709,
      "equações": 3710,
      "particularmente": 3711,
      "probabilidade": 3712,
      "futuro": 3713,
      "Shakespeare": 3714,
      "radas": 3715,
      "espi": 3716,
      "orga": 3717,
      "reduz": 3718,
      "taria": 3719,
      "destes": 3720,
      "dessas": 3721,
      "muni": 3722,
      "fini": 3723,
      "abando": 3724,
      "land": 3725,
      "espécie": 3726,
      "NATO": 3727,
      "registra": 3728,
      "Camões": 3729,
      "planeja": 3730,
      "Fernando": 3731,
      "dimensões": 3732,
      "impression": 3733,
      "Atlântico": 3734,
      "declínio": 3735,
      "Manu": 3736,
      "cismo": 3737,
      "dre": 3738,
      "usu": 3739,
      "nimo": 3740,
      "eir": 3741,
      "portos": 3742,
      "gica": 3743,
      "primento": 3744,
      "fala": 3745,
      "relativamente": 3746,
      "criado": 3747,
      "agrí": 3748,
      "Exército": 3749,
      "surgimento": 3750,
      "sivamente": 3751,
      "terrâne": 3752,
      "consumo": 3753,
      "cá": 3754,
      "testa": 3755,
      "cando": 3756,
      "navios": 3757,
      "setor": 3758,
      "pint": 3759,
      "pilo": 3760,
      "publi": 3761,
      "plano": 3762,
      "Assis": 3763,
      "conceitos": 3764,
      "aumentar": 3765,
      "falta": 3766,
      "federação": 3767,
      "soviéticos": 3768,
      "espanhol": 3769,
      "Central": 3770,
      "violência": 3771,
      "semelhante": 3772,
      "79": 3773,
      "83": 3774,
      "Val": 3775,
      "hor": 3776,
      "demais": 3777,
      "talidade": 3778,
      "mental": 3779,
      "poderes": 3780,
      "moderno": 3781,
      "morre": 3782,
      "permite": 3783,
      "próprios": 3784,
      "computação": 3785,
      "franceses": 3786,
      "invasão": 3787,
      "87": 3788,
      "zas": 3789,
      "tone": 3790,
      "gios": 3791,
      "unidade": 3792,
      "produto": 3793,
      "2002": 3794,
      "culturais": 3795,
      "distância": 3796,
      "realizada": 3797,
      "capaz": 3798,
      "italiana": 3799,
      "Romano": 3800,
      "74": 3801,
      "Pes": 3802,
      "gina": 3803,
      "ky": 3804,
      "udo": 3805,
      "manti": 3806,
      "diplo": 3807,
      "moe": 3808,
      "massas": 3809,
      "ames": 3810,
      "chi": 3811,
      "estilos": 3812,
      "Cada": 3813,
      "cientistas": 3814,
      "materiais": 3815,
      "decisão": 3816,
      "fascismo": 3817,
      "recebeu": 3818,
      "92": 3819,
      "97": 3820,
      "Britâ": 3821,
      "PC": 3822,
      "inci": 3823,
      "tratado": 3824,
      "exica": 3825,
      "perda": 3826,
      "ong": 3827,
      "discre": 3828,
      "desenvolver": 3829,
      "diferente": 3830,
      "linhas": 3831,
      "capazes": 3832,
      "produzir": 3833,
      "química": 3834,
      "estrangeiros": 3835,
      "algoritmos": 3836,
      "vegetação": 3837,
      "demonstra": 3838,
      "81": 3839,
      "America": 3840,
      "Tour": 3841,
      "aparece": 3842,
      "brica": 3843,
      "gh": 3844,
      "gumas": 3845,
      "republica": 3846,
      "tare": 3847,
      "cató": 3848,
      "licos": 3849,
      "sivo": 3850,
      "terres": 3851,
      "),[": 3852,
      "sobretudo": 3853,
      "160": 3854,
      "inicialmente": 3855,
      "econó": 3856,
      "representação": 3857,
      "Baix": 3858,
      "Luís": 3859,
      "recupera": 3860,
      "Renascimento": 3861,
      "volume": 3862,
      "manifesta": 3863,
      "Geral": 3864,
      "madas": 3865,
      "plas": 3866,
      "vens": 3867,
      "considerados": 3868,
      "correntes": 3869,
      "econo": 3870,
      "órmula": 3871,
      "administração": 3872,
      "impacto": 3873,
      "denses": 3874,
      "Hi": 3875,
      "ante": 3876,
      "bon": 3877,
      "dada": 3878,
      "tava": 3879,
      "pole": 3880,
      "didas": 3881,
      "carre": 3882,
      "centra": 3883,
      "comunidades": 3884,
      "necessário": 3885,
      "soldados": 3886,
      "fronteira": 3887,
      "descoberta": 3888,
      "escravidão": 3889,
      "caminho": 3890,
      "organi": 3891,
      "Eles": 3892,
      "Pal": 3893,
      "San": 3894,
      "olímpi": 3895,
      "pso": 3896,
      "sede": 3897,
      "poesia": 3898,
      "sivas": 3899,
      "fotografia": 3900,
      "lução": 3901,
      "temente": 3902,
      "2015": 3903,
      "Estes": 3904,
      "fundo": 3905,
      "caracteriza": 3906,
      "pequenas": 3907,
      "britânicos": 3908,
      "jogador": 3909,
      "figura": 3910,
      "tamanho": 3911,
      "Cha": 3912,
      "Pol": 3913,
      "cê": 3914,
      "dinastia": 3915,
      "Áustria": 3916,
      "çando": 3917,
      "dese": 3918,
      "erto": 3919,
      "composta": 3920,
      "cifra": 3921,
      "lau": 3922,
      "dig": 3923,
      "exis": 3924,
      "fortemente": 3925,
      "vence": 3926,
      "Seu": 3927,
      "próxim": 3928,
      "objetivos": 3929,
      "escritores": 3930,
      "continua": 3931,
      "Média": 3932,
      "eleição": 3933,
      "Isto": 3934,
      "pequena": 3935,
      "Aliados": 3936,
      "JavaScript": 3937,
      "Manuel": 3938,
      "Sen": 3939,
      "Sil": 3940,
      "Tur": 3941,
      "cina": 3942,
      "imedia": 3943,
      "san": 3944,
      "cober": 3945,
      "nado": 3946,
      "composição": 3947,
      "lari": 3948,
      "tema": 3949,
      "exporta": 3950,
      "implica": 3951,
      "liam": 3952,
      "ândia": 3953,
      "cologia": 3954,
      "usou": 3955,
      "lógico": 3956,
      "jogadores": 3957,
      ")[": 3958,
      "86": 3959,
      "95": 3960,
      "bene": 3961,
      "han": 3962,
      "hóis": 3963,
      "ocidentais": 3964,
      "deco": 3965,
      "enso": 3966,
      "conforme": 3967,
      "progres": 3968,
      "fix": 3969,
      "foto": 3970,
      "torial": 3971,
      "temas": 3972,
      "aliza": 3973,
      "alização": 3974,
      "Alber": 3975,
      "criada": 3976,
      "levaram": 3977,
      "haviam": 3978,
      "cripto": 3979,
      "proteção": 3980,
      "melhores": 3981,
      "campeão": 3982,
      "possibili": 3983,
      "bloco": 3984,
      "fenômenos": 3985,
      "Irlanda": 3986,
      "capoeira": 3987,
      "juntamente": 3988,
      "aboli": 3989,
      "+\\": 3990,
      "Tr": 3991,
      "bens": 3992,
      "ld": 3993,
      "mado": 3994,
      "reinos": 3995,
      "lias": 3996,
      "dição": 3997,
      "vil": 3998,
      "exter": 3999,
      "pris": 4000,
      "direita": 4001,
      "Popular": 4002,
      "comunista": 4003,
      "romano": 4004,
      "sequência": 4005,
      "criptografia": 4006,
      "evitar": 4007,
      "...": 4008,
      "burgu": 4009,
      "Eu": 4010,
      "haria": 4011,
      "imi": 4012,
      "isas": 4013,
      "entro": 4014,
      "rie": 4015,
      "ciclo": 4016,
      "vice": 4017,
      "filho": 4018,
      "Novo": 4019,
      "nOu": 4020,
      "iniciou": 4021,
      "períodos": 4022,
      "exemplos": 4023,
      "atuais": 4024,
      "escritor": 4025,
      "clássicos": 4026,
      "europeu": 4027,
      "elemento": 4028,
      "variáveis": 4029,
      "espanhóis": 4030,
      "completamente": 4031,
      "civilização": 4032,
      "província": 4033,
      "300": 4034,
      "94": 4035,
      "Rei": 4036,
      "n0": 4037,
      "inar": 4038,
      "ento": 4039,
      "sete": 4040,
      "nomes": 4041,
      "molé": 4042,
      "externa": 4043,
      "vereiro": 4044,
      "2013": 4045,
      "Comu": 4046,
      "ferra": 4047,
      "partilha": 4048,
      "constitucional": 4049,
      "realizado": 4050,
      "fossem": 4051,
      "oito": 4052,
      "Trabal": 4053,
      "artificial": 4054,
      "transi": 4055,
      "razão": 4056,
      "comportamento": 4057,
      "caráter": 4058,
      "Fin": 4059,
      "ato": 4060,
      "ador": 4061,
      "eb": 4062,
      "eva": 4063,
      "ocas": 4064,
      "desi": 4065,
      "reconhecimento": 4066,
      "envia": 4067,
      "lações": 4068,
      "alterna": 4069,
      "teor": 4070,
      "armaz": 4071,
      "procla": 4072,
      "mbu": 4073,
      "seriam": 4074,
      "Estas": 4075,
      "critica": 4076,
      "titude": 4077,
      "Associa": 4078,
      "1998": 4079,
      "fazem": 4080,
      "imagens": 4081,
      "drama": 4082,
      "imigrantes": 4083,
      "84": 4084,
      "eia": 4085,
      "hando": 4086,
      "nesse": 4087,
      "espírito": 4088,
      "renas": 4089,
      "inú": 4090,
      "sel": 4091,
      "seca": 4092,
      "lito": 4093,
      "metro": 4094,
      "mecan": 4095,
      "talin": 4096,
      "união": 4097,
      "âncias": 4098,
      "grega": 4099,
      "independentes": 4100,
      "gráfico": 4101,
      "artigo": 4102,
      "anteriores": 4103,
      "milhão": 4104,
      "AN": 4105,
      "avalia": 4106,
      "ote": 4107,
      "óso": 4108,
      "tale": 4109,
      "quali": 4110,
      "mono": 4111,
      "conven": 4112,
      "fiz": 4113,
      "seres": 4114,
      "nApós": 4115,
      "certos": 4116,
      "eletri": 4117,
      "quias": 4118,
      "regionais": 4119,
      "ganhou": 4120,
      "gases": 4121,
      "presiden": 4122,
      "utilizado": 4123,
      "Segurança": 4124,
      "italianos": 4125,
      "colapso": 4126,
      "palavras": 4127,
      "potências": 4128,
      "original": 4129,
      "Federal": 4130,
      "ferrament": 4131,
      "Demo": 4132,
      "Fria": 4133,
      "abaixo": 4134,
      "bru": 4135,
      "ibi": 4136,
      "ofen": 4137,
      "sando": 4138,
      "altura": 4139,
      "programas": 4140,
      "istério": 4141,
      "2018": 4142,
      "lizados": 4143,
      "aumentou": 4144,
      "científica": 4145,
      "Santa": 4146,
      "radiação": 4147,
      "dista": 4148,
      "ec": 4149,
      "tários": 4150,
      "compa": 4151,
      "digi": 4152,
      "preten": 4153,
      "ficaram": 4154,
      "centros": 4155,
      "Depois": 4156,
      "estudios": 4157,
      "colonial": 4158,
      "temperaturas": 4159,
      "assumiu": 4160,
      "espanhola": 4161,
      "egípcios": 4162,
      "88": 4163,
      "Era": 4164,
      "pôs": 4165,
      "tiram": 4166,
      "cidas": 4167,
      "1920": 4168,
      "certa": 4169,
      "maríti": 4170,
      "genes": 4171,
      "envolvimento": 4172,
      "lizadas": 4173,
      "vene": 4174,
      "fundada": 4175,
      "corrente": 4176,
      "decisões": 4177,
      "quarto": 4178,
      "terrâneo": 4179,
      "VI": 4180,
      "az": 4181,
      "amento": 4182,
      "dí": 4183,
      "nEntre": 4184,
      "refor": 4185,
      "reino": 4186,
      "quint": 4187,
      "tima": 4188,
      "siona": 4189,
      "vados": 4190,
      "pers": 4191,
      "poderos": 4192,
      "cher": 4193,
      "orienta": 4194,
      "oricamente": 4195,
      "1999": 4196,
      "ínci": 4197,
      "definida": 4198,
      "biologia": 4199,
      "poucos": 4200,
      "liberais": 4201,
      "públicos": 4202,
      "possibilidade": 4203,
      "rápido": 4204,
      "91": 4205,
      "Bas": 4206,
      "Cos": 4207,
      "Mu": 4208,
      "Oce": 4209,
      "nn": 4210,
      "õe": 4211,
      "dele": 4212,
      "quim": 4213,
      "cius": 4214,
      "soma": 4215,
      "suficiente": 4216,
      "ond": 4217,
      "presidência": 4218,
      "ficações": 4219,
      "lógicos": 4220,
      "variação": 4221,
      "autoridade": 4222,
      "proteí": 4223,
      "condição": 4224,
      "taxas": 4225,
      "conseguiu": 4226,
      "extensão": 4227,
      "deveria": 4228,
      "Banco": 4229,
      "William": 4230,
      "atmosfera": 4231,
      "Br": 4232,
      "C3": 4233,
      "Gra": 4234,
      "frac": 4235,
      "issão": 4236,
      "reais": 4237,
      "tavam": 4238,
      "entrou": 4239,
      "composto": 4240,
      "picos": 4241,
      "pren": 4242,
      "Cont": 4243,
      "orizo": 4244,
      "meno": 4245,
      "passar": 4246,
      "espec": 4247,
      "cracia": 4248,
      "ganha": 4249,
      "direta": 4250,
      "tradições": 4251,
      "encontrar": 4252,
      "comunicação": 4253,
      "Comunista": 4254,
      "Hu": 4255,
      "Mor": 4256,
      "Pra": 4257,
      "tórios": 4258,
      "vér": 4259,
      "incorpo": 4260,
      "difíci": 4261,
      "umi": 4262,
      "desma": 4263,
      "guidade": 4264,
      "exterior": 4265,
      "midade": 4266,
      "terri": 4267,
      "contras": 4268,
      "ondas": 4269,
      "prepara": 4270,
      "ficamente": 4271,
      "troca": 4272,
      "liar": 4273,
      "judi": 4274,
      "fevereiro": 4275,
      "2001": 4276,
      "2004": 4277,
      "realizar": 4278,
      "equipa": 4279,
      "dinheiro": 4280,
      "Carta": 4281,
      "totalmente": 4282,
      "projetos": 4283,
      "duziu": 4284,
      "Prêmio": 4285,
      "riqueza": 4286,
      "nenhum": 4287,
      "navega": 4288,
      "ecossistemas": 4289,
      "difícil": 4290,
      "etas": 4291,
      "nV": 4292,
      "Índi": 4293,
      "esfera": 4294,
      "madeira": 4295,
      "rob": 4296,
      "comu": 4297,
      "comprimento": 4298,
      "tus": 4299,
      "tude": 4300,
      "vias": 4301,
      "campon": 4302,
      "xima": 4303,
      "longa": 4304,
      "estabeleceu": 4305,
      "modernos": 4306,
      "utilizada": 4307,
      "Francesa": 4308,
      "processa": 4309,
      "promover": 4310,
      "textos": 4311,
      "instrumentos": 4312,
      "Augu": 4313,
      "manutenção": 4314,
      "oceano": 4315,
      "obriga": 4316,
      "({": 4317,
      "Gar": 4318,
      "ami": 4319,
      "atrás": 4320,
      "gentes": 4321,
      "oper": 4322,
      "ré": 4323,
      "vistas": 4324,
      "ntou": 4325,
      "algo": 4326,
      "lip": 4327,
      "tel": 4328,
      "vanta": 4329,
      "preser": 4330,
      "presentes": 4331,
      "práticas": 4332,
      "fara": 4333,
      "corte": 4334,
      "prefer": 4335,
      "sobe": 4336,
      "adqui": 4337,
      "médio": 4338,
      "temporada": 4339,
      "diferença": 4340,
      "1991": 4341,
      "chamadas": 4342,
      "baseado": 4343,
      "1975": 4344,
      "vento": 4345,
      "flores": 4346,
      "individual": 4347,
      "atenção": 4348,
      "colônias": 4349,
      "Tribu": 4350,
      "ff": 4351,
      "fru": 4352,
      "ya": 4353,
      "entos": 4354,
      "combus": 4355,
      "ciências": 4356,
      "lico": 4357,
      "anun": 4358,
      "1917": 4359,
      "veri": 4360,
      "impul": 4361,
      "diais": 4362,
      "diante": 4363,
      "biológi": 4364,
      "Contu": 4365,
      "dispon": 4366,
      "avança": 4367,
      "publicado": 4368,
      "Direi": 4369,
      "passado": 4370,
      "Europeu": 4371,
      "filóso": 4372,
      "campeonato": 4373,
      "australia": 4374,
      "equação": 4375,
      "religiosos": 4376,
      "Países": 4377,
      "enorme": 4378,
      "extremamente": 4379,
      "liderança": 4380,
      "Contudo": 4381,
      "Bra": 4382,
      "Mos": 4383,
      "nEmbora": 4384,
      "ramente": 4385,
      "dança": 4386,
      "reve": 4387,
      "naz": 4388,
      "tei": 4389,
      "dito": 4390,
      "aristo": 4391,
      "destina": 4392,
      "viu": 4393,
      "estres": 4394,
      "menores": 4395,
      "carbo": 4396,
      "indical": 4397,
      "acel": 4398,
      "estradas": 4399,
      "levando": 4400,
      "surgiram": 4401,
      "conservador": 4402,
      "Sarama": 4403,
      "histórico": 4404,
      "potência": 4405,
      "sustenta": 4406,
      "consequência": 4407,
      "indivíduos": 4408,
      "acabou": 4409,
      "eletricidade": 4410,
      "estudiosos": 4411,
      "Saramago": 4412,
      "Hung": 4413,
      "Ind": 4414,
      "Res": 4415,
      "dina": 4416,
      "})": 4417,
      "águas": 4418,
      "comanda": 4419,
      "renda": 4420,
      "rejei": 4421,
      "podiam": 4422,
      "teis": 4423,
      "vizin": 4424,
      "perto": 4425,
      "saída": 4426,
      "estatal": 4427,
      "predomina": 4428,
      "esten": 4429,
      "instein": 4430,
      "advers": 4431,
      "próximo": 4432,
      "1945": 4433,
      "lógicas": 4434,
      "ataques": 4435,
      "americana": 4436,
      "máquinas": 4437,
      "marxismo": 4438,
      "pobreza": 4439,
      "captura": 4440,
      "venezuela": 4441,
      "Hungria": 4442,
      "96": 4443,
      "Be": 4444,
      "Bi": 4445,
      "Cl": 4446,
      "Gol": 4447,
      "Mil": 4448,
      "Nesse": 4449,
      "Var": 4450,
      "femin": 4451,
      "cores": 4452,
      "inho": 4453,
      "cabe": 4454,
      "conde": 4455,
      "1918": 4456,
      "Essas": 4457,
      "amos": 4458,
      "embar": 4459,
      "associada": 4460,
      "limite": 4461,
      "pequeno": 4462,
      "russo": 4463,
      "filmes": 4464,
      "aliança": 4465,
      "peias": 4466,
      "descrição": 4467,
      "fronteiras": 4468,
      "Mercos": 4469,
      "avanços": 4470,
      "linear": 4471,
      "historiadores": 4472,
      "fizeram": 4473,
      "DNA": 4474,
      "Einstein": 4475,
      "James": 4476,
      "]\",": 4477,
      "hes": 4478,
      "ico": 4479,
      "lâ": 4480,
      "nós": 4481,
      "nDesde": 4482,
      "sindical": 4483,
      "xes": 4484,
      "coisas": 4485,
      "releva": 4486,
      "enda": 4487,
      "ensa": 4488,
      "traz": 4489,
      "versão": 4490,
      "2019": 4491,
      "2020": 4492,
      "amor": 4493,
      "consiste": 4494,
      "marcado": 4495,
      "carga": 4496,
      "derru": 4497,
      "colonização": 4498,
      "ambas": 4499,
      "feitas": 4500,
      "religiosa": 4501,
      "anarquista": 4502,
      "refere": 4503,
      "operações": 4504,
      "passaram": 4505,
      "responsáveis": 4506,
      "COI": 4507,
      "garantir": 4508,
      "Mercosul": 4509,
      "AR": 4510,
      "Gerais": 4511,
      "Jac": 4512,
      "Uru": 4513,
      "horizo": 4514,
      "mestre": 4515,
      "nP": 4516,
      "ótica": 4517,
      "ntar": 4518,
      "reno": 4519,
      "tativa": 4520,
      "confia": 4521,
      "profunda": 4522,
      "profes": 4523,
      "\\\")": 4524,
      "fortale": 4525,
      "gido": 4526,
      "lítica": 4527,
      "quilô": 4528,
      "semi": 4529,
      "trias": 4530,
      "2003": 4531,
      "centemente": 4532,
      "tíveis": 4533,
      "econômicos": 4534,
      "frag": 4535,
      "climáticas": 4536,
      "novamente": 4537,
      "conclu": 4538,
      "acaba": 4539,
      "introdução": 4540,
      "fascistas": 4541,
      "torneio": 4542,
      "adequ": 4543,
      "Institu": 4544,
      "MW": 4545,
      "Tal": 4546,
      "UA": 4547,
      "múlti": 4548,
      "ní": 4549,
      "cob": 4550,
      "coorde": 4551,
      "redução": 4552,
      "lam": 4553,
      "lando": 4554,
      "dico": 4555,
      "conec": 4556,
      "descen": 4557,
      "terem": 4558,
      "istó": 4559,
      "istão": 4560,
      "istros": 4561,
      "trô": 4562,
      "corpos": 4563,
      "prece": 4564,
      "formar": 4565,
      "cargo": 4566,
      "incenti": 4567,
      "Mata": 4568,
      "Char": 4569,
      "chegar": 4570,
      "receb": 4571,
      "usadas": 4572,
      "significativa": 4573,
      "escrito": 4574,
      "existentes": 4575,
      "brasileiros": 4576,
      "acadê": 4577,
      "responsa": 4578,
      "determinado": 4579,
      "representantes": 4580,
      "fornece": 4581,
      "dimensão": 4582,
      "exceção": 4583,
      "diferenças": 4584,
      "Ben": 4585,
      "Cer": 4586,
      "Jorge": 4587,
      "SA": 4588,
      "Ti": 4589,
      "mã": 4590,
      "nE": 4591,
      "}}\\": 4592,
      "ét": 4593,
      "colas": 4594,
      "comando": 4595,
      "paga": 4596,
      "enfa": 4597,
      "simb": 4598,
      "unha": 4599,
      "erar": 4600,
      "2017": 4601,
      "ntese": 4602,
      "interno": 4603,
      "170": 4604,
      "desenvolvido": 4605,
      "assassina": 4606,
      "1974": 4607,
      "permitiu": 4608,
      "íadas": 4609,
      "soviético": 4610,
      "aliados": 4611,
      "descrever": 4612,
      "Muitas": 4613,
      "Neste": 4614,
      "aero": 4615,
      "rele": 4616,
      "reduzi": 4617,
      "cau": 4618,
      "tização": 4619,
      "enças": 4620,
      "rico": 4621,
      "nambu": 4622,
      "alfa": 4623,
      "elho": 4624,
      "gual": 4625,
      "proposta": 4626,
      "filhos": 4627,
      "Escó": 4628,
      "bibli": 4629,
      "grafo": 4630,
      "grafos": 4631,
      "formado": 4632,
      "funcion": 4633,
      "consta": 4634,
      "rup": 4635,
      "crianças": 4636,
      "Deus": 4637,
      "consideradas": 4638,
      "estabeleceram": 4639,
      "treina": 4640,
      "Liv": 4641,
      "referência": 4642,
      "ambiental": 4643,
      "Coreia": 4644,
      "ditadura": 4645,
      "soviética": 4646,
      "Berlim": 4647,
      "Atlântica": 4648,
      "gênero": 4649,
      "monarca": 4650,
      "respectivamente": 4651,
      "Pesso": 4652,
      "Escócia": 4653,
      "++": 4654,
      "Cal": 4655,
      "Can": 4656,
      "Mal": 4657,
      "eólica": 4658,
      "onar": 4659,
      "âmb": 4660,
      "çul": 4661,
      "ntino": 4662,
      "requer": 4663,
      "repúblicas": 4664,
      "inismo": 4665,
      "infer": 4666,
      "pai": 4667,
      "combate": 4668,
      "sive": 4669,
      "vador": 4670,
      "fortes": 4671,
      "parta": 4672,
      "estatu": 4673,
      "corda": 4674,
      "amp": 4675,
      "reiv": 4676,
      "jovens": 4677,
      "ixa": 4678,
      "inicius": 4679,
      "dependência": 4680,
      "praticamente": 4681,
      "europeias": 4682,
      "Outras": 4683,
      "opini": 4684,
      "celu": 4685,
      "algoritmo": 4686,
      "encontram": 4687,
      "Mediterrâneo": 4688,
      "toneladas": 4689,
      "litoral": 4690,
      "çulma": 4691,
      "120": 4692,
      "114": 4693,
      "Ka": 4694,
      "RNA": 4695,
      "aç": 4696,
      "lis": 4697,
      "ura": 4698,
      "ízes": 4699,
      "ers": 4700,
      "composi": 4701,
      "latim": 4702,
      "altas": 4703,
      "conse": 4704,
      "\\\"[": 4705,
      "parlamento": 4706,
      "muçulma": 4707,
      "obter": 4708,
      "105": 4709,
      "merca": 4710,
      "Algumas": 4711,
      "130": 4712,
      "landes": 4713,
      "núcle": 4714,
      "1982": 4715,
      "flex": 4716,
      "caracteri": 4717,
      "continuou": 4718,
      "associação": 4719,
      "frequência": 4720,
      "computacional": 4721,
      "dividida": 4722,
      "classificação": 4723,
      "tenham": 4724,
      "Governo": 4725,
      "secund": 4726,
      "prensa": 4727,
      "93": 4728,
      "Anto": 4729,
      "Dia": 4730,
      "fusão": 4731,
      "idio": 4732,
      "mexica": 4733,
      "nes": 4734,
      "tú": 4735,
      "veio": 4736,
      "depu": 4737,
      "decre": 4738,
      "retra": 4739,
      "noção": 4740,
      "poetas": 4741,
      "dicos": 4742,
      "proibi": 4743,
      "inação": 4744,
      "parlament": 4745,
      "impostos": 4746,
      "Comi": 4747,
      "Max": 4748,
      "inclusive": 4749,
      "venceu": 4750,
      "trabalhar": 4751,
      "antigas": 4752,
      "icamente": 4753,
      "continental": 4754,
      "edifícios": 4755,
      "significado": 4756,
      "Mont": 4757,
      "característica": 4758,
      "arquitetô": 4759,
      "Internet": 4760,
      "glob": 4761,
      "pequenos": 4762,
      "ocupação": 4763,
      "comercia": 4764,
      "chineses": 4765,
      "críticos": 4766,
      "produziu": 4767,
      "filme": 4768,
      "chegaram": 4769,
      "guarda": 4770,
      "moeda": 4771,
      "íncipe": 4772,
      "Tribunal": 4773,
      "Nob": 4774,
      "Stalin": 4775,
      "Vinicius": 4776,
      "ânico": 4777,
      "ónio": 4778,
      "asi": 4779,
      "iana": 4780,
      "matri": 4781,
      "inver": 4782,
      "companha": 4783,
      "elos": 4784,
      "levar": 4785,
      "auxi": 4786,
      "autô": 4787,
      "ficadas": 4788,
      "tendência": 4789,
      "102": 4790,
      "admi": 4791,
      "transmi": 4792,
      "matemático": 4793,
      "construir": 4794,
      "utilização": 4795,
      "próprias": 4796,
      "serviço": 4797,
      "síntese": 4798,
      "dizer": 4799,
      "Juan": 4800,
      "emprego": 4801,
      "esportes": 4802,
      "Newton": 4803,
      "transição": 4804,
      "Aten": 4805,
      "Até": 4806,
      "Ainda": 4807,
      "Je": 4808,
      "acu": 4809,
      "acompanha": 4810,
      "ks": 4811,
      "king": 4812,
      "nesta": 4813,
      "opor": 4814,
      "ty": 4815,
      "nadas": 4816,
      "compon": 4817,
      "alca": 4818,
      "teles": 4819,
      "vigor": 4820,
      "expe": 4821,
      "expul": 4822,
      "terminou": 4823,
      "poderiam": 4824,
      "ficam": 4825,
      "finalmente": 4826,
      "geno": 4827,
      "lizações": 4828,
      "gebra": 4829,
      "107": 4830,
      "narra": 4831,
      "1994": 4832,
      "índios": 4833,
      "pessoal": 4834,
      "Que": 4835,
      "escolh": 4836,
      "positivos": 4837,
      "utilizados": 4838,
      "eleitos": 4839,
      "relacionados": 4840,
      "declarou": 4841,
      "quadra": 4842,
      "regular": 4843,
      "descreve": 4844,
      "corrência": 4845,
      "António": 4846,
      "nAlém": 4847,
      "croscó": 4848,
      "Ministério": 4849,
      "caratê": 4850,
      "eletromagn": 4851,
      "publicou": 4852,
      "400": 4853,
      "BA": 4854,
      "EUA": 4855,
      "Ob": 4856,
      "cooperação": 4857,
      "recor": 4858,
      "reinado": 4859,
      "nove": 4860,
      "mentais": 4861,
      "divul": 4862,
      "reser": 4863,
      "log": 4864,
      "guel": 4865,
      "diano": 4866,
      "certas": 4867,
      "tron": 4868,
      "tese": 4869,
      "estufa": 4870,
      "colombia": 4871,
      "definido": 4872,
      "capitalista": 4873,
      "aqueles": 4874,
      "britânica": 4875,
      "cromos": 4876,
      "mandato": 4877,
      "chegada": 4878,
      "figuras": 4879,
      "religiosas": 4880,
      "provavelmente": 4881,
      "imigração": 4882,
      "resolver": 4883,
      "televisão": 4884,
      "categoria": 4885,
      "perspec": 4886,
      "Uruguai": 4887,
      "açú": 4888,
      "110": 4889,
      "112": 4890,
      "Ad": 4891,
      "Fórmula": 4892,
      "Preside": 4893,
      "it": 4894,
      "zona": 4895,
      "ára": 4896,
      "áto": 4897,
      "ian": 4898,
      "orça": 4899,
      "mito": 4900,
      "\\\"),": 4901,
      "voto": 4902,
      "zagem": 4903,
      "meras": 4904,
      "privada": 4905,
      "nAo": 4906,
      "planta": 4907,
      "adamente": 4908,
      "permitindo": 4909,
      "mistura": 4910,
      "experiência": 4911,
      "corridas": 4912,
      "nucleares": 4913,
      "programação": 4914,
      "indígena": 4915,
      "rápida": 4916,
      "fenômeno": 4917,
      "engenharia": 4918,
      "Amazônia": 4919,
      "esforços": 4920,
      "abordagem": 4921,
      "He": 4922,
      "Lou": 4923,
      "Lond": 4924,
      "Mon": 4925,
      "Ru": 4926,
      "Tho": 4927,
      "Wal": 4928,
      "aé": 4929,
      "vei": 4930,
      "ônicas": 4931,
      "ises": 4932,
      "recom": 4933,
      "infini": 4934,
      "caça": 4935,
      "cimentos": 4936,
      "anex": 4937,
      "culares": 4938,
      "vera": 4939,
      "gadas": 4940,
      "pio": 4941,
      "nApesar": 4942,
      "Porém": 4943,
      "físicas": 4944,
      "vale": 4945,
      "livres": 4946,
      "estabelecimento": 4947,
      "geométri": 4948,
      "conjuntos": 4949,
      "ligação": 4950,
      "Davi": 4951,
      "populacional": 4952,
      "ficientes": 4953,
      "kate": 4954,
      "Civil": 4955,
      "democrático": 4956,
      "procura": 4957,
      "interpretação": 4958,
      "sofreu": 4959,
      "romance": 4960,
      "profissional": 4961,
      "térmica": 4962,
      "Augus": 4963,
      "quilômetros": 4964,
      "âmbito": 4965,
      "Londres": 4966,
      "Er": 4967,
      "IV": 4968,
      "Tor": 4969,
      "Tem": 4970,
      "afas": 4971,
      "ceiros": 4972,
      "imento": 4973,
      "sindica": 4974,
      "ães": 4975,
      "ert": 4976,
      "erro": 4977,
      "cações": 4978,
      "dimento": 4979,
      "mobi": 4980,
      "ficiência": 4981,
      "unos": 4982,
      "veí": 4983,
      "1914": 4984,
      "formou": 4985,
      "mba": 4986,
      "ons": 4987,
      "regional": 4988,
      "conside": 4989,
      "transformação": 4990,
      "prata": 4991,
      "significativamente": 4992,
      "Pernambu": 4993,
      "elite": 4994,
      "filosó": 4995,
      "armadas": 4996,
      "cadeia": 4997,
      "produzido": 4998,
      "milhares": 4999,
      "nenhuma": 5000,
      "igualdade": 5001,
      "atletas": 5002,
      "estatística": 5003,
      "proteínas": 5004,
      "Pessoa": 5005,
      "alcança": 5006,
      "açúcar": 5007,
      "Ai": 5008,
      "Cru": 5009,
      "Econ": 5010,
      "Han": 5011,
      "Pu": 5012,
      "Ros": 5013,
      "Sou": 5014,
      "nS": 5015,
      "nÉ": 5016,
      "ãs": 5017,
      "eru": 5018,
      "ricos": 5019,
      "rigor": 5020,
      "elé": 5021,
      "vivos": 5022,
      "logos": 5023,
      "ances": 5024,
      "fami": 5025,
      "estrei": 5026,
      "Col": 5027,
      "cerim": 5028,
      "alimentos": 5029,
      "quilo": 5030,
      "abas": 5031,
      "urban": 5032,
      "Parlamento": 5033,
      "resultou": 5034,
      "aplicada": 5035,
      "Desenvolvimento": 5036,
      "conservadores": 5037,
      "realismo": 5038,
      "custo": 5039,
      "Barroco": 5040,
      "disputa": 5041,
      "recei": 5042,
      "abertura": 5043,
      "aspecto": 5044,
      "deuses": 5045,
      "emissões": 5046,
      "assuntos": 5047,
      "Cul": 5048,
      "Cab": 5049,
      "gelo": 5050,
      "jar": 5051,
      "ly": 5052,
      "rer": 5053,
      "tz": 5054,
      "vali": 5055,
      "ânica": 5056,
      "radi": 5057,
      "codi": 5058,
      "doenças": 5059,
      "reto": 5060,
      "sema": 5061,
      "podia": 5062,
      "provas": 5063,
      "protes": 5064,
      "legal": 5065,
      "satis": 5066,
      "mudou": 5067,
      "templos": 5068,
      "bios": 5069,
      "interesses": 5070,
      "101": 5071,
      "produtor": 5072,
      "143": 5073,
      "cento": 5074,
      "Mag": 5075,
      "infra": 5076,
      "receber": 5077,
      "interação": 5078,
      "baixas": 5079,
      "propriet": 5080,
      "gráficas": 5081,
      "computadores": 5082,
      "tecnologias": 5083,
      "custos": 5084,
      "burgo": 5085,
      "fluxo": 5086,
      "utilizando": 5087,
      "térias": 5088,
      "Silva": 5089,
      "carbono": 5090,
      "Presidente": 5091,
      "Bru": 5092,
      "DE": 5093,
      "Ed": 5094,
      "Edu": 5095,
      "Isa": 5096,
      "OC": 5097,
      "Wor": 5098,
      "ku": 5099,
      "lismo": 5100,
      "ílio": 5101,
      "ótico": 5102,
      "monu": 5103,
      "reso": 5104,
      "resto": 5105,
      "supera": 5106,
      "profun": 5107,
      "istos": 5108,
      "gola": 5109,
      "meda": 5110,
      "ênia": 5111,
      "prima": 5112,
      "privi": 5113,
      "formam": 5114,
      "entretanto": 5115,
      "seguido": 5116,
      "oriental": 5117,
      "mundiais": 5118,
      "134": 5119,
      "desenvolveram": 5120,
      "infant": 5121,
      "lançou": 5122,
      "1986": 5123,
      "destaca": 5124,
      "Liber": 5125,
      "libera": 5126,
      "negó": 5127,
      "encontrados": 5128,
      "evidências": 5129,
      "lugares": 5130,
      "chinês": 5131,
      "precisa": 5132,
      "representar": 5133,
      "magnet": 5134,
      "liberalismo": 5135,
      "personagens": 5136,
      "gravitacional": 5137,
      "terrestre": 5138,
      "Baixos": 5139,
      "moléculas": 5140,
      "Atenas": 5141,
      "magnetismo": 5142,
      "116": 5143,
      "Jus": 5144,
      "Ocidente": 5145,
      "Vir": 5146,
      "cele": 5147,
      "finais": 5148,
      "tram": 5149,
      "éis": 5150,
      "patro": 5151,
      "arque": 5152,
      "vações": 5153,
      "destas": 5154,
      "terceira": 5155,
      "undo": 5156,
      "lutas": 5157,
      "posse": 5158,
      "estabilidade": 5159,
      "imp": 5160,
      "fator": 5161,
      "bido": 5162,
      "culto": 5163,
      "intervenção": 5164,
      "103": 5165,
      "passo": 5166,
      "desenvolvidos": 5167,
      "Brasileira": 5168,
      "Paraguai": 5169,
      "termodinâmica": 5170,
      "limites": 5171,
      "dominação": 5172,
      "computador": 5173,
      "Todos": 5174,
      "necessária": 5175,
      "Bolí": 5176,
      "recentes": 5177,
      "Portuguesa": 5178,
      "contínu": 5179,
      "disciplina": 5180,
      "espiri": 5181,
      "desigual": 5182,
      "funcionários": 5183,
      "far": 5184,
      "hu": 5185,
      "tárias": 5186,
      "él": 5187,
      "iano": 5188,
      "caval": 5189,
      "tidas": 5190,
      "encial": 5191,
      "altamente": 5192,
      "vai": 5193,
      "exa": 5194,
      "fon": 5195,
      "usam": 5196,
      "obser": 5197,
      "rupção": 5198,
      "mensa": 5199,
      "berg": 5200,
      "fício": 5201,
      "desenvolvida": 5202,
      "consider": 5203,
      "ambientais": 5204,
      "dissol": 5205,
      "gráficos": 5206,
      "universidades": 5207,
      "apren": 5208,
      "Campe": 5209,
      "escrever": 5210,
      "científico": 5211,
      "permaneceu": 5212,
      "revolucionário": 5213,
      "literária": 5214,
      "implementação": 5215,
      "Socialista": 5216,
      "estadunidenses": 5217,
      "tarefas": 5218,
      "camponeses": 5219,
      "Nobel": 5220,
      "autôno": 5221,
      "Aires": 5222,
      "118": 5223,
      "115": 5224,
      "Huma": 5225,
      "Sol": 5226,
      "ativa": 5227,
      "ctos": 5228,
      "dy": 5229,
      "dram": 5230,
      "ecologia": 5231,
      "ges": 5232,
      "iz": 5233,
      "ocorrer": 5234,
      "delas": 5235,
      "ianismo": 5236,
      "haver": 5237,
      "tratados": 5238,
      "traduzi": 5239,
      "exp": 5240,
      "ênfase": 5241,
      "Espan": 5242,
      "cionar": 5243,
      "diana": 5244,
      "ates": 5245,
      "graças": 5246,
      "cessão": 5247,
      "batalha": 5248,
      "mann": 5249,
      "érios": 5250,
      "mesmos": 5251,
      "108": 5252,
      "Porto": 5253,
      "més": 5254,
      "cír": 5255,
      "permitir": 5256,
      "publicação": 5257,
      "banco": 5258,
      "Coro": 5259,
      "dividido": 5260,
      "contribuição": 5261,
      "cristãos": 5262,
      "títulos": 5263,
      "aprendizagem": 5264,
      "célula": 5265,
      "semelhantes": 5266,
      "liderado": 5267,
      "causas": 5268,
      "individuais": 5269,
      "africanos": 5270,
      "Península": 5271,
      "agrícolas": 5272,
      "ferramentas": 5273,
      "comumente": 5274,
      "adquiri": 5275,
      "Industria": 5276,
      "bibliote": 5277,
      "Ib": 5278,
      "OM": 5279,
      "úlio": 5280,
      "dedi": 5281,
      "debate": 5282,
      "café": 5283,
      "paisa": 5284,
      "lago": 5285,
      "queb": 5286,
      "dições": 5287,
      "conex": 5288,
      "paradig": 5289,
      "legi": 5290,
      "verão": 5291,
      "duras": 5292,
      "grada": 5293,
      "voltas": 5294,
      "fundou": 5295,
      "consenso": 5296,
      "planí": 5297,
      "carvão": 5298,
      "ball": 5299,
      "campanha": 5300,
      "125": 5301,
      "ariamente": 5302,
      "elabora": 5303,
      "Médio": 5304,
      "anual": 5305,
      "famílias": 5306,
      "combinação": 5307,
      "avanço": 5308,
      "pobres": 5309,
      "Mesmo": 5310,
      "musical": 5311,
      "Comunidade": 5312,
      "Charles": 5313,
      "alfabe": 5314,
      "Industrial": 5315,
      "planíci": 5316,
      "119": 5317,
      "113": 5318,
      "Lor": 5319,
      "ades": 5320,
      "aves": 5321,
      "eval": 5322,
      "fós": 5323,
      "frá": 5324,
      "dela": 5325,
      "domés": 5326,
      "iner": 5327,
      "topo": 5328,
      "tela": 5329,
      "sivos": 5330,
      "uns": 5331,
      "2022": 5332,
      "ficando": 5333,
      "Real": 5334,
      "chevi": 5335,
      "subs": 5336,
      "depende": 5337,
      "111": 5338,
      "cinética": 5339,
      "autonomia": 5340,
      "destaque": 5341,
      "habita": 5342,
      "Outro": 5343,
      "pesquisas": 5344,
      "possíveis": 5345,
      "deixou": 5346,
      "pósi": 5347,
      "japoneses": 5348,
      "descobertas": 5349,
      "legislação": 5350,
      "favore": 5351,
      "ascensão": 5352,
      "Florença": 5353,
      "equivalente": 5354,
      "Gales": 5355,
      "impressionismo": 5356,
      "Oceano": 5357,
      "%,": 5358,
      "117": 5359,
      "GP": 5360,
      "Ger": 5361,
      "Mc": 5362,
      "Mat": 5363,
      "OT": 5364,
      "nf": 5365,
      "nComo": 5366,
      "ple": 5367,
      "oso": 5368,
      "esque": 5369,
      "escu": 5370,
      "repeti": 5371,
      "recentemente": 5372,
      "altos": 5373,
      "polu": 5374,
      "pontu": 5375,
      "litar": 5376,
      "und": 5377,
      "giram": 5378,
      "formada": 5379,
      "seguir": 5380,
      "marcou": 5381,
      "Napole": 5382,
      "envolve": 5383,
      "ideologia": 5384,
      "106": 5385,
      "109": 5386,
      "124": 5387,
      "energ": 5388,
      "transfer": 5389,
      "1992": 5390,
      "fundação": 5391,
      "hipó": 5392,
      "250": 5393,
      "ventu": 5394,
      "últimas": 5395,
      "mortes": 5396,
      "encontradas": 5397,
      "gerais": 5398,
      "ércitos": 5399,
      "Dante": 5400,
      "competições": 5401,
      "empresa": 5402,
      "identidade": 5403,
      "peixes": 5404,
      "revolucionários": 5405,
      "específicas": 5406,
      "liderada": 5407,
      "consequências": 5408,
      "definidas": 5409,
      "candidato": 5410,
      "História": 5411,
      "restau": 5412,
      "órgão": 5413,
      "Alexand": 5414,
      "planejamento": 5415,
      "morreu": 5416,
      "presidencial": 5417,
      "perspectiva": 5418,
      "%),": 5419,
      ".)": 5420,
      "Acade": 5421,
      "Bél": 5422,
      "Indo": 5423,
      "ML": 5424,
      "Tu": 5425,
      "by": 5426,
      "oxi": 5427,
      "una": 5428,
      "vores": 5429,
      "we": 5430,
      "ácio": 5431,
      "recente": 5432,
      "nados": 5433,
      "compra": 5434,
      "mol": 5435,
      "viria": 5436,
      "votos": 5437,
      "dul": 5438,
      "Contos": 5439,
      "Regi": 5440,
      "peso": 5441,
      "104": 5442,
      "passando": 5443,
      "ingles": 5444,
      "estabelecido": 5445,
      "prazo": 5446,
      "álgebra": 5447,
      "escritos": 5448,
      "Liga": 5449,
      "associados": 5450,
      "afirmou": 5451,
      "desafi": 5452,
      "heredi": 5453,
      "estrelas": 5454,
      "partícula": 5455,
      "japonesa": 5456,
      "mantém": 5457,
      "piloto": 5458,
      "Costa": 5459,
      "David": 5460,
      "Coroa": 5461,
      "Bélgica": 5462,
      "Bran": 5463,
      "Bul": 5464,
      "Pos": 5465,
      "Ste": 5466,
      "nista": 5467,
      "ugu": 5468,
      "uais": 5469,
      "well": 5470,
      "zonas": 5471,
      "ônico": 5472,
      "redor": 5473,
      "renov": 5474,
      "inou": 5475,
      "cabo": 5476,
      "pau": 5477,
      "compartilha": 5478,
      "licas": 5479,
      "argent": 5480,
      "pedra": 5481,
      "param": 5482,
      "expec": 5483,
      "trina": 5484,
      "mbi": 5485,
      "certe": 5486,
      "marin": 5487,
      "ideal": 5488,
      "jurí": 5489,
      "139": 5490,
      "influências": 5491,
      "gastos": 5492,
      "1961": 5493,
      "expressa": 5494,
      "continuaram": 5495,
      "realização": 5496,
      "variações": 5497,
      "Die": 5498,
      "bancos": 5499,
      "memória": 5500,
      "Hoje": 5501,
      "contato": 5502,
      "executivo": 5503,
      "denominado": 5504,
      "democrática": 5505,
      "funcionamento": 5506,
      "expressionismo": 5507,
      "recifes": 5508,
      "Robert": 5509,
      "modalidade": 5510,
      "renascent": 5511,
      "desmatamento": 5512,
      "soberania": 5513,
      "amplia": 5514,
      "Pernambuco": 5515,
      "%.[": 5516,
      "Ara": 5517,
      "CE": 5518,
      "Minas": 5519,
      "agra": 5520,
      "aces": 5521,
      "bul": 5522,
      "idas": 5523,
      "ícios": 5524,
      "ramo": 5525,
      "racional": 5526,
      "erre": 5527,
      "erros": 5528,
      "mante": 5529,
      "revolta": 5530,
      "quin": 5531,
      "patri": 5532,
      "lizar": 5533,
      "gues": 5534,
      "promul": 5535,
      "proemin": 5536,
      "expli": 5537,
      "termina": 5538,
      "imprensa": 5539,
      "obs": 5540,
      "bac": 5541,
      "bais": 5542,
      "seguiu": 5543,
      "interessa": 5544,
      "carta": 5545,
      "valori": 5546,
      "Confederação": 5547,
      "ângu": 5548,
      "humanas": 5549,
      "mídia": 5550,
      "1978": 5551,
      "significativo": 5552,
      "bioma": 5553,
      "realizados": 5554,
      "referir": 5555,
      "bandeira": 5556,
      "dominante": 5557,
      "soluções": 5558,
      "universo": 5559,
      "determinada": 5560,
      "relacionadas": 5561,
      "Paul": 5562,
      "simplesmente": 5563,
      "diferencial": 5564,
      "possam": 5565,
      "esforço": 5566,
      "Frente": 5567,
      "nobreza": 5568,
      "participar": 5569,
      "processamento": 5570,
      "responsabilidade": 5571,
      "Cerca": 5572,
      "veículos": 5573,
      "Ela": 5574,
      "Ga": 5575,
      "Gru": 5576,
      "Ilhas": 5577,
      "Ku": 5578,
      "Mem": 5579,
      "Mus": 5580,
      "RSS": 5581,
      "jeito": 5582,
      "ot": 5583,
      "vesti": 5584,
      "|\\": 5585,
      "cant": 5586,
      "palá": 5587,
      "rota": 5588,
      "quela": 5589,
      "mentação": 5590,
      "tons": 5591,
      "motivos": 5592,
      "concl": 5593,
      "eios": 5594,
      "paral": 5595,
      "tratamento": 5596,
      "ísmo": 5597,
      "fabrica": 5598,
      "heter": 5599,
      "trons": 5600,
      "pensar": 5601,
      "bert": 5602,
      "140": 5603,
      "142": 5604,
      "131": 5605,
      "135": 5606,
      "129": 5607,
      "inimi": 5608,
      "1997": 5609,
      "máximo": 5610,
      "cresceu": 5611,
      "espaços": 5612,
      "1966": 5613,
      "senh": 5614,
      "escrava": 5615,
      "deiras": 5616,
      "tentativas": 5617,
      "atingiu": 5618,
      "árqui": 5619,
      "históricos": 5620,
      "Angola": 5621,
      "design": 5622,
      "exercí": 5623,
      "Antiguidade": 5624,
      "bloque": 5625,
      "cruza": 5626,
      "Federação": 5627,
      "literário": 5628,
      "teóricos": 5629,
      "sobreviv": 5630,
      "Cultura": 5631,
      "resolução": 5632,
      "Cat": 5633,
      "Fil": 5634,
      "dô": 5635,
      "dindo": 5636,
      "fór": 5637,
      "nB": 5638,
      "nc": 5639,
      "ph": 5640,
      "õem": 5641,
      "ret": 5642,
      "reis": 5643,
      "compe": 5644,
      "alo": 5645,
      "notáveis": 5646,
      "mora": 5647,
      "solares": 5648,
      "concre": 5649,
      "protesta": 5650,
      "von": 5651,
      "durou": 5652,
      "mulo": 5653,
      "2021": 5654,
      "podendo": 5655,
      "bomb": 5656,
      "chas": 5657,
      "mostrou": 5658,
      "pesca": 5659,
      "ástica": 5660,
      "chegando": 5661,
      "transpor": 5662,
      "cenário": 5663,
      "aprovei": 5664,
      "artística": 5665,
      "Exem": 5666,
      "1940": 5667,
      "associado": 5668,
      "protegi": 5669,
      "governador": 5670,
      "russa": 5671,
      "necessariamente": 5672,
      "educa": 5673,
      "desapare": 5674,
      "expressionista": 5675,
      "Salvador": 5676,
      "ocasi": 5677,
      "ofensiva": 5678,
      "istóteles": 5679,
      "inferior": 5680,
      "landeses": 5681,
      "cromosso": 5682,
      "Espanho": 5683,
      "Gen": 5684,
      "cú": 5685,
      "epi": 5686,
      "tistas": 5687,
      "án": 5688,
      "áu": 5689,
      "ún": 5690,
      "corais": 5691,
      "ense": 5692,
      "notável": 5693,
      "tomou": 5694,
      "poemas": 5695,
      "convo": 5696,
      "long": 5697,
      "sudeste": 5698,
      "proven": 5699,
      "ley": 5700,
      "\\\".\\": 5701,
      "peru": 5702,
      "perfei": 5703,
      "neur": 5704,
      "bida": 5705,
      "éricas": 5706,
      "carne": 5707,
      "viagem": 5708,
      "146": 5709,
      "crática": 5710,
      "relatório": 5711,
      "consideram": 5712,
      "mático": 5713,
      "medieval": 5714,
      "Marinha": 5715,
      "realizadas": 5716,
      "noroeste": 5717,
      "crítico": 5718,
      "atingir": 5719,
      "fornecer": 5720,
      "complexa": 5721,
      "complexo": 5722,
      "conteú": 5723,
      "tentou": 5724,
      "justi": 5725,
      "melhorar": 5726,
      "derrota": 5727,
      "contínua": 5728,
      "Polônia": 5729,
      "próximos": 5730,
      "Direitos": 5731,
      "adesão": 5732,
      "Che": 5733,
      "US": 5734,
      "agru": 5735,
      "bis": 5736,
      "heiros": 5737,
      "mestres": 5738,
      "mênia": 5739,
      "rcio": 5740,
      "skate": 5741,
      "}-": 5742,
      "ômica": 5743,
      "ômico": 5744,
      "escas": 5745,
      "camada": 5746,
      "naciona": 5747,
      "naquele": 5748,
      "compi": 5749,
      "teu": 5750,
      "ciado": 5751,
      "atri": 5752,
      "mascul": 5753,
      "estética": 5754,
      "talvez": 5755,
      "absor": 5756,
      "general": 5757,
      "ideais": 5758,
      "ideológi": 5759,
      "tendências": 5760,
      "136": 5761,
      "137": 5762,
      "121": 5763,
      "122": 5764,
      "Cabo": 5765,
      "beli": 5766,
      "índi": 5767,
      "Arqui": 5768,
      "espacial": 5769,
      "mortos": 5770,
      "continuar": 5771,
      "confro": 5772,
      "limitado": 5773,
      "financeira": 5774,
      "deixando": 5775,
      "fascista": 5776,
      "industriais": 5777,
      "risco": 5778,
      "Forças": 5779,
      "gêneros": 5780,
      "documentos": 5781,
      "alterações": 5782,
      "colônia": 5783,
      "Futebol": 5784,
      "dificuldades": 5785,
      "comprome": 5786,
      "intelectuais": 5787,
      "distingu": 5788,
      "contraste": 5789,
      "globalização": 5790,
      "orçamento": 5791,
      "Câ": 5792,
      "Ferra": 5793,
      "Len": 5794,
      "MI": 5795,
      "Sar": 5796,
      "UN": 5797,
      "Vol": 5798,
      "fras": 5799,
      "}=": 5800,
      "Ál": 5801,
      "detec": 5802,
      "escultura": 5803,
      "rever": 5804,
      "sedia": 5805,
      "latino": 5806,
      "difun": 5807,
      "divisões": 5808,
      "mole": 5809,
      "sio": 5810,
      "gular": 5811,
      "progresso": 5812,
      "cun": 5813,
      "cujos": 5814,
      "expor": 5815,
      "postu": 5816,
      "partamento": 5817,
      "mulação": 5818,
      "prim": 5819,
      "Comé": 5820,
      "bom": 5821,
      "discu": 5822,
      "Ref": 5823,
      "geu": 5824,
      "tribos": 5825,
      "ilus": 5826,
      "123": 5827,
      "Decla": 5828,
      "1995": 5829,
      "colonos": 5830,
      "humanidade": 5831,
      "surge": 5832,
      "1988": 5833,
      "1968": 5834,
      "acordos": 5835,
      "fraque": 5836,
      "fracas": 5837,
      "mbolo": 5838,
      "densidade": 5839,
      "nordeste": 5840,
      "numeros": 5841,
      "críticas": 5842,
      "precisão": 5843,
      "árvores": 5844,
      "quantidades": 5845,
      "pesquisadores": 5846,
      "integração": 5847,
      "cristianismo": 5848,
      "pinturas": 5849,
      "verdadeira": 5850,
      "destruição": 5851,
      "trouxe": 5852,
      "toriais": 5853,
      "estadunidense": 5854,
      "reduzir": 5855,
      "municí": 5856,
      "acusa": 5857,
      "Ibérica": 5858,
      "Comércio": 5859,
      "AI": 5860,
      "Bro": 5861,
      "Mau": 5862,
      "dras": 5863,
      "ncia": 5864,
      "sk": 5865,
      "ue": 5866,
      "assegu": 5867,
      "cora": 5868,
      "ribe": 5869,
      "div": 5870,
      "simul": 5871,
      "conquis": 5872,
      "proce": 5873,
      "cujas": 5874,
      "exti": 5875,
      "mir": 5876,
      "\\\",[": 5877,
      "gam": 5878,
      "inaugu": 5879,
      "íssi": 5880,
      "estende": 5881,
      "grado": 5882,
      "interval": 5883,
      "carros": 5884,
      "carreira": 5885,
      "151": 5886,
      "visível": 5887,
      "138": 5888,
      "Paz": 5889,
      "128": 5890,
      "diferencia": 5891,
      "interações": 5892,
      "grejas": 5893,
      "curva": 5894,
      "1989": 5895,
      "estabelecida": 5896,
      "diretor": 5897,
      "Pode": 5898,
      "Suas": 5899,
      "cionismo": 5900,
      "técnico": 5901,
      "ligados": 5902,
      "russos": 5903,
      "Verão": 5904,
      "declaração": 5905,
      "representam": 5906,
      "Hamil": 5907,
      "bilidades": 5908,
      "nNos": 5909,
      "indústrias": 5910,
      "exceto": 5911,
      "japonês": 5912,
      "estudantes": 5913,
      "Antigo": 5914,
      "casamento": 5915,
      "Força": 5916,
      "Buenos": 5917,
      "comparação": 5918,
      "gradualmente": 5919,
      "montanhas": 5920,
      "Associação": 5921,
      "Instituto": 5922,
      "parlamentar": 5923,
      "Thomas": 5924,
      "radical": 5925,
      "Academia": 5926,
      "manteve": 5927,
      "conquistou": 5928,
      "Cin": 5929,
      "nessa": 5930,
      "nHá": 5931,
      "vindo": 5932,
      "xos": 5933,
      "ônios": 5934,
      "ess": 5935,
      "dan": 5936,
      "setores": 5937,
      "queima": 5938,
      "lido": 5939,
      "motivo": 5940,
      "confir": 5941,
      "vapor": 5942,
      "peda": 5943,
      "191": 5944,
      "trin": 5945,
      "contos": 5946,
      "saber": 5947,
      "premo": 5948,
      "podemos": 5949,
      "boração": 5950,
      "feros": 5951,
      "lhes": 5952,
      "chos": 5953,
      "chel": 5954,
      "Alem": 5955,
      "145": 5956,
      "148": 5957,
      "ilum": 5958,
      "1996": 5959,
      "acum": 5960,
      "ganda": 5961,
      "cença": 5962,
      "escolha": 5963,
      "apont": 5964,
      "Lib": 5965,
      "Luis": 5966,
      "Miguel": 5967,
      "símbolo": 5968,
      "completa": 5969,
      "dimensi": 5970,
      "Bernar": 5971,
      "integral": 5972,
      "Centro": 5973,
      "revolucionária": 5974,
      "superiores": 5975,
      "proporção": 5976,
      "Foram": 5977,
      "George": 5978,
      "concentração": 5979,
      "utilizar": 5980,
      "desencade": 5981,
      "especificamente": 5982,
      "contemporânea": 5983,
      "órgãos": 5984,
      "cumpri": 5985,
      "organizar": 5986,
      "inúmeras": 5987,
      "digital": 5988,
      "Câmara": 5989,
      "Cou": 5990,
      "Gil": 5991,
      "Hou": 5992,
      "Ini": 5993,
      "Pas": 5994,
      "dt": 5995,
      "gri": 5996,
      "ion": 5997,
      "lou": 5998,
      "radica": 5999,
      "cobre": 6000,
      "isse": 6001,
      "islâ": 6002,
      "reta": 6003,
      "quente": 6004,
      "pais": 6005,
      "naval": 6006,
      "quebra": 6007,
      "pondo": 6008,
      "arl": 6009,
      "moral": 6010,
      "exércitos": 6011,
      "fol": 6012,
      "gama": 6013,
      "perdeu": 6014,
      "casas": 6015,
      "riamente": 6016,
      "contém": 6017,
      "contudo": 6018,
      "homo": 6019,
      "pion": 6020,
      "formalmente": 6021,
      "trono": 6022,
      "marcial": 6023,
      "errado": 6024,
      "planos": 6025,
      "península": 6026,
      "154": 6027,
      "157": 6028,
      "159": 6029,
      "mercados": 6030,
      "criando": 6031,
      "estudar": 6032,
      "transmissão": 6033,
      "claro": 6034,
      "nomeado": 6035,
      "Monte": 6036,
      "artista": 6037,
      "etapas": 6038,
      "complexidade": 6039,
      "organismo": 6040,
      "garanti": 6041,
      "oceanos": 6042,
      "autoridades": 6043,
      "distintas": 6044,
      "essencialmente": 6045,
      "permanente": 6046,
      "entropia": 6047,
      "Jean": 6048,
      "oportu": 6049,
      "Napoleão": 6050,
      "EC": 6051,
      "Glo": 6052,
      "Ki": 6053,
      "Men": 6054,
      "Va": 6055,
      "].": 6056,
      "avi": 6057,
      "fó": 6058,
      "np": 6059,
      "nze": 6060,
      "óticas": 6061,
      "deseja": 6062,
      "astro": 6063,
      "isó": 6064,
      "invent": 6065,
      "inverno": 6066,
      "quete": 6067,
      "alunos": 6068,
      "motiva": 6069,
      "vais": 6070,
      "vinte": 6071,
      "vivem": 6072,
      "vitórias": 6073,
      "trata": 6074,
      "versos": 6075,
      "cionado": 6076,
      "facto": 6077,
      "corrupção": 6078,
      "ampli": 6079,
      "culin": 6080,
      "184": 6081,
      "dispositivos": 6082,
      "elevado": 6083,
      "elevação": 6084,
      "tropi": 6085,
      "minando": 6086,
      "entado": 6087,
      "132": 6088,
      "chev": 6089,
      "Aristóteles": 6090,
      "dependendo": 6091,
      "lingu": 6092,
      "define": 6093,
      "1976": 6094,
      "1962": 6095,
      "Marx": 6096,
      "Impera": 6097,
      "necessidades": 6098,
      "1948": 6099,
      "bricas": 6100,
      "deias": 6101,
      "aquele": 6102,
      "Micha": 6103,
      "aumentando": 6104,
      "introduziu": 6105,
      "elites": 6106,
      "orges": 6107,
      "atinga": 6108,
      "Nilo": 6109,
      "homena": 6110,
      "complexos": 6111,
      "clubes": 6112,
      "recém": 6113,
      "polita": 6114,
      "adaptação": 6115,
      "analis": 6116,
      "compreensão": 6117,
      "Português": 6118,
      "Cuba": 6119,
      "Moscou": 6120,
      "estatuto": 6121,
      "Augusto": 6122,
      "Cruz": 6123,
      "conteúdo": 6124,
      "Declaração": 6125,
      "Gon": 6126,
      "MA": 6127,
      "Mel": 6128,
      "Mao": 6129,
      "NBA": 6130,
      "Plan": 6131,
      "URSS": 6132,
      "ala": 6133,
      "nRe": 6134,
      "nExistem": 6135,
      "oti": 6136,
      "tista": 6137,
      "tível": 6138,
      "ónia": 6139,
      "úmi": 6140,
      "deca": 6141,
      "rael": 6142,
      "mata": 6143,
      "realmente": 6144,
      "caiu": 6145,
      "questi": 6146,
      "padro": 6147,
      "riedade": 6148,
      "cil": 6149,
      "tomar": 6150,
      "poema": 6151,
      "motor": 6152,
      "monia": 6153,
      "desporto": 6154,
      "micro": 6155,
      "sabe": 6156,
      "nascimento": 6157,
      "167": 6158,
      "144": 6159,
      "126": 6160,
      "simpli": 6161,
      "Capi": 6162,
      "ington": 6163,
      "intera": 6164,
      "fundador": 6165,
      "ganhar": 6166,
      "1973": 6167,
      "1964": 6168,
      "bolchevi": 6169,
      "1949": 6170,
      "ementar": 6171,
      "plicação": 6172,
      "ligações": 6173,
      "ocorrem": 6174,
      "turismo": 6175,
      "fale": 6176,
      "Viet": 6177,
      "elimina": 6178,
      "derivada": 6179,
      "situações": 6180,
      "inglesa": 6181,
      "descrito": 6182,
      "separação": 6183,
      "Teatro": 6184,
      "religioso": 6185,
      "mediante": 6186,
      "justiça": 6187,
      "Antiga": 6188,
      "nDepois": 6189,
      "indiano": 6190,
      "burguesia": 6191,
      "vérti": 6192,
      "opinião": 6193,
      "ancestra": 6194,
      "negócios": 6195,
      "proveni": 6196,
      "600": 6197,
      "Bor": 6198,
      "Equ": 6199,
      "Ko": 6200,
      "Lus": 6201,
      "Opera": 6202,
      "Ren": 6203,
      "Tri": 6204,
      "ax": 6205,
      "ds": 6206,
      "gr": 6207,
      "tres": 6208,
      "rati": 6209,
      "rez": 6210,
      "reação": 6211,
      "rol": 6212,
      "laria": 6213,
      "all": 6214,
      "alvo": 6215,
      "lig": 6216,
      "lidar": 6217,
      "dilh": 6218,
      "tradução": 6219,
      "Estu": 6220,
      "pir": 6221,
      "preços": 6222,
      "Colo": 6223,
      "fins": 6224,
      "órica": 6225,
      "155": 6226,
      "fecha": 6227,
      "177": 6228,
      "141": 6229,
      "133": 6230,
      "esteve": 6231,
      "Sebas": 6232,
      "1993": 6233,
      "considerar": 6234,
      "1979": 6235,
      "portuguesas": 6236,
      "Bahia": 6237,
      "Frank": 6238,
      "France": 6239,
      "XIV": 6240,
      "quântico": 6241,
      "Outra": 6242,
      "fisio": 6243,
      "britânicas": 6244,
      "alemãs": 6245,
      "francesas": 6246,
      "igualmente": 6247,
      "específica": 6248,
      "monarquias": 6249,
      "facilmente": 6250,
      "famoso": 6251,
      "urbana": 6252,
      "intelectual": 6253,
      "recuperação": 6254,
      "teorema": 6255,
      "confiança": 6256,
      "núcleo": 6257,
      "Antonio": 6258,
      "átomos": 6259,
      "proprietários": 6260,
      "fonso": 6261,
      "Hamilton": 6262,
      "acumu": 6263,
      "Michael": 6264,
      "ES": 6265,
      "Italia": 6266,
      "Sur": 6267,
      "Tro": 6268,
      "ct": 6269,
      "eficiente": 6270,
      "itos": 6271,
      "igrejas": 6272,
      "ografia": 6273,
      "pin": 6274,
      "sinais": 6275,
      "tw": 6276,
      "zero": 6277,
      "íça": 6278,
      "detal": 6279,
      "demia": 6280,
      "esto": 6281,
      "coti": 6282,
      "renova": 6283,
      "entrar": 6284,
      "enca": 6285,
      "laços": 6286,
      "conselho": 6287,
      "fogo": 6288,
      "tori": 6289,
      "pios": 6290,
      "inteira": 6291,
      "herança": 6292,
      "cultores": 6293,
      "chan": 6294,
      "bater": 6295,
      "mostram": 6296,
      "chamou": 6297,
      "passe": 6298,
      "161": 6299,
      "assis": 6300,
      "Seus": 6301,
      "iniciais": 6302,
      "energias": 6303,
      "inflação": 6304,
      "Guer": 6305,
      "ésia": 6306,
      "transferência": 6307,
      "Comissão": 6308,
      "censo": 6309,
      "tornam": 6310,
      "modernas": 6311,
      "aprovação": 6312,
      "Suíça": 6313,
      "variam": 6314,
      "defender": 6315,
      "defendem": 6316,
      "Independência": 6317,
      "cussão": 6318,
      "instituição": 6319,
      "execução": 6320,
      "mercadorias": 6321,
      "assinatura": 6322,
      "científicas": 6323,
      "investimento": 6324,
      "explicar": 6325,
      "nAlguns": 6326,
      "documento": 6327,
      "profissionais": 6328,
      "propaganda": 6329,
      "PCC": 6330,
      "manifestações": 6331,
      "vencedor": 6332,
      "mecanismos": 6333,
      "territorial": 6334,
      "filósofos": 6335,
      "horizonte": 6336,
      "precedentes": 6337,
      "deputados": 6338,
      "World": 6339,
      "paradigma": 6340,
      "frágio": 6341,
      "expectativa": 6342,
      "tropical": 6343,
      "Cali": 6344,
      "Desta": 6345,
      "Lí": 6346,
      "Pres": 6347,
      "Rosa": 6348,
      "Tais": 6349,
      "apa": 6350,
      "ape": 6351,
      "gindo": 6352,
      "põe": 6353,
      "vesse": 6354,
      "êm": 6355,
      "raízes": 6356,
      "espos": 6357,
      "reconhecido": 6358,
      "invés": 6359,
      "cita": 6360,
      "alu": 6361,
      "tora": 6362,
      "ligar": 6363,
      "dimentos": 6364,
      "els": 6365,
      "sias": 6366,
      "confi": 6367,
      "pula": 6368,
      "bió": 6369,
      "prema": 6370,
      "lhar": 6371,
      "cerâ": 6372,
      "érico": 6373,
      "tropica": 6374,
      "envolvendo": 6375,
      "judeus": 6376,
      "feuda": 6377,
      "visual": 6378,
      "166": 6379,
      "127": 6380,
      "adotou": 6381,
      "Caribe": 6382,
      "jovem": 6383,
      "ariam": 6384,
      "próxima": 6385,
      "fundado": 6386,
      "cínio": 6387,
      "cídio": 6388,
      "Romênia": 6389,
      "nutri": 6390,
      "destacam": 6391,
      "determinar": 6392,
      "ambientes": 6393,
      "populari": 6394,
      "dinâmico": 6395,
      "ajudar": 6396,
      "chard": 6397,
      "anteriormente": 6398,
      "ordens": 6399,
      "colori": 6400,
      "Aliança": 6401,
      "branco": 6402,
      "desempenha": 6403,
      "alcançar": 6404,
      "ferrovi": 6405,
      "economias": 6406,
      "armazen": 6407,
      "monopó": 6408,
      "vantagem": 6409,
      "Campeonato": 6410,
      "OTAN": 6411,
      "ingleses": 6412,
      "Católica": 6413,
      "tropicais": 6414,
      ")}\\": 6415,
      "Ucr": 6416,
      "aer": 6417,
      "avam": 6418,
      "centa": 6419,
      "gl": 6420,
      "ib": 6421,
      "mista": 6422,
      "sá": 6423,
      "wan": 6424,
      "ópera": 6425,
      "assem": 6426,
      "mamí": 6427,
      "reflex": 6428,
      "entar": 6429,
      "teral": 6430,
      "eixo": 6431,
      "suporte": 6432,
      "dupla": 6433,
      "gais": 6434,
      "horas": 6435,
      "bara": 6436,
      "seguindo": 6437,
      "rurais": 6438,
      "marcada": 6439,
      "162": 6440,
      "147": 6441,
      "criados": 6442,
      "bela": 6443,
      "rádio": 6444,
      "hierar": 6445,
      "máticos": 6446,
      "definir": 6447,
      "constitui": 6448,
      "artístico": 6449,
      "possuía": 6450,
      "permitem": 6451,
      "pouca": 6452,
      "fases": 6453,
      "cke": 6454,
      "sociedades": 6455,
      "1958": 6456,
      "conquistas": 6457,
      "duzir": 6458,
      "relacionada": 6459,
      "deriva": 6460,
      "completo": 6461,
      "solini": 6462,
      "sucessão": 6463,
      "sucessor": 6464,
      "corresponde": 6465,
      "génio": 6466,
      "reunião": 6467,
      "terror": 6468,
      "entender": 6469,
      "neurais": 6470,
      "torneios": 6471,
      "similar": 6472,
      "consolida": 6473,
      "landês": 6474,
      "selva": 6475,
      "Vargas": 6476,
      "cabeça": 6477,
      "componentes": 6478,
      "reservas": 6479,
      "Bolívia": 6480,
      "poluição": 6481,
      "certeza": 6482,
      "Mussolini": 6483,
      "Ucrânia": 6484,
      ".\",": 6485,
      "AC": 6486,
      "Atualmente": 6487,
      "Bal": 6488,
      "Il": 6489,
      "Sér": 6490,
      "Tran": 6491,
      "Vas": 6492,
      "anar": 6493,
      "buro": 6494,
      "geiros": 6495,
      "kin": 6496,
      "lândia": 6497,
      "pp": 6498,
      "plu": 6499,
      "rindo": 6500,
      "tto": 6501,
      "tências": 6502,
      "ys": 6503,
      "óxi": 6504,
      "don": 6505,
      "revista": 6506,
      "iné": 6507,
      "invenção": 6508,
      "entra": 6509,
      "encer": 6510,
      "quei": 6511,
      "teatra": 6512,
      "viver": 6513,
      "1916": 6514,
      "1922": 6515,
      "sacer": 6516,
      "pur": 6517,
      "pudesse": 6518,
      "líqui": 6519,
      "estrela": 6520,
      "graus": 6521,
      "formando": 6522,
      "183": 6523,
      "discurso": 6524,
      "constantes": 6525,
      "crição": 6526,
      "153": 6527,
      "156": 6528,
      "produtividade": 6529,
      "inham": 6530,
      "volunt": 6531,
      "assistência": 6532,
      "Consta": 6533,
      "acres": 6534,
      "longe": 6535,
      "Parque": 6536,
      "organizada": 6537,
      "constituem": 6538,
      "positivo": 6539,
      "possuíam": 6540,
      "arquitetos": 6541,
      "Israel": 6542,
      "Tom": 6543,
      "exibi": 6544,
      "contribuições": 6545,
      "Richard": 6546,
      "investigação": 6547,
      "concepção": 6548,
      "instabilidade": 6549,
      "estimativas": 6550,
      "absoluta": 6551,
      "estratégia": 6552,
      "financiamento": 6553,
      "musicais": 6554,
      "Americana": 6555,
      "combustíveis": 6556,
      "teiras": 6557,
      "treinamento": 6558,
      "Comitê": 6559,
      "infraestrutura": 6560,
      "substan": 6561,
      "Imperador": 6562,
      "mamíferos": 6563,
      "Bio": 6564,
      "Bol": 6565,
      "HT": 6566,
      "Olim": 6567,
      "banos": 6568,
      "ed": 6569,
      "fant": 6570,
      "fér": 6571,
      "gro": 6572,
      "iria": 6573,
      "mistas": 6574,
      "nã": 6575,
      "nSegundo": 6576,
      "pis": 6577,
      "sum": 6578,
      "the": 6579,
      "tente": 6580,
      "demanda": 6581,
      "raios": 6582,
      "ntismo": 6583,
      "coral": 6584,
      "ore": 6585,
      "retorno": 6586,
      "cata": 6587,
      "entidade": 6588,
      "tional": 6589,
      "end": 6590,
      "encar": 6591,
      "non": 6592,
      "nomin": 6593,
      "pont": 6594,
      "viou": 6595,
      "peça": 6596,
      "anfi": 6597,
      "exposição": 6598,
      "terreno": 6599,
      "mera": 6600,
      "estações": 6601,
      "Espa": 6602,
      "nAtualmente": 6603,
      "nst": 6604,
      "185": 6605,
      "disco": 6606,
      "nasceu": 6607,
      "eletrô": 6608,
      "orig": 6609,
      "genético": 6610,
      "meros": 6611,
      "172": 6612,
      "173": 6613,
      "176": 6614,
      "178": 6615,
      "149": 6616,
      "olos": 6617,
      "Devido": 6618,
      "dentemente": 6619,
      "tígio": 6620,
      "levanta": 6621,
      "fraca": 6622,
      "limitada": 6623,
      "1954": 6624,
      "frota": 6625,
      "popularidade": 6626,
      "tráfico": 6627,
      "observações": 6628,
      "regulament": 6629,
      "nNas": 6630,
      "assumir": 6631,
      "originalmente": 6632,
      "correspondência": 6633,
      "exclusivamente": 6634,
      "circulação": 6635,
      "desempenho": 6636,
      "românti": 6637,
      "abrange": 6638,
      "historiador": 6639,
      "móveis": 6640,
      "térios": 6641,
      "negociações": 6642,
      "exportações": 6643,
      "ganharam": 6644,
      "celular": 6645,
      "protestos": 6646,
      "Vietnã": 6647,
      "%)": 6648,
      "Net": 6649,
      "],": 6650,
      "eficiência": 6651,
      "pista": 6652,
      "âmi": 6653,
      "osos": 6654,
      "colh": 6655,
      "iago": 6656,
      "mados": 6657,
      "ordin": 6658,
      "cari": 6659,
      "enz": 6660,
      "rotação": 6661,
      "nau": 6662,
      "laridade": 6663,
      "alte": 6664,
      "altitude": 6665,
      "armada": 6666,
      "destino": 6667,
      "foco": 6668,
      "persegu": 6669,
      "cela": 6670,
      "prestígio": 6671,
      "cionados": 6672,
      "prosa": 6673,
      "preen": 6674,
      "maneiras": 6675,
      "Rela": 6676,
      "consciência": 6677,
      "internet": 6678,
      "marinha": 6679,
      "cardo": 6680,
      "174": 6681,
      "163": 6682,
      "169": 6683,
      "conhecimentos": 6684,
      "regimes": 6685,
      "centenas": 6686,
      "Macau": 6687,
      "submar": 6688,
      "subsequ": 6689,
      "hier": 6690,
      "surre": 6691,
      "Compan": 6692,
      "edições": 6693,
      "cionista": 6694,
      "clássicas": 6695,
      "deiro": 6696,
      "globais": 6697,
      "vessem": 6698,
      "proteger": 6699,
      "1956": 6700,
      "governantes": 6701,
      "relacionado": 6702,
      "observação": 6703,
      "quadrados": 6704,
      "tomano": 6705,
      "Pierre": 6706,
      "impressão": 6707,
      "anato": 6708,
      "específicos": 6709,
      "marxistas": 6710,
      "inspiração": 6711,
      "aceita": 6712,
      "vêm": 6713,
      "olímpico": 6714,
      "desejo": 6715,
      "cobertura": 6716,
      "dramatur": 6717,
      "professor": 6718,
      "descendentes": 6719,
      "reivindica": 6720,
      "Virgí": 6721,
      "espiritual": 6722,
      "considerável": 6723,
      "agrupa": 6724,
      "molecular": 6725,
      "Ama": 6726,
      "Blo": 6727,
      "Bur": 6728,
      "Cidade": 6729,
      "Gali": 6730,
      "Ilha": 6731,
      "Ouro": 6732,
      "PL": 6733,
      "Serra": 6734,
      "Santo": 6735,
      "Wi": 6736,
      "Was": 6737,
      "Zhou": 6738,
      "agi": 6739,
      "adul": 6740,
      "gli": 6741,
      "hão": 6742,
      "iva": 6743,
      "assembleia": 6744,
      "doras": 6745,
      "daquele": 6746,
      "revoltas": 6747,
      "caos": 6748,
      "caram": 6749,
      "camadas": 6750,
      "rotas": 6751,
      "arro": 6752,
      "arbi": 6753,
      "respei": 6754,
      "proto": 6755,
      "propósi": 6756,
      "vonta": 6757,
      "usos": 6758,
      "192": 6759,
      "serão": 6760,
      "202": 6761,
      "pira": 6762,
      "faixa": 6763,
      "obteve": 6764,
      "voltou": 6765,
      "181": 6766,
      "elevada": 6767,
      "intermedi": 6768,
      "crimin": 6769,
      "liares": 6770,
      "envolvidos": 6771,
      "unificação": 6772,
      "171": 6773,
      "ritmo": 6774,
      "Convenção": 6775,
      "criadas": 6776,
      "historicamente": 6777,
      "diversi": 6778,
      "Arte": 6779,
      "influente": 6780,
      "1985": 6781,
      "Soci": 6782,
      "significativas": 6783,
      "Moder": 6784,
      "Sub": 6785,
      "1946": 6786,
      "Peter": 6787,
      "missões": 6788,
      "americanas": 6789,
      "experiências": 6790,
      "Haw": 6791,
      "Andes": 6792,
      "influenciado": 6793,
      "apresentam": 6794,
      "teórica": 6795,
      "encontrou": 6796,
      "Andra": 6797,
      "tivismo": 6798,
      "ultramar": 6799,
      "tribunais": 6800,
      "disciplinas": 6801,
      "Russa": 6802,
      "secretário": 6803,
      "consistente": 6804,
      "pintores": 6805,
      "católicos": 6806,
      "abolição": 6807,
      "mecanismo": 6808,
      "bruto": 6809,
      "quinto": 6810,
      "disponíveis": 6811,
      "vizinhos": 6812,
      "enfatiza": 6813,
      "idioma": 6814,
      "aére": 6815,
      "sindicatos": 6816,
      "privilé": 6817,
      "Justiça": 6818,
      "hipótese": 6819,
      "folcl": 6820,
      "óxido": 6821,
      "Dio": 6822,
      "Frie": 6823,
      "Gio": 6824,
      "Inte": 6825,
      "Ly": 6826,
      "Pre": 6827,
      "Tre": 6828,
      "hista": 6829,
      "ita": 6830,
      "mônio": 6831,
      "ok": 6832,
      "zer": 6833,
      "reper": 6834,
      "rido": 6835,
      "comemo": 6836,
      "ciário": 6837,
      "tota": 6838,
      "tomada": 6839,
      "mond": 6840,
      "ciar": 6841,
      "pecu": 6842,
      "exces": 6843,
      "fiel": 6844,
      "terá": 6845,
      "193": 6846,
      "hora": 6847,
      "Está": 6848,
      "fac": 6849,
      "preci": 6850,
      "dispo": 6851,
      "ceria": 6852,
      "finito": 6853,
      "mineração": 6854,
      "158": 6855,
      "titudes": 6856,
      "reiras": 6857,
      "165": 6858,
      "centrais": 6859,
      "nacionalismo": 6860,
      "subst": 6861,
      "resultando": 6862,
      "escravo": 6863,
      "bronze": 6864,
      "germ": 6865,
      "densa": 6866,
      "ensina": 6867,
      "comunicações": 6868,
      "ocorreram": 6869,
      "defensores": 6870,
      "Verde": 6871,
      "Ricardo": 6872,
      "Dois": 6873,
      "tentar": 6874,
      "apoiar": 6875,
      "aconteceu": 6876,
      "Primeiro": 6877,
      "gêne": 6878,
      "jornais": 6879,
      "escravizados": 6880,
      "sucedida": 6881,
      "africana": 6882,
      "decidiu": 6883,
      "essencial": 6884,
      "legislativo": 6885,
      "agrícola": 6886,
      "Senado": 6887,
      "dívida": 6888,
      "eletromagnética": 6889,
      "OCDE": 6890,
      "celeb": 6891,
      "exatamente": 6892,
      "fósseis": 6893,
      "exercício": 6894,
      "sacerdo": 6895,
      "219": 6896,
      "220": 6897,
      "210": 6898,
      "AT": 6899,
      "Amb": 6900,
      "Acor": 6901,
      "Bel": 6902,
      "FMI": 6903,
      "H2": 6904,
      "Hor": 6905,
      "Karl": 6906,
      "Vários": 6907,
      "ara": 6908,
      "ben": 6909,
      "cô": 6910,
      "fla": 6911,
      "mist": 6912,
      "ró": 6913,
      "ânicas": 6914,
      "óp": 6915,
      "dedica": 6916,
      "dol": 6917,
      "pagar": 6918,
      "tic": 6919,
      "tio": 6920,
      "time": 6921,
      "enfraque": 6922,
      "lagos": 6923,
      "moto": 6924,
      "monta": 6925,
      "confer": 6926,
      "vivo": 6927,
      "lome": 6928,
      "trazi": 6929,
      "1929": 6930,
      "cionou": 6931,
      "ford": 6932,
      "gida": 6933,
      "caste": 6934,
      "metais": 6935,
      "mbra": 6936,
      "parâ": 6937,
      "temos": 6938,
      "intui": 6939,
      "amplo": 6940,
      "origens": 6941,
      "gene": 6942,
      "152": 6943,
      "bud": 6944,
      "juda": 6945,
      "175": 6946,
      "Mara": 6947,
      "relativa": 6948,
      "ixo": 6949,
      "nacionalista": 6950,
      "mínimo": 6951,
      "1972": 6952,
      "1984": 6953,
      "mortalidade": 6954,
      "cionário": 6955,
      "encontrado": 6956,
      "técnicos": 6957,
      "Tai": 6958,
      "ânea": 6959,
      "barro": 6960,
      "seleções": 6961,
      "substituído": 6962,
      "intensidade": 6963,
      "Casa": 6964,
      "permanece": 6965,
      "posteriores": 6966,
      "Santiago": 6967,
      "básicos": 6968,
      "document": 6969,
      "descobriu": 6970,
      "eph": 6971,
      "arremes": 6972,
      "Sobre": 6973,
      "costumes": 6974,
      "discreta": 6975,
      "existir": 6976,
      "próximas": 6977,
      "prisão": 6978,
      "faraó": 6979,
      "impulsiona": 6980,
      "adversário": 6981,
      "relevante": 6982,
      "ARN": 6983,
      "explici": 6984,
      "Grupo": 6985,
      "senhores": 6986,
      "Ferrari": 6987,
      "dimensional": 6988,
      "culinária": 6989,
      "esposa": 6990,
      "vontade": 6991,
      "Andrade": 6992,
      "212": 6993,
      "Dou": 6994,
      "Hel": 6995,
      "IPCC": 6996,
      "Nu": 6997,
      "PR": 6998,
      "Wei": 6999,
      "eó": 7000,
      "efica": 7001,
      "ite": 7002,
      "ji": 7003,
      "lemb": 7004,
      "nh": 7005,
      "nQuando": 7006,
      "oo": 7007,
      "tter": 7008,
      "tém": 7009,
      "uí": 7010,
      "asse": 7011,
      "coisa": 7012,
      "doze": 7013,
      "dania": 7014,
      "cava": 7015,
      "tias": 7016,
      "timas": 7017,
      "ritos": 7018,
      "nativos": 7019,
      "comé": 7020,
      "soli": 7021,
      "sofis": 7022,
      "sita": 7023,
      "sufrágio": 7024,
      "filia": 7025,
      "teriam": 7026,
      "verna": 7027,
      "metal": 7028,
      "holandeses": 7029,
      "Espe": 7030,
      "Escola": 7031,
      "privado": 7032,
      "182": 7033,
      "consum": 7034,
      "168": 7035,
      "Conserva": 7036,
      "faziam": 7037,
      "baseados": 7038,
      "construído": 7039,
      "1967": 7040,
      "modernismo": 7041,
      "Mora": 7042,
      "religiões": 7043,
      "representada": 7044,
      "Literatura": 7045,
      "deiros": 7046,
      "geográfica": 7047,
      "passageiros": 7048,
      "governamental": 7049,
      "realista": 7050,
      "Inverno": 7051,
      "determinadas": 7052,
      "Vicente": 7053,
      "Grandes": 7054,
      "1908": 7055,
      "históricas": 7056,
      "extremo": 7057,
      "denominada": 7058,
      "guerri": 7059,
      "democráticos": 7060,
      "Antônio": 7061,
      "correspondente": 7062,
      "extinções": 7063,
      "adicional": 7064,
      "experimental": 7065,
      "entidades": 7066,
      "indiana": 7067,
      "capoeir": 7068,
      "tivesse": 7069,
      "coroa": 7070,
      "ciclistas": 7071,
      "caracterizada": 7072,
      "benefícios": 7073,
      "orientação": 7074,
      "profundamente": 7075,
      "Louis": 7076,
      "urbanas": 7077,
      "Lusíadas": 7078,
      "disponi": 7079,
      "sofistica": 7080,
      ".),": 7081,
      "214": 7082,
      "Eixo": 7083,
      "Fundo": 7084,
      "Kh": 7085,
      "Lan": 7086,
      "Pou": 7087,
      "Pant": 7088,
      "Web": 7089,
      "XIII": 7090,
      "Yu": 7091,
      "acent": 7092,
      "ativos": 7093,
      "aderi": 7094,
      "bin": 7095,
      "cenas": 7096,
      "idi": 7097,
      "lenta": 7098,
      "nCon": 7099,
      "nSe": 7100,
      "nMuitos": 7101,
      "psico": 7102,
      "síveis": 7103,
      "ualmente": 7104,
      "vistos": 7105,
      "win": 7106,
      "·\\": 7107,
      "ónias": 7108,
      "→\\": 7109,
      "deo": 7110,
      "osas": 7111,
      "coinci": 7112,
      "dadas": 7113,
      "iang": 7114,
      "mares": 7115,
      "maias": 7116,
      "inunda": 7117,
      "eng": 7118,
      "enciou": 7119,
      "enviou": 7120,
      "compostos": 7121,
      "pobre": 7122,
      "sono": 7123,
      "niz": 7124,
      "confor": 7125,
      "consul": 7126,
      "desemprego": 7127,
      "vieram": 7128,
      "gui": 7129,
      "provis": 7130,
      "mios": 7131,
      "votação": 7132,
      "usões": 7133,
      "1919": 7134,
      "1911": 7135,
      "versa": 7136,
      "saté": 7137,
      "serve": 7138,
      "impossível": 7139,
      "príncipe": 7140,
      "previsões": 7141,
      "186": 7142,
      "dissem": 7143,
      "ches": 7144,
      "particulares": 7145,
      "mesmas": 7146,
      "perante": 7147,
      "vencer": 7148,
      "fundadores": 7149,
      "hidre": 7150,
      "Joa": 7151,
      "baseadas": 7152,
      "1987": 7153,
      "construções": 7154,
      "direto": 7155,
      "cena": 7156,
      "controlar": 7157,
      "nomeadamente": 7158,
      "Moça": 7159,
      "Movimento": 7160,
      "presidentes": 7161,
      "1947": 7162,
      "poucas": 7163,
      "forçado": 7164,
      "leitura": 7165,
      "doutrina": 7166,
      "classicismo": 7167,
      "Joseph": 7168,
      "conseguiram": 7169,
      "assinado": 7170,
      "substituição": 7171,
      "Domin": 7172,
      "imperadores": 7173,
      "cristã": 7174,
      "vinho": 7175,
      "específico": 7176,
      "leninismo": 7177,
      "apresentou": 7178,
      "eletromagnetismo": 7179,
      "softw": 7180,
      "chilena": 7181,
      "dificuldade": 7182,
      "indivíduo": 7183,
      "Meso": 7184,
      "Britânica": 7185,
      "Britânico": 7186,
      "exportação": 7187,
      "Alberto": 7188,
      "alternativa": 7189,
      "armazena": 7190,
      "equipamentos": 7191,
      "mãe": 7192,
      "compositores": 7193,
      "Cabral": 7194,
      "legiti": 7195,
      "otball": 7196,
      "ilustra": 7197,
      "axio": 7198,
      "satéli": 7199,
      "Hol": 7200,
      "Ira": 7201,
      "Nesta": 7202,
      "VII": 7203,
      "XXI": 7204,
      "ev": 7205,
      "mês": 7206,
      "ora": 7207,
      "xad": 7208,
      "reconhecida": 7209,
      "recurso": 7210,
      "cadeias": 7211,
      "timo": 7212,
      "comi": 7213,
      "tea": 7214,
      "telo": 7215,
      "arran": 7216,
      "elândia": 7217,
      "sint": 7218,
      "restante": 7219,
      "restantes": 7220,
      "lová": 7221,
      "subi": 7222,
      "propôs": 7223,
      "traje": 7224,
      "fome": 7225,
      "1939": 7226,
      "gon": 7227,
      "204": 7228,
      "207": 7229,
      "Estima": 7230,
      "fama": 7231,
      "fauna": 7232,
      "into": 7233,
      "formaram": 7234,
      "lhou": 7235,
      "bacia": 7236,
      "seguiram": 7237,
      "carro": 7238,
      "inovações": 7239,
      "mero": 7240,
      "visio": 7241,
      "164": 7242,
      "crises": 7243,
      "desenvolve": 7244,
      "assenta": 7245,
      "urbanos": 7246,
      "landesa": 7247,
      "calcula": 7248,
      "Arti": 7249,
      "indicam": 7250,
      "Rodri": 7251,
      "Política": 7252,
      "Super": 7253,
      "Américas": 7254,
      "democratas": 7255,
      "cidadania": 7256,
      "gerações": 7257,
      "ligada": 7258,
      "aumenta": 7259,
      "turb": 7260,
      "Vermelho": 7261,
      "necessárias": 7262,
      "histórica": 7263,
      "possivelmente": 7264,
      "cristão": 7265,
      "aberto": 7266,
      "manipu": 7267,
      "extensa": 7268,
      "influenciada": 7269,
      "acontece": 7270,
      "produzida": 7271,
      "brancos": 7272,
      "marxista": 7273,
      "sucedido": 7274,
      "navegação": 7275,
      "categorias": 7276,
      "Shang": 7277,
      "pilotos": 7278,
      "económica": 7279,
      "considerando": 7280,
      "cerimônia": 7281,
      "energética": 7282,
      "intervalo": 7283,
      "cerâmica": 7284,
      "originais": 7285,
      "215": 7286,
      "213": 7287,
      "Ali": 7288,
      "Afe": 7289,
      "Cerrado": 7290,
      "Del": 7291,
      "Gabri": 7292,
      "Hil": 7293,
      "Ner": 7294,
      "Pin": 7295,
      "Pan": 7296,
      "Sí": 7297,
      "Vla": 7298,
      "gão": 7299,
      "hin": 7300,
      "jou": 7301,
      "mm": 7302,
      "tério": 7303,
      "vín": 7304,
      "ward": 7305,
      "}{": 7306,
      "ália": 7307,
      "úr": 7308,
      "degrada": 7309,
      "danos": 7310,
      "refu": 7311,
      "requis": 7312,
      "inser": 7313,
      "empr": 7314,
      "cario": 7315,
      "patr": 7316,
      "rodo": 7317,
      "cito": 7318,
      "lios": 7319,
      "condu": 7320,
      "despes": 7321,
      "dessem": 7322,
      "parado": 7323,
      "prole": 7324,
      "ramos": 7325,
      "fic": 7326,
      "1910": 7327,
      "zada": 7328,
      "ceis": 7329,
      "mbolos": 7330,
      "temática": 7331,
      "205": 7332,
      "209": 7333,
      "neamente": 7334,
      "picamente": 7335,
      "fatos": 7336,
      "Coelho": 7337,
      "consumi": 7338,
      "cles": 7339,
      "penas": 7340,
      "plena": 7341,
      "especiais": 7342,
      "Pacto": 7343,
      "subje": 7344,
      "histori": 7345,
      "definiu": 7346,
      "medicina": 7347,
      "estabelecendo": 7348,
      "Polí": 7349,
      "climática": 7350,
      "salto": 7351,
      "falha": 7352,
      "Holanda": 7353,
      "necessários": 7354,
      "expandiu": 7355,
      "representando": 7356,
      "civilizações": 7357,
      "complexas": 7358,
      "Dom": 7359,
      "aleat": 7360,
      "investimentos": 7361,
      "transa": 7362,
      "apresentar": 7363,
      "acreditava": 7364,
      "estratégias": 7365,
      "Amazonas": 7366,
      "abordagens": 7367,
      "fábricas": 7368,
      "efetivamente": 7369,
      "imediatamente": 7370,
      "Três": 7371,
      "disponível": 7372,
      "Jacques": 7373,
      "receberam": 7374,
      "receitas": 7375,
      "Alexandre": 7376,
      "renascentista": 7377,
      "palácios": 7378,
      "Espanhola": 7379,
      "Lenin": 7380,
      "Equador": 7381,
      "monopólio": 7382,
      "precipi": 7383,
      "acentu": 7384,
      "lováquia": 7385,
      "230": 7386,
      "Clari": 7387,
      "Feli": 7388,
      "Ke": 7389,
      "Leste": 7390,
      "Mário": 7391,
      "amaz": 7392,
      "bé": 7393,
      "hé": 7394,
      "idores": 7395,
      "nésia": 7396,
      "vest": 7397,
      "domin": 7398,
      "ortodo": 7399,
      "entraram": 7400,
      "lava": 7401,
      "lidos": 7402,
      "ted": 7403,
      "simetria": 7404,
      "nimos": 7405,
      "eibol": 7406,
      "desloca": 7407,
      "proxi": 7408,
      "excel": 7409,
      "letras": 7410,
      "legais": 7411,
      "1912": 7412,
      "1924": 7413,
      "1934": 7414,
      "duro": 7415,
      "tría": 7416,
      "costas": 7417,
      "ney": 7418,
      "bita": 7419,
      "nosso": 7420,
      "muita": 7421,
      "produtores": 7422,
      "panhas": 7423,
      "Alto": 7424,
      "Alfre": 7425,
      "táculos": 7426,
      "criaram": 7427,
      "repressão": 7428,
      "dependente": 7429,
      "curta": 7430,
      "221": 7431,
      "influenciou": 7432,
      "fuga": 7433,
      "243": 7434,
      "1963": 7435,
      "aprovada": 7436,
      "Suécia": 7437,
      "existente": 7438,
      "mudar": 7439,
      "270": 7440,
      "utilizam": 7441,
      "localizado": 7442,
      "continuidade": 7443,
      "independentemente": 7444,
      "câmara": 7445,
      "encontrada": 7446,
      "democracias": 7447,
      "associações": 7448,
      "quânticos": 7449,
      "italianas": 7450,
      "moviment": 7451,
      "símbolos": 7452,
      "conseguir": 7453,
      "tomaram": 7454,
      "intensi": 7455,
      "Castro": 7456,
      "japonesas": 7457,
      "químicas": 7458,
      "Santos": 7459,
      "proporcional": 7460,
      "Johan": 7461,
      "cálculos": 7462,
      "}}}\\": 7463,
      "Filip": 7464,
      "facili": 7465,
      "igno": 7466,
      "introduzida": 7467,
      "Russo": 7468,
      "prosper": 7469,
      "costuma": 7470,
      "navegadores": 7471,
      "aristocracia": 7472,
      "relevantes": 7473,
      "comerciantes": 7474,
      "medalhas": 7475,
      "neurônios": 7476,
      "Liberal": 7477,
      "Operação": 7478,
      "dilheira": 7479,
      "HTML": 7480,
      "privilégios": 7481,
      "emprés": 7482,
      "Jer": 7483,
      "Mis": 7484,
      "Vo": 7485,
      "aqui": 7486,
      "acha": 7487,
      "ajus": 7488,
      "ef": 7489,
      "gla": 7490,
      "gle": 7491,
      "pseu": 7492,
      "rin": 7493,
      "rum": 7494,
      "tti": 7495,
      "zz": 7496,
      "cai": 7497,
      "papa": 7498,
      "rompi": 7499,
      "ricas": 7500,
      "polari": 7501,
      "difusão": 7502,
      "elhan": 7503,
      "som": 7504,
      "tua": 7505,
      "reserva": 7506,
      "deserto": 7507,
      "sui": 7508,
      "guia": 7509,
      "anda": 7510,
      "explos": 7511,
      "ficiais": 7512,
      "fixo": 7513,
      "fotos": 7514,
      "microscó": 7515,
      "1915": 7516,
      "1936": 7517,
      "verso": 7518,
      "versões": 7519,
      "perdas": 7520,
      "sau": 7521,
      "picas": 7522,
      "priori": 7523,
      "precios": 7524,
      "Cooperação": 7525,
      "1870": 7526,
      "cerrado": 7527,
      "aliz": 7528,
      "rural": 7529,
      "semelhan": 7530,
      "cargas": 7531,
      "populos": 7532,
      "viagens": 7533,
      "desenvolvidas": 7534,
      "illa": 7535,
      "Cara": 7536,
      "Conferência": 7537,
      "Guar": 7538,
      "consideravelmente": 7539,
      "algé": 7540,
      "tícias": 7541,
      "influentes": 7542,
      "construídos": 7543,
      "espalha": 7544,
      "agentes": 7545,
      "escritas": 7546,
      "artísticas": 7547,
      "etapa": 7548,
      "universi": 7549,
      "variável": 7550,
      "chinesas": 7551,
      "sentimento": 7552,
      "Campos": 7553,
      "tentaram": 7554,
      "étrica": 7555,
      "participantes": 7556,
      "vítimas": 7557,
      "iguais": 7558,
      "científicos": 7559,
      "Massa": 7560,
      "deveriam": 7561,
      "estaduais": 7562,
      "branca": 7563,
      "conversão": 7564,
      "diminuição": 7565,
      "alcance": 7566,
      "famosos": 7567,
      "suspen": 7568,
      "invadiram": 7569,
      "tariado": 7570,
      "faraós": 7571,
      "acelera": 7572,
      "constantemente": 7573,
      "recorde": 7574,
      "árabe": 7575,
      "aprender": 7576,
      "círculo": 7577,
      "biblioteca": 7578,
      "paisagem": 7579,
      "ângulo": 7580,
      "Exemplos": 7581,
      "Hawking": 7582,
      "Vladi": 7583,
      "Clarice": 7584,
      "216": 7585,
      "700": 7586,
      "Ang": 7587,
      "Fon": 7588,
      "Har": 7589,
      "IN": 7590,
      "Jul": 7591,
      "Lin": 7592,
      "Muni": 7593,
      "Patri": 7594,
      "SO": 7595,
      "Sta": 7596,
      "Velha": 7597,
      "ator": 7598,
      "ativo": 7599,
      "dx": 7600,
      "dú": 7601,
      "igreja": 7602,
      "píadas": 7603,
      "wor": 7604,
      "​​": 7605,
      "′\\": 7606,
      "ramento": 7607,
      "rendi": 7608,
      "rebeli": 7609,
      "insu": 7610,
      "endas": 7611,
      "cifras": 7612,
      "alma": 7613,
      "lizou": 7614,
      "tecidos": 7615,
      "modera": 7616,
      "sibilidade": 7617,
      "concorda": 7618,
      "ficção": 7619,
      "verde": 7620,
      "duração": 7621,
      "zadas": 7622,
      "persas": 7623,
      "sava": 7624,
      "201": 7625,
      "206": 7626,
      "2023": 7627,
      "privadas": 7628,
      "biza": 7629,
      "inteiro": 7630,
      "rosso": 7631,
      "critérios": 7632,
      "cartes": 7633,
      "governar": 7634,
      "passos": 7635,
      "ritmé": 7636,
      "incluiu": 7637,
      "incluía": 7638,
      "Defesa": 7639,
      "médicos": 7640,
      "Gui": 7641,
      "urt": 7642,
      "subme": 7643,
      "dentre": 7644,
      "micamente": 7645,
      "transformações": 7646,
      "estável": 7647,
      "fazia": 7648,
      "223": 7649,
      "ganistão": 7650,
      "começo": 7651,
      "matemáticas": 7652,
      "melha": 7653,
      "233": 7654,
      "1965": 7655,
      "1969": 7656,
      "agres": 7657,
      "Supremo": 7658,
      "280": 7659,
      "utilizadas": 7660,
      "capitalistas": 7661,
      "autogestão": 7662,
      "operador": 7663,
      "arquiteto": 7664,
      "Leo": 7665,
      "Leonar": 7666,
      "sequências": 7667,
      "provin": 7668,
      "provável": 7669,
      "colaboração": 7670,
      "artigos": 7671,
      "soviéticas": 7672,
      "registro": 7673,
      "contribuíram": 7674,
      "observador": 7675,
      "breve": 7676,
      "quadro": 7677,
      "Rib": 7678,
      "tler": 7679,
      "permanecer": 7680,
      "disputas": 7681,
      "compreende": 7682,
      "lançamento": 7683,
      "diferenciais": 7684,
      "Schw": 7685,
      "virtude": 7686,
      "canais": 7687,
      "canadense": 7688,
      "tradicionalmente": 7689,
      "Logo": 7690,
      "entendimento": 7691,
      "lineares": 7692,
      "desenho": 7693,
      "drich": 7694,
      "Renascença": 7695,
      "episó": 7696,
      "página": 7697,
      "Henrique": 7698,
      "distinção": 7699,
      "espectadores": 7700,
      "conservadorismo": 7701,
      "Golfo": 7702,
      "derruba": 7703,
      "conselhos": 7704,
      "muçulmanos": 7705,
      "caracterizado": 7706,
      "expedição": 7707,
      "abaste": 7708,
      "OMC": 7709,
      "protestantes": 7710,
      "bolcheviques": 7711,
      "anfitri": 7712,
      "Virgílio": 7713,
      "Friedrich": 7714,
      "Moraes": 7715,
      "Pantanal": 7716,
      "Afeganistão": 7717,
      "Neruda": 7718,
      ".\\\"[": 7719,
      "Antes": 7720,
      "Bos": 7721,
      "Cé": 7722,
      "Dina": 7723,
      "Zelândia": 7724,
      "].\\": 7725,
      "aritmé": 7726,
      "cista": 7727,
      "hington": 7728,
      "nr": 7729,
      "vina": 7730,
      "”,": 7731,
      "coer": 7732,
      "coopera": 7733,
      "isen": 7734,
      "reman": 7735,
      "inevi": 7736,
      "pares": 7737,
      "seg": 7738,
      "dicas": 7739,
      "ciano": 7740,
      "configu": 7741,
      "desembar": 7742,
      "prome": 7743,
      "cui": 7744,
      "tradu": 7745,
      "terço": 7746,
      "voz": 7747,
      "vec": 7748,
      "vermelho": 7749,
      "pertur": 7750,
      "contendo": 7751,
      "cosmo": 7752,
      "parcialmente": 7753,
      "mular": 7754,
      "auge": 7755,
      "1822": 7756,
      "seguro": 7757,
      "ministros": 7758,
      "origina": 7759,
      "plata": 7760,
      "polícia": 7761,
      "reiros": 7762,
      "esteja": 7763,
      "venda": 7764,
      "fundamentos": 7765,
      "estádios": 7766,
      "aceito": 7767,
      "realizou": 7768,
      "coloniza": 7769,
      "226": 7770,
      "227": 7771,
      "clara": 7772,
      "organizado": 7773,
      "basicamente": 7774,
      "1941": 7775,
      "biomassa": 7776,
      "automa": 7777,
      "publicada": 7778,
      "variante": 7779,
      "gerou": 7780,
      "Franco": 7781,
      "ocupar": 7782,
      "aquela": 7783,
      "romanas": 7784,
      "liberdades": 7785,
      "vares": 7786,
      "eventualmente": 7787,
      "1957": 7788,
      "experimentos": 7789,
      "colabora": 7790,
      "federações": 7791,
      "trabalhadora": 7792,
      "financeiro": 7793,
      "deixaram": 7794,
      "descreveu": 7795,
      "politicamente": 7796,
      "lançado": 7797,
      "explicação": 7798,
      "neural": 7799,
      "Norue": 7800,
      "emigra": 7801,
      "restrições": 7802,
      "sofrer": 7803,
      "alcançou": 7804,
      "polis": 7805,
      "Cristo": 7806,
      "alimentar": 7807,
      "similares": 7808,
      "enfrenta": 7809,
      "republicano": 7810,
      "Albert": 7811,
      "anunciou": 7812,
      "escolhido": 7813,
      "conexão": 7814,
      "Indonésia": 7815,
      "oxigênio": 7816,
      "desafios": 7817,
      "mbique": 7818,
      "bactérias": 7819,
      "municípios": 7820,
      "radicais": 7821,
      "Planck": 7822,
      "pirâmi": 7823,
      "hierarquia": 7824,
      "Constantino": 7825,
      "Washington": 7826,
      "Acordo": 7827,
      "Moçambique": 7828,
      "prosperidade": 7829,
      "Fonseca": 7830,
      "remanes": 7831,
      "%.": 7832,
      "800": 7833,
      "Ana": 7834,
      "Clau": 7835,
      "Dar": 7836,
      "Eng": 7837,
      "Ior": 7838,
      "Otomano": 7839,
      "Qing": 7840,
      "TV": 7841,
      "Vale": 7842,
      "adores": 7843,
      "itu": 7844,
      "mís": 7845,
      "misso": 7846,
      "ppen": 7847,
      "pés": 7848,
      "yo": 7849,
      "oro": 7850,
      "causou": 7851,
      "quina": 7852,
      "timos": 7853,
      "roda": 7854,
      "ciente": 7855,
      "sez": 7856,
      "sexo": 7857,
      "lagem": 7858,
      "labora": 7859,
      "alth": 7860,
      "momentos": 7861,
      "consa": 7862,
      "desper": 7863,
      "guém": 7864,
      "ander": 7865,
      "propostas": 7866,
      "cub": 7867,
      "cuo": 7868,
      "legado": 7869,
      "vetores": 7870,
      "1927": 7871,
      "1938": 7872,
      "formulação": 7873,
      "mbio": 7874,
      "parcial": 7875,
      "onze": 7876,
      "antro": 7877,
      "208": 7878,
      "Estra": 7879,
      "priva": 7880,
      "face": 7881,
      "bil": 7882,
      "formato": 7883,
      "batal": 7884,
      "segun": 7885,
      "partid": 7886,
      "internas": 7887,
      "irri": 7888,
      "1500": 7889,
      "gerando": 7890,
      "visíveis": 7891,
      "Alta": 7892,
      "crático": 7893,
      "insky": 7894,
      "campanhas": 7895,
      "crata": 7896,
      "assinou": 7897,
      "Catar": 7898,
      "Chr": 7899,
      "venções": 7900,
      "núncia": 7901,
      "considerava": 7902,
      "Armadas": 7903,
      "indire": 7904,
      "224": 7905,
      "surgem": 7906,
      "claramente": 7907,
      "240": 7908,
      "Common": 7909,
      "ventos": 7910,
      "estabelecidos": 7911,
      "231": 7912,
      "edifício": 7913,
      "controvér": 7914,
      "senso": 7915,
      "aprovou": 7916,
      "localizada": 7917,
      "continuam": 7918,
      "passagem": 7919,
      "brados": 7920,
      "Saúde": 7921,
      "Toda": 7922,
      "barroco": 7923,
      "hard": 7924,
      "produzem": 7925,
      "iniciativa": 7926,
      "1890": 7927,
      "dizem": 7928,
      "bilizar": 7929,
      "domínios": 7930,
      "Centrais": 7931,
      "elétrico": 7932,
      "estrangeiro": 7933,
      "acontecimentos": 7934,
      "proporciona": 7935,
      "invasões": 7936,
      "quarta": 7937,
      "mostraram": 7938,
      "básica": 7939,
      "vanguarda": 7940,
      "Fili": 7941,
      "diminuiu": 7942,
      "acreditam": 7943,
      "estratégi": 7944,
      "recife": 7945,
      "romances": 7946,
      "atleta": 7947,
      "assunto": 7948,
      "municipa": 7949,
      "tarefa": 7950,
      "organizou": 7951,
      "possibilidades": 7952,
      "Trabalhista": 7953,
      "ocasio": 7954,
      "territoriais": 7955,
      "sindicalismo": 7956,
      "mercanti": 7957,
      "Sousa": 7958,
      "infantil": 7959,
      "planícies": 7960,
      "paralelo": 7961,
      "masculino": 7962,
      "Houve": 7963,
      "Companhia": 7964,
      "parâmetros": 7965,
      "cuidados": 7966,
      "Noruega": 7967,
      "Iorque": 7968,
      "?]": 7969,
      "Afonso": 7970,
      "Io": 7971,
      "Iu": 7972,
      "Sé": 7973,
      "Shi": 7974,
      "Ur": 7975,
      "XII": 7976,
      "aqu": 7977,
      "flo": 7978,
      "gências": 7979,
      "gby": 7980,
      "hí": 7981,
      "kata": 7982,
      "pô": 7983,
      "vemente": 7984,
      "ânicos": 7985,
      "devas": 7986,
      "radio": 7987,
      "espel": 7988,
      "isp": 7989,
      "macroscó": 7990,
      "reprodução": 7991,
      "incidente": 7992,
      "tacionais": 7993,
      "catá": 7994,
      "entas": 7995,
      "encontro": 7996,
      "nan": 7997,
      "combater": 7998,
      "seram": 7999,
      "lai": 8000,
      "latina": 8001,
      "queles": 8002,
      "tona": 8003,
      "digos": 8004,
      "mone": 8005,
      "socio": 8006,
      "desas": 8007,
      "vimentos": 8008,
      "través": 8009,
      "tragé": 8010,
      "formais": 8011,
      "formula": 8012,
      "lutar": 8013,
      "gab": 8014,
      "gava": 8015,
      "costeiras": 8016,
      "203": 8017,
      "presti": 8018,
      "imas": 8019,
      "imor": 8020,
      "previa": 8021,
      "grave": 8022,
      "aul": 8023,
      "apli": 8024,
      "segue": 8025,
      "mandas": 8026,
      "Revolu": 8027,
      "minas": 8028,
      "abunda": 8029,
      "chaves": 8030,
      "vasta": 8031,
      "cré": 8032,
      "crença": 8033,
      "nacionalistas": 8034,
      "acús": 8035,
      "ganhando": 8036,
      "inastias": 8037,
      "definições": 8038,
      "237": 8039,
      "Potências": 8040,
      "cenários": 8041,
      "Quanto": 8042,
      "constitucionais": 8043,
      "Então": 8044,
      "permitiram": 8045,
      "aplicado": 8046,
      "gerencia": 8047,
      "determin": 8048,
      "dissolução": 8049,
      "Lux": 8050,
      "Militar": 8051,
      "Pequim": 8052,
      "Proje": 8053,
      "Programa": 8054,
      "Todas": 8055,
      "abriu": 8056,
      "classificado": 8057,
      "conquistar": 8058,
      "contribuiu": 8059,
      "corrido": 8060,
      "Goa": 8061,
      "iniciada": 8062,
      "iniciaram": 8063,
      "1891": 8064,
      "migração": 8065,
      "fornecem": 8066,
      "Prin": 8067,
      "Príncipe": 8068,
      "industrialização": 8069,
      "verdadeiro": 8070,
      "básico": 8071,
      "mantendo": 8072,
      "praticado": 8073,
      "inete": 8074,
      "percepção": 8075,
      "aceitação": 8076,
      "argumentam": 8077,
      "sustentam": 8078,
      "sustentável": 8079,
      "contemporâneos": 8080,
      "preocupação": 8081,
      "palco": 8082,
      "apareceu": 8083,
      "Palácio": 8084,
      "Turquia": 8085,
      "azul": 8086,
      "filósofo": 8087,
      "comandante": 8088,
      "pagamento": 8089,
      "secundário": 8090,
      "árabes": 8091,
      "Isaac": 8092,
      "monumentos": 8093,
      "mensagem": 8094,
      "sobrevivência": 8095,
      "escassez": 8096,
      "índice": 8097,
      "detalhes": 8098,
      "Olimpíadas": 8099,
      "nominal": 8100,
      "pecuária": 8101,
      "217": 8102,
      "211": 8103,
      "At": 8104,
      "Có": 8105,
      "Frei": 8106,
      "Gre": 8107,
      "IC": 8108,
      "VIII": 8109,
      "atos": 8110,
      "aba": 8111,
      "acerca": 8112,
      "cy": 8113,
      "fria": 8114,
      "grou": 8115,
      "gária": 8116,
      "jes": 8117,
      "lus": 8118,
      "mismo": 8119,
      "nJá": 8120,
      "sível": 8121,
      "tsu": 8122,
      "tên": 8123,
      "zia": 8124,
      "óticos": 8125,
      "deb": 8126,
      "raça": 8127,
      "ose": 8128,
      "daí": 8129,
      "repe": 8130,
      "renun": 8131,
      "rebel": 8132,
      "tizado": 8133,
      "rich": 8134,
      "eias": 8135,
      "propria": 8136,
      "fito": 8137,
      "voca": 8138,
      "1900": 8139,
      "persa": 8140,
      "preju": 8141,
      "prejudi": 8142,
      "intitu": 8143,
      "hegem": 8144,
      "poderá": 8145,
      "gratu": 8146,
      "graves": 8147,
      "audi": 8148,
      "cultiva": 8149,
      "Revolta": 8150,
      "partidas": 8151,
      "cartas": 8152,
      "irre": 8153,
      "reiro": 8154,
      "Pana": 8155,
      "adoção": 8156,
      "Secre": 8157,
      "advento": 8158,
      "Gua": 8159,
      "Guiné": 8160,
      "íodo": 8161,
      "curto": 8162,
      "pessoais": 8163,
      "definidos": 8164,
      "246": 8165,
      "1983": 8166,
      "usavam": 8167,
      "organizados": 8168,
      "232": 8169,
      "238": 8170,
      "construídas": 8171,
      "supervisio": 8172,
      "ceno": 8173,
      "censu": 8174,
      "milho": 8175,
      "escopo": 8176,
      "constituído": 8177,
      "apropria": 8178,
      "cionistas": 8179,
      "representado": 8180,
      "representados": 8181,
      "possuir": 8182,
      "Dias": 8183,
      "referências": 8184,
      "eleitores": 8185,
      "quaisquer": 8186,
      "Corpo": 8187,
      "financeiros": 8188,
      "cére": 8189,
      "expandir": 8190,
      "Veneza": 8191,
      "quadrado": 8192,
      "linguagens": 8193,
      "explora": 8194,
      "1889": 8195,
      "violenta": 8196,
      "eucli": 8197,
      "minutos": 8198,
      "Auto": 8199,
      "especialistas": 8200,
      "neutra": 8201,
      "graduação": 8202,
      "emisf": 8203,
      "largamente": 8204,
      "razões": 8205,
      "candidatos": 8206,
      "abstrata": 8207,
      "invadiu": 8208,
      "enfrentou": 8209,
      "Henri": 8210,
      "usuário": 8211,
      "diplomáticas": 8212,
      "Hitler": 8213,
      "Trabalha": 8214,
      "Finalmente": 8215,
      "avaliação": 8216,
      "robôs": 8217,
      "anuncia": 8218,
      "predominantemente": 8219,
      "mexicana": 8220,
      "matriz": 8221,
      "familiar": 8222,
      "semanas": 8223,
      "wealth": 8224,
      "Bulgária": 8225,
      "inimigos": 8226,
      "cumprir": 8227,
      "homogêne": 8228,
      "otimi": 8229,
      "inteiramente": 8230,
      "armazenamento": 8231,
      "alizão": 8232,
      "Acre": 8233,
      "Aero": 8234,
      "Der": 8235,
      "Fí": 8236,
      "Funda": 8237,
      "Ita": 8238,
      "Lau": 8239,
      "TA": 8240,
      "West": 8241,
      "ez": 8242,
      "eficientes": 8243,
      "imentos": 8244,
      "kh": 8245,
      "kha": 8246,
      "nº": 8247,
      "nis": 8248,
      "psi": 8249,
      "álogo": 8250,
      "—,": 8251,
      "demias": 8252,
      "demandas": 8253,
      "rava": 8254,
      "esgo": 8255,
      "esculturas": 8256,
      "doeste": 8257,
      "dam": 8258,
      "dação": 8259,
      "taneamente": 8260,
      "emática": 8261,
      "quistão": 8262,
      "lamentos": 8263,
      "tolome": 8264,
      "ardo": 8265,
      "mover": 8266,
      "sinte": 8267,
      "vital": 8268,
      "logi": 8269,
      "profundo": 8270,
      "exílio": 8271,
      "vertica": 8272,
      "raná": 8273,
      "gidos": 8274,
      "giga": 8275,
      "one": 8276,
      "onia": 8277,
      "presos": 8278,
      "implanta": 8279,
      "voleibol": 8280,
      "elevadas": 8281,
      "crimes": 8282,
      "clero": 8283,
      "uniforme": 8284,
      "goslá": 8285,
      "credi": 8286,
      "estimada": 8287,
      "Mani": 8288,
      "adotaram": 8289,
      "grandeza": 8290,
      "Departamento": 8291,
      "niais": 8292,
      "calcular": 8293,
      "hiper": 8294,
      "acro": 8295,
      "228": 8296,
      "242": 8297,
      "estabelece": 8298,
      "estabelecidas": 8299,
      "262": 8300,
      "existiam": 8301,
      "canções": 8302,
      "1944": 8303,
      "perió": 8304,
      "baixos": 8305,
      "Interna": 8306,
      "aquelas": 8307,
      "gerar": 8308,
      "Cortes": 8309,
      "1955": 8310,
      "Sala": 8311,
      "compõem": 8312,
      "turistas": 8313,
      "defende": 8314,
      "realistas": 8315,
      "teriormente": 8316,
      "divididos": 8317,
      "federais": 8318,
      "Ordem": 8319,
      "preciso": 8320,
      "iniciado": 8321,
      "denou": 8322,
      "árbi": 8323,
      "animal": 8324,
      "anuais": 8325,
      "identificação": 8326,
      "histórias": 8327,
      "aproxima": 8328,
      "disputada": 8329,
      "promoção": 8330,
      "descoberto": 8331,
      "afirmam": 8332,
      "riscos": 8333,
      "colónias": 8334,
      "Schuma": 8335,
      "básicas": 8336,
      "estimativa": 8337,
      "agricultores": 8338,
      "sinal": 8339,
      "cinemato": 8340,
      "argumentou": 8341,
      "respectivos": 8342,
      "Crist": 8343,
      "abstração": 8344,
      "ciclismo": 8345,
      "introduzido": 8346,
      "propagação": 8347,
      "católica": 8348,
      "nOutra": 8349,
      "inúmeros": 8350,
      "navegador": 8351,
      "esferas": 8352,
      "australiano": 8353,
      "australianos": 8354,
      "teiros": 8355,
      "aeroportos": 8356,
      "Livre": 8357,
      "ventude": 8358,
      "bombar": 8359,
      "aviões": 8360,
      "Guerras": 8361,
      "aerona": 8362,
      "Joaquim": 8363,
      "Iraque": 8364,
      "Vladimir": 8365,
      "perturba": 8366,
      "Commonwealth": 8367,
      "goslávia": 8368,
      "%).[": 8369,
      "218": 8370,
      "Aé": 8371,
      "Bun": 8372,
      "Borges": 8373,
      "Gama": 8374,
      "Van": 8375,
      "atitude": 8376,
      "ede": 8377,
      "nm": 8378,
      "nistas": 8379,
      "vessa": 8380,
      "yn": 8381,
      "çal": 8382,
      "ênio": 8383,
      "únicos": 8384,
      "incl": 8385,
      "questra": 8386,
      "paul": 8387,
      "tipicamente": 8388,
      "endê": 8389,
      "seco": 8390,
      "sedi": 8391,
      "secular": 8392,
      "ditos": 8393,
      "arz": 8394,
      "argentina": 8395,
      "nidades": 8396,
      "concor": 8397,
      "conferência": 8398,
      "descentra": 8399,
      "pedras": 8400,
      "haja": 8401,
      "1921": 8402,
      "1935": 8403,
      "gações": 8404,
      "perdendo": 8405,
      "gidas": 8406,
      "sais": 8407,
      "mulos": 8408,
      "neus": 8409,
      "estri": 8410,
      "cultivo": 8411,
      "culminou": 8412,
      "1821": 8413,
      "funcional": 8414,
      "cargos": 8415,
      "irá": 8416,
      "triun": 8417,
      "visando": 8418,
      "Deu": 8419,
      "trabalhando": 8420,
      "ingres": 8421,
      "cía": 8422,
      "importações": 8423,
      "dependem": 8424,
      "coloniais": 8425,
      "222": 8426,
      "225": 8427,
      "241": 8428,
      "1981": 8429,
      "medieva": 8430,
      "235": 8431,
      "236": 8432,
      "tornado": 8433,
      "Martin": 8434,
      "escolar": 8435,
      "distor": 8436,
      "câmbio": 8437,
      "códigos": 8438,
      "denun": 8439,
      "Período": 8440,
      "dominantes": 8441,
      "1959": 8442,
      "governamentais": 8443,
      "servir": 8444,
      "1894": 8445,
      "executado": 8446,
      "ausência": 8447,
      "selecção": 8448,
      "intenção": 8449,
      "potâ": 8450,
      "separados": 8451,
      "aberta": 8452,
      "químicos": 8453,
      "produzidos": 8454,
      "procurou": 8455,
      "instrumento": 8456,
      "canadenses": 8457,
      "absoluto": 8458,
      "monárqui": 8459,
      "impactos": 8460,
      "definitivamente": 8461,
      "egípcio": 8462,
      "chileno": 8463,
      "residentes": 8464,
      "impedir": 8465,
      "ervantes": 8466,
      "negativos": 8467,
      "usuários": 8468,
      "terrestres": 8469,
      "bons": 8470,
      "cifragem": 8471,
      "Turing": 8472,
      "externo": 8473,
      "Democrática": 8474,
      "preservação": 8475,
      "biológica": 8476,
      "acabaram": 8477,
      "relevo": 8478,
      "partamentos": 8479,
      "Obje": 8480,
      "colombiano": 8481,
      "profundas": 8482,
      "desigualdade": 8483,
      "traduzido": 8484,
      "alfabetização": 8485,
      "restauração": 8486,
      "conclusões": 8487,
      "bloqueio": 8488,
      "educacional": 8489,
      "ocasião": 8490,
      "Alemão": 8491,
      "explicitamente": 8492,
      "idional": 8493,
      "despesas": 8494,
      "Polícia": 8495,
      "Schwarz": 8496,
      "batalhas": 8497,
      "IoT": 8498,
      "medievais": 8499,
      "Ato": 8500,
      "Agência": 8501,
      "Apenas": 8502,
      "Ce": 8503,
      "Clu": 8504,
      "Cés": 8505,
      "Dis": 8506,
      "Get": 8507,
      "Jes": 8508,
      "Ken": 8509,
      "Lob": 8510,
      "RN": 8511,
      "Sá": 8512,
      "Tan": 8513,
      "aci": 8514,
      "ctor": 8515,
      "cân": 8516,
      "fórmula": 8517,
      "gis": 8518,
      "ginas": 8519,
      "mus": 8520,
      "nTambém": 8521,
      "om": 8522,
      "otoma": 8523,
      "ws": 8524,
      "xa": 8525,
      "ácido": 8526,
      "”.[": 8527,
      "deos": 8528,
      "revi": 8529,
      "tabela": 8530,
      "caatinga": 8531,
      "ron": 8532,
      "tuas": 8533,
      "resis": 8534,
      "restrin": 8535,
      "conci": 8536,
      "consecu": 8537,
      "vidro": 8538,
      "peram": 8539,
      "miti": 8540,
      "leu": 8541,
      "leta": 8542,
      "lela": 8543,
      "\\\").": 8544,
      "unham": 8545,
      "1933": 8546,
      "lucro": 8547,
      "ranos": 8548,
      "metá": 8549,
      "conter": 8550,
      "cep": 8551,
      "parques": 8552,
      "templo": 8553,
      "anta": 8554,
      "estação": 8555,
      "neto": 8556,
      "presi": 8557,
      "primo": 8558,
      "prêmio": 8559,
      "bidas": 8560,
      "inteiros": 8561,
      "intima": 8562,
      "lírica": 8563,
      "formados": 8564,
      "lhão": 8565,
      "seguidores": 8566,
      "ruas": 8567,
      "teste": 8568,
      "ideo": 8569,
      "tendem": 8570,
      "tensões": 8571,
      "produções": 8572,
      "Portanto": 8573,
      "Paraná": 8574,
      "estiveram": 8575,
      "estimula": 8576,
      "niana": 8577,
      "governou": 8578,
      "recebem": 8579,
      "atravessa": 8580,
      "dependentes": 8581,
      "baseia": 8582,
      "surfe": 8583,
      "atuação": 8584,
      "máxima": 8585,
      "capitais": 8586,
      "254": 8587,
      "beleza": 8588,
      "ecológicos": 8589,
      "usaram": 8590,
      "crescer": 8591,
      "sensa": 8592,
      "constituída": 8593,
      "cionária": 8594,
      "arquipé": 8595,
      "representações": 8596,
      "automação": 8597,
      "perigos": 8598,
      "hash": 8599,
      "referido": 8600,
      "encontraram": 8601,
      "associadas": 8602,
      "dominado": 8603,
      "tinos": 8604,
      "artificiais": 8605,
      "afirmar": 8606,
      "legíti": 8607,
      "dizendo": 8608,
      "Nicola": 8609,
      "1905": 8610,
      "campeões": 8611,
      "emprega": 8612,
      "empregados": 8613,
      "austría": 8614,
      "escreve": 8615,
      "hidrogénio": 8616,
      "1888": 8617,
      "recusa": 8618,
      "designar": 8619,
      "estrangeira": 8620,
      "artesãos": 8621,
      "artesanato": 8622,
      "mulou": 8623,
      "manufa": 8624,
      "mostrando": 8625,
      "monarcas": 8626,
      "acreditavam": 8627,
      "sexuais": 8628,
      "sustentar": 8629,
      "polê": 8630,
      "sugerem": 8631,
      "distintos": 8632,
      "reconhecer": 8633,
      "gravitação": 8634,
      "nobres": 8635,
      "extração": 8636,
      "permanentes": 8637,
      "jornalista": 8638,
      "montanhos": 8639,
      "decoração": 8640,
      "metropolita": 8641,
      "amigo": 8642,
      "preservar": 8643,
      "nazista": 8644,
      "amostra": 8645,
      "professores": 8646,
      "múltiplas": 8647,
      "acadêmicos": 8648,
      "celulares": 8649,
      "compositor": 8650,
      "idiomas": 8651,
      "esquema": 8652,
      "Branco": 8653,
      "renováveis": 8654,
      "argentino": 8655,
      "essência": 8656,
      "homenagem": 8657,
      "provenientes": 8658,
      "propósito": 8659,
      "software": 8660,
      "empréstimos": 8661,
      "mísseis": 8662,
      "segundos": 8663,
      "tênis": 8664,
      "Getúlio": 8665,
      ".\\\"": 8666,
      "Anos": 8667,
      "Africa": 8668,
      "CF": 8669,
      "Cri": 8670,
      "Cli": 8671,
      "Dan": 8672,
      "Eco": 8673,
      "Fal": 8674,
      "Gor": 8675,
      "Nessa": 8676,
      "Reno": 8677,
      "Sus": 8678,
      "Sim": 8679,
      "Sistema": 8680,
      "[...": 8681,
      "acompan": 8682,
      "czar": 8683,
      "gesti": 8684,
      "oligar": 8685,
      "sh": 8686,
      "vância": 8687,
      "yr": 8688,
      "yu": 8689,
      "êu": 8690,
      "ília": 8691,
      "rana": 8692,
      "raio": 8693,
      "ester": 8694,
      "core": 8695,
      "ergia": 8696,
      "revo": 8697,
      "regres": 8698,
      "inhos": 8699,
      "insurre": 8700,
      "caras": 8701,
      "pano": 8702,
      "rivais": 8703,
      "nativa": 8704,
      "cicle": 8705,
      "ladores": 8706,
      "moni": 8707,
      "resi": 8708,
      "confun": 8709,
      "deser": 8710,
      "sujei": 8711,
      "tração": 8712,
      "traços": 8713,
      "expo": 8714,
      "vetor": 8715,
      "dual": 8716,
      "luna": 8717,
      "perdido": 8718,
      "metodo": 8719,
      "conto": 8720,
      "contou": 8721,
      "contam": 8722,
      "posses": 8723,
      "coslováquia": 8724,
      "sab": 8725,
      "saque": 8726,
      "tempor": 8727,
      "estando": 8728,
      "cionada": 8729,
      "cionadas": 8730,
      "pudessem": 8731,
      "bidos": 8732,
      "preço": 8733,
      "nossos": 8734,
      "aux": 8735,
      "1848": 8736,
      "back": 8737,
      "giam": 8738,
      "giados": 8739,
      "marciais": 8740,
      "margens": 8741,
      "orientais": 8742,
      "crimina": 8743,
      "berto": 8744,
      "estival": 8745,
      "assinar": 8746,
      "ásticas": 8747,
      "Carol": 8748,
      "incluir": 8749,
      "consideração": 8750,
      "fundaram": 8751,
      "hias": 8752,
      "hipo": 8753,
      "Artes": 8754,
      "gregas": 8755,
      "curvas": 8756,
      "coloca": 8757,
      "continentes": 8758,
      "251": 8759,
      "256": 8760,
      "futura": 8761,
      "245": 8762,
      "resultante": 8763,
      "234": 8764,
      "pratos": 8765,
      "construiu": 8766,
      "significativos": 8767,
      "260": 8768,
      "265": 8769,
      "positiva": 8770,
      "estruturais": 8771,
      "frase": 8772,
      "1943": 8773,
      "operadores": 8774,
      "geografia": 8775,
      "Michel": 8776,
      "Pereira": 8777,
      "leite": 8778,
      "frequentes": 8779,
      "governadores": 8780,
      "divididas": 8781,
      "derivado": 8782,
      "declarar": 8783,
      "iniciativas": 8784,
      "observado": 8785,
      "deixar": 8786,
      "golpes": 8787,
      "nNão": 8788,
      "aproximação": 8789,
      "separadas": 8790,
      "eleitoral": 8791,
      "argumentos": 8792,
      "instalada": 8793,
      "euros": 8794,
      "oferta": 8795,
      "vegetais": 8796,
      "inspirado": 8797,
      "evolutiva": 8798,
      "singu": 8799,
      "comparado": 8800,
      "expressionistas": 8801,
      "gradual": 8802,
      "indianos": 8803,
      "ryu": 8804,
      "famosa": 8805,
      "ciclos": 8806,
      "essenciais": 8807,
      "Henry": 8808,
      "económico": 8809,
      "recuperar": 8810,
      "benefi": 8811,
      "alizada": 8812,
      "prision": 8813,
      "fragment": 8814,
      "múltiplos": 8815,
      "étnicos": 8816,
      "Maxwell": 8817,
      "genoma": 8818,
      "Monet": 8819,
      "elétrons": 8820,
      "semana": 8821,
      "renovável": 8822,
      "cúpula": 8823,
      "Arquite": 8824,
      "numerosas": 8825,
      "Bernardo": 8826,
      "Inicialmente": 8827,
      "Sérvia": 8828,
      "sacerdotes": 8829,
      "xadrez": 8830,
      "Rodrigues": 8831,
      "Dinamarca": 8832,
      "Filipe": 8833,
      "emisfério": 8834,
      "César": 8835,
      "intimamente": 8836,
      "Asi": 8837,
      "Bus": 8838,
      "Bál": 8839,
      "Corte": 8840,
      "Cervantes": 8841,
      "Dessa": 8842,
      "GW": 8843,
      "G20": 8844,
      "Sem": 8845,
      "blia": 8846,
      "cão": 8847,
      "eman": 8848,
      "ire": 8849,
      "ivo": 8850,
      "lla": 8851,
      "más": 8852,
      "nel": 8853,
      "punha": 8854,
      "tiam": 8855,
      "testes": 8856,
      "validade": 8857,
      "wis": 8858,
      "zio": 8859,
      "íso": 8860,
      "racio": 8861,
      "malmente": 8862,
      "relo": 8863,
      "relógi": 8864,
      "revistas": 8865,
      "emburgo": 8866,
      "entende": 8867,
      "pavi": 8868,
      "pací": 8869,
      "rituais": 8870,
      "navio": 8871,
      "ción": 8872,
      "notação": 8873,
      "pop": 8874,
      "teca": 8875,
      "divin": 8876,
      "arestas": 8877,
      "conduzi": 8878,
      "portas": 8879,
      "viram": 8880,
      "viviam": 8881,
      "proposições": 8882,
      "culação": 8883,
      "cuida": 8884,
      "exam": 8885,
      "filha": 8886,
      "let": 8887,
      "usinas": 8888,
      "1932": 8889,
      "cedo": 8890,
      "parência": 8891,
      "bits": 8892,
      "prevê": 8893,
      "meida": 8894,
      "1880": 8895,
      "velho": 8896,
      "lheiros": 8897,
      "marco": 8898,
      "margem": 8899,
      "mino": 8900,
      "vasto": 8901,
      "tensão": 8902,
      "juris": 8903,
      "judô": 8904,
      "Almeida": 8905,
      "crenças": 8906,
      "desenvolvimentos": 8907,
      "Mala": 8908,
      "ill": 8909,
      "Chin": 8910,
      "médias": 8911,
      "médico": 8912,
      "rária": 8913,
      "cília": 8914,
      "objetiva": 8915,
      "229": 8916,
      "255": 8917,
      "equilib": 8918,
      "1977": 8919,
      "249": 8920,
      "construída": 8921,
      "Mart": 8922,
      "hospi": 8923,
      "terais": 8924,
      "distâncias": 8925,
      "destacou": 8926,
      "forçada": 8927,
      "banda": 8928,
      "normas": 8929,
      "1953": 8930,
      "ligadas": 8931,
      "ocupado": 8932,
      "Proto": 8933,
      "aprecia": 8934,
      "variedades": 8935,
      "determinados": 8936,
      "registros": 8937,
      "iniciando": 8938,
      "1895": 8939,
      "vírus": 8940,
      "desafia": 8941,
      "permanecem": 8942,
      "permaneceram": 8943,
      "disputado": 8944,
      "atribuída": 8945,
      "proporções": 8946,
      "normal": 8947,
      "liderados": 8948,
      "gén": 8949,
      "causada": 8950,
      "interpretações": 8951,
      "aparecem": 8952,
      "Nordeste": 8953,
      "facilidade": 8954,
      "emissão": 8955,
      "sexual": 8956,
      "personagem": 8957,
      "modificações": 8958,
      "emergência": 8959,
      "vácuo": 8960,
      "companhia": 8961,
      "tribunal": 8962,
      "capitanias": 8963,
      "enfrentar": 8964,
      "Plano": 8965,
      "republicanos": 8966,
      "externas": 8967,
      "Eucli": 8968,
      "poderoso": 8969,
      "Williams": 8970,
      "García": 8971,
      "Milão": 8972,
      "feminino": 8973,
      "decreto": 8974,
      "expedições": 8975,
      "arqueológi": 8976,
      "autônomas": 8977,
      "planície": 8978,
      "Germ": 8979,
      "quinze": 8980,
      "decadência": 8981,
      "questiona": 8982,
      "Trans": 8983,
      "Moderna": 8984,
      "Taiwan": 8985,
      "sonora": 8986,
      "aritmética": 8987,
      "Luxemburgo": 8988,
      "Código": 8989,
      "rebeldes": 8990,
      "cérebro": 8991,
      "Trabalhadores": 8992,
      "AL": 8993,
      "Ab": 8994,
      "BR": 8995,
      "Bla": 8996,
      "Cro": 8997,
      "CSS": 8998,
      "Jor": 8999,
      "Mexica": 9000,
      "Sin": 9001,
      "Sau": 9002,
      "adia": 9003,
      "cesta": 9004,
      "cência": 9005,
      "gótico": 9006,
      "hel": 9007,
      "jan": 9008,
      "kan": 9009,
      "ket": 9010,
      "nEsta": 9011,
      "nEnquanto": 9012,
      "nêu": 9013,
      "pto": 9014,
      "íblia": 9015,
      "escul": 9016,
      "coalizão": 9017,
      "doença": 9018,
      "maj": 9019,
      "matérias": 9020,
      "reina": 9021,
      "revisão": 9022,
      "infe": 9023,
      "incerteza": 9024,
      "tag": 9025,
      "empa": 9026,
      "canto": 9027,
      "paro": 9028,
      "rival": 9029,
      "compar": 9030,
      "laram": 9031,
      "lateral": 9032,
      "quetebol": 9033,
      "alinha": 9034,
      "lizando": 9035,
      "didade": 9036,
      "dióxido": 9037,
      "nima": 9038,
      "convi": 9039,
      "suporta": 9040,
      "anfí": 9041,
      "prota": 9042,
      "hado": 9043,
      "1928": 9044,
      "durado": 9045,
      "lucra": 9046,
      "garo": 9047,
      "sado": 9048,
      "estatais": 9049,
      "puseram": 9050,
      "imen": 9051,
      "impla": 9052,
      "falado": 9053,
      "precur": 9054,
      "autos": 9055,
      "autó": 9056,
      "1840": 9057,
      "cht": 9058,
      "internos": 9059,
      "rua": 9060,
      "abu": 9061,
      "Natura": 9062,
      "pena": 9063,
      "pene": 9064,
      "tens": 9065,
      "inovação": 9066,
      "crônica": 9067,
      "assí": 9068,
      "ástico": 9069,
      "subor": 9070,
      "subsí": 9071,
      "transporta": 9072,
      "transcrição": 9073,
      "algas": 9074,
      "correta": 9075,
      "acla": 9076,
      "258": 9077,
      "1971": 9078,
      "267": 9079,
      "284": 9080,
      "levado": 9081,
      "representativa": 9082,
      "1942": 9083,
      "salhes": 9084,
      "paredes": 9085,
      "ligado": 9086,
      "osamente": 9087,
      "serviu": 9088,
      "exige": 9089,
      "Versalhes": 9090,
      "classificada": 9091,
      "Dani": 9092,
      "declararam": 9093,
      "precisamente": 9094,
      "thur": 9095,
      "executar": 9096,
      "celer": 9097,
      "coleção": 9098,
      "1904": 9099,
      "revoluções": 9100,
      "tomadas": 9101,
      "substituir": 9102,
      "substituiu": 9103,
      "intensa": 9104,
      "descrita": 9105,
      "Olímpico": 9106,
      "analítica": 9107,
      "potenciais": 9108,
      "designação": 9109,
      "atribuído": 9110,
      "influenciaram": 9111,
      "ameaças": 9112,
      "lançaram": 9113,
      "reuniões": 9114,
      "estimado": 9115,
      "multiplica": 9116,
      "teórico": 9117,
      "Terceiro": 9118,
      "chuvas": 9119,
      "status": 9120,
      "ascendência": 9121,
      "primir": 9122,
      "consoli": 9123,
      "páginas": 9124,
      "morreram": 9125,
      "moedas": 9126,
      "ght": 9127,
      "decora": 9128,
      "molécula": 9129,
      "Finlândia": 9130,
      "presidenciais": 9131,
      "ferramenta": 9132,
      "Índias": 9133,
      "Índico": 9134,
      "Índice": 9135,
      "operário": 9136,
      "venezuelano": 9137,
      "relevância": 9138,
      "Hans": 9139,
      "habitats": 9140,
      "plebe": 9141,
      "proeminente": 9142,
      "heteró": 9143,
      "General": 9144,
      "skat": 9145,
      "apontam": 9146,
      "oportunidades": 9147,
      "ECMA": 9148,
      "vértices": 9149,
      "Sebastia": 9150,
      "cotidiano": 9151,
      "Vasco": 9152,
      "Bloco": 9153,
      "Giovan": 9154,
      "castelha": 9155,
      "eficaz": 9156,
      "disponibilidade": 9157,
      "lentamente": 9158,
      "teatros": 9159,
      "Artificial": 9160,
      "pseudo": 9161,
      "remanescentes": 9162,
      "Engels": 9163,
      "antropo": 9164,
      "acústica": 9165,
      "debates": 9166,
      "Aérea": 9167,
      "Bau": 9168,
      "Bíblia": 9169,
      "Cra": 9170,
      "Gas": 9171,
      "Ming": 9172,
      "PS": 9173,
      "Pú": 9174,
      "Pab": 9175,
      "Só": 9176,
      "Vis": 9177,
      "apos": 9178,
      "bó": 9179,
      "fú": 9180,
      "gni": 9181,
      "listas": 9182,
      "nce": 9183,
      "nFoi": 9184,
      "olhos": 9185,
      "ocorrência": 9186,
      "pções": 9187,
      "ster": 9188,
      "wn": 9189,
      "ácidos": 9190,
      "ère": 9191,
      "ói": 9192,
      "escal": 9193,
      "eri": 9194,
      "orbi": 9195,
      "redo": 9196,
      "reações": 9197,
      "infinito": 9198,
      "tari": 9199,
      "pain": 9200,
      "tira": 9201,
      "quez": 9202,
      "difí": 9203,
      "resum": 9204,
      "descar": 9205,
      "suprema": 9206,
      "gueira": 9207,
      "veja": 9208,
      "1931": 9209,
      "lucros": 9210,
      "sacri": 9211,
      "how": 9212,
      "Est": 9213,
      "Esquerda": 9214,
      "piro": 9215,
      "puni": 9216,
      "impre": 9217,
      "bilô": 9218,
      "ferti": 9219,
      "1820": 9220,
      "1830": 9221,
      "1850": 9222,
      "chão": 9223,
      "nascido": 9224,
      "éricos": 9225,
      "minimi": 9226,
      "Nota": 9227,
      "grange": 9228,
      "sér": 9229,
      "envolvido": 9230,
      "irmão": 9231,
      "adotada": 9232,
      "inger": 9233,
      "recebido": 9234,
      "estátuas": 9235,
      "colocou": 9236,
      "longos": 9237,
      "mária": 9238,
      "259": 9239,
      "ettel": 9240,
      "francos": 9241,
      "Quatro": 9242,
      "senado": 9243,
      "268": 9244,
      "aponta": 9245,
      "existia": 9246,
      "morto": 9247,
      "naturalmente": 9248,
      "277": 9249,
      "brasileiras": 9250,
      "perigo": 9251,
      "dezesse": 9252,
      "libertário": 9253,
      "responder": 9254,
      "1951": 9255,
      "1952": 9256,
      "divide": 9257,
      "evidência": 9258,
      "determinação": 9259,
      "rush": 9260,
      "administrativa": 9261,
      "Havia": 9262,
      "campeã": 9263,
      "identifica": 9264,
      "identificar": 9265,
      "substituída": 9266,
      "dinâmicos": 9267,
      "Ferreira": 9268,
      "CO2": 9269,
      "apoiado": 9270,
      "invasores": 9271,
      "sucessores": 9272,
      "lançada": 9273,
      "Rafa": 9274,
      "retirada": 9275,
      "retirar": 9276,
      "oferecer": 9277,
      "Territ": 9278,
      "ameaçadas": 9279,
      "volumes": 9280,
      "restrita": 9281,
      "borou": 9282,
      "generalizada": 9283,
      "urbano": 9284,
      "descobrir": 9285,
      "Historicamente": 9286,
      "fácil": 9287,
      "provocou": 9288,
      "preocupações": 9289,
      "restabele": 9290,
      "impressionistas": 9291,
      "mantido": 9292,
      "nOutros": 9293,
      "Association": 9294,
      "marítima": 9295,
      "quinta": 9296,
      "Contin": 9297,
      "espectro": 9298,
      "combustível": 9299,
      "fragmentos": 9300,
      "enfati": 9301,
      "reivindi": 9302,
      "narrativa": 9303,
      "regularmente": 9304,
      "Walter": 9305,
      "recomenda": 9306,
      "familiares": 9307,
      "receita": 9308,
      "patrocina": 9309,
      "contínuo": 9310,
      "círculos": 9311,
      "bibliotecas": 9312,
      "Memórias": 9313,
      "UNES": 9314,
      "fracasso": 9315,
      "centagem": 9316,
      "anarco": 9317,
      "eletrônicos": 9318,
      "subsequente": 9319,
      "arbitr": 9320,
      "field": 9321,
      "substância": 9322,
      "óptica": 9323,
      "budismo": 9324,
      "turbinas": 9325,
      "manipulação": 9326,
      "degradação": 9327,
      "traduções": 9328,
      "Jesus": 9329,
      "prisioneiros": 9330,
      "Giovanni": 9331,
      "difíceis": 9332,
      "UNESCO": 9333,
      "Através": 9334,
      "Bis": 9335,
      "Bri": 9336,
      "CA": 9337,
      "Eram": 9338,
      "Elas": 9339,
      "Gro": 9340,
      "Gália": 9341,
      "IX": 9342,
      "Má": 9343,
      "Pós": 9344,
      "Vettel": 9345,
      "We": 9346,
      "cta": 9347,
      "ccio": 9348,
      "fres": 9349,
      "ló": 9350,
      "n4": 9351,
      "nI": 9352,
      "nv": 9353,
      "nDi": 9354,
      "odo": 9355,
      "oposi": 9356,
      "suma": 9357,
      "zinha": 9358,
      "êmios": 9359,
      "departamentos": 9360,
      "esma": 9361,
      "esqu": 9362,
[...]
