{
  "version": "1.0",
  "truncation": null,
  "padding": null,
  "added_tokens": [
    {
      "id": 1,
      "content": "<|pad|>",
      "single_word": false,
      "lstrip": false,
      "rstrip": false,
      "normalized": false,
      "special": true
    }
  ],
  "normalizer": null,
  "pre_tokenizer": {
    "type": "ByteLevel",
    "add_prefix_space": true,
    "trim_offsets": true,
    "use_regex": true
  },
  "post_processor": {
    "type": "ByteLevel",
    "add_prefix_space": true,
    "trim_offsets": true,
    "use_regex": true
  },
  "decoder": null,
  "model": {
    "type": "BPE",
    "dropout": null,
    "unk_token": null,
    "continuing_subword_prefix": null,
    "end_of_word_suffix": null,
    "fuse_unk": false,
    "byte_fallback": false,
    "ignore_merges": false,
    "vocab": {
      "": 0,
      "<|pad|>": 1,
      "!": 2,
      "\"": 3,
      "#": 4,
      "$": 5,
      "%": 6,
      "&": 7,
      "'": 8,
      "(": 9,
      ")": 10,
      "*": 11,
      "+": 12,
      ",": 13,
      "-": 14,
      ".": 15,
      "/": 16,
      "0": 17,
      "1": 18,
      "2": 19,
      "3": 20,
      "4": 21,
      "5": 22,
      "6": 23,
      "7": 24,
      "8": 25,
      "9": 26,
      ":": 27,
      ";": 28,
      "<": 29,
      "=": 30,
      ">": 31,
      "?": 32,
      "@": 33,
      "A": 34,
      "B": 35,
      "C": 36,
      "D": 37,
      "E": 38,
      "F": 39,
      "G": 40,
      "H": 41,
      "I": 42,
      "J": 43,
      "K": 44,
      "L": 45,
      "M": 46,
      "N": 47,
      "O": 48,
      "P": 49,
      "Q": 50,
      "R": 51,
      "S": 52,
      "T": 53,
      "U": 54,
      "V": 55,
      "W": 56,
      "X": 57,
      "Y": 58,
      "Z": 59,
      "[": 60,
      "\\": 61,
      "]": 62,
      "^": 63,
      "_": 64,
      "`": 65,
      "a": 66,
      "b": 67,
      "c": 68,
      "d": 69,
      "e": 70,
      "f": 71,
      "g": 72,
      "h": 73,
      "i": 74,
      "j": 75,
      "k": 76,
      "l": 77,
      "m": 78,
      "n": 79,
      "o": 80,
      "p": 81,
      "q": 82,
      "r": 83,
      "s": 84,
      "t": 85,
      "u": 86,
      "v": 87,
      "w": 88,
      "x": 89,
      "y": 90,
      "z": 91,
      "{": 92,
      "|": 93,
      "}": 94,
      "~": 95,
      "¡": 96,
      "¢": 97,
      "£": 98,
      "¤": 99,
      "¥": 100,
      "¦": 101,
      "§": 102,
      "¨": 103,
      "©": 104,
      "ª": 105,
      "«": 106,
      "¬": 107,
      "®": 108,
      "¯": 109,
      "°": 110,
      "±": 111,
      "²": 112,
      "³": 113,
      "´": 114,
      "µ": 115,
      "¶": 116,
      "·": 117,
      "¸": 118,
      "¹": 119,
      "º": 120,
      "»": 121,
      "¼": 122,
      "½": 123,
      "¾": 124,
      "¿": 125,
      "Â": 126,
      "Ã": 127,
      "Ä": 128,
      "Å": 129,
      "Æ": 130,
      "Ç": 131,
      "È": 132,
      "É": 133,
      "Ê": 134,
      "Ë": 135,
      "Ì": 136,
      "Í": 137,
      "Î": 138,
      "Ï": 139,
      "Ð": 140,
      "Ñ": 141,
      "Ò": 142,
      "Ó": 143,
      "Ô": 144,
      "Õ": 145,
      "Ö": 146,
      "×": 147,
      "Ø": 148,
      "Ù": 149,
      "Ú": 150,
      "Û": 151,
      "Ü": 152,
      "Ý": 153,
      "à": 154,
      "á": 155,
      "â": 156,
      "ã": 157,
      "ä": 158,
      "å": 159,
      "æ": 160,
      "ç": 161,
      "è": 162,
      "é": 163,
      "ê": 164,
      "ë": 165,
      "ì": 166,
      "í": 167,
      "ï": 168,
      "ð": 169,
      "Ċ": 170,
      "č": 171,
      "Ġ": 172,
      "Ģ": 173,
      "ģ": 174,
      "Ĥ": 175,
      "ĥ": 176,
      "Ħ": 177,
      "ħ": 178,
      "Ĩ": 179,
      "ĩ": 180,
      "Ī": 181,
      "ī": 182,
      "Ĭ": 183,
      "ĭ": 184,
      "Į": 185,
      "į": 186,
      "İ": 187,
      "ı": 188,
      "Ĳ": 189,
      "ĳ": 190,
      "Ĵ": 191,
      "ĵ": 192,
      "Ķ": 193,
      "ķ": 194,
      "ĸ": 195,
      "Ĺ": 196,
      "ĺ": 197,
      "Ļ": 198,
      "ļ": 199,
      "Ľ": 200,
      "ľ": 201,
      "Ŀ": 202,
      "ŀ": 203,
      "Ł": 204,
      "ł": 205,
      "Ń": 206,
      "Ġt": 207,
      "he": 208,
      "Ġa": 209,
      "in": 210,
      "Ġthe": 211,
      "er": 212,
      "on": 213,
      "Ġ,": 214,
      "re": 215,
      "Ġs": 216,
      "ed": 217,
      "Ġw": 218,
      "Ġo": 219,
      "nd": 220,
      "at": 221,
      "Ġ.": 222,
      "or": 223,
      "en": 224,
      "Ġc": 225,
      "it": 226,
      "Ġf": 227,
      "is": 228,
      "es": 229,
      "ar": 230,
      "Ġb": 231,
      "Ġof": 232,
      "an": 233,
      "Ġin": 234,
      "al": 235,
      "ing": 236,
      "Ġp": 237,
      "as": 238,
      "Ġand": 239,
      "čĊ": 240,
      "ĠčĊ": 241,
      "Ġto": 242,
      "ic": 243,
      "ro": 244,
      "Ġm": 245,
      "Ġd": 246,
      "Ġh": 247,
      "ion": 248,
      "le": 249,
      "ou": 250,
      "ĠT": 251,
      "Ġre": 252,
      "Ġ=": 253,
      "ĠS": 254,
      "il": 255,
      "ĠA": 256,
      "ent": 257,
      "Ġ\"": 258,
      "Ġ1": 259,
      "Ġth": 260,
      "st": 261,
      "el": 262,
      "ĠC": 263,
      "Ġl": 264,
      "Ġ@": 265,
      "om": 266,
      "Ġe": 267,
      "am": 268,
      "Ġn": 269,
      "ad": 270,
      "ac": 271,
      "Ġwas": 272,
      "ĠM": 273,
      "ĠB": 274,
      "ec": 275,
      "Ġon": 276,
      "ĠThe": 277,
      "ly": 278,
      "ur": 279,
      "Ġ'": 280,
      "et": 281,
      "id": 282,
      "ol": 283,
      "Ġg": 284,
      "im": 285,
      "ĠI": 286,
      "-@": 287,
      "Ġ@-@": 288,
      "Ġfor": 289,
      "ir": 290,
      "ig": 291,
      "iv": 292,
      "ot": 293,
      "ter": 294,
      "ĠH": 295,
      "ut": 296,
      "Ġas": 297,
      "us": 298,
      "ow": 299,
      "ith": 300,
      "ay": 301,
      "Ġ2": 302,
      "ĠP": 303,
      "Ġst": 304,
      "Ġhe": 305,
      "ver": 306,
      "ation": 307,
      "Ġwith": 308,
      "Ġbe": 309,
      "ĠR": 310,
      "Ġthat": 311,
      "ĠD": 312,
      "ce": 313,
      "un": 314,
      "em": 315,
      "ĠW": 316,
      "Ġwh": 317,
      "ĠF": 318,
      "ch": 319,
      "Ġby": 320,
      "th": 321,
      "Ġal": 322,
      "Ġ)": 323,
      "Ġ(": 324,
      "ĠL": 325,
      "ul": 326,
      "ĠG": 327,
      "Ġis": 328,
      "Ġcon": 329,
      "ers": 330,
      "Ġat": 331,
      "ct": 332,
      "ĠN": 333,
      "ra": 334,
      "os": 335,
      "Ġ19": 336,
      "Ġan": 337,
      "Ġit": 338,
      "her": 339,
      "rom": 340,
      "and": 341,
      "um": 342,
      "ĠJ": 343,
      "est": 344,
      "00": 345,
      "Ġhis": 346,
      "ĠE": 347,
      "ag": 348,
      "av": 349,
      "ain": 350,
      "ri": 351,
      "od": 352,
      "Ġfrom": 353,
      "ĠO": 354,
      "ist": 355,
      "Ġcom": 356,
      "Ġv": 357,
      "Ġpro": 358,
      "op": 359,
      "ill": 360,
      "ore": 361,
      "if": 362,
      "ld": 363,
      "up": 364,
      "Ġr": 365,
      "ew": 366,
      "ere": 367,
      "res": 368,
      "igh": 369,
      "ĠIn": 370,
      "ies": 371,
      "Ġde": 372,
      "ber": 373,
      "art": 374,
      "ard": 375,
      "ort": 376,
      "Ġse": 377,
      "ich": 378,
      "Ġwere": 379,
      "ate": 380,
      "all": 381,
      "ak": 382,
      "ant": 383,
      "oc": 384,
      "ud": 385,
      "ap": 386,
      "qu": 387,
      "Ġex": 388,
      "ong": 389,
      "ab": 390,
      "Ġch": 391,
      "Ġor": 392,
      "ĠK": 393,
      "gh": 394,
      "ear": 395,
      "ess": 396,
      "ated": 397,
      "Ġpl": 398,
      "Ġsh": 399,
      "ity": 400,
      "ip": 401,
      "ive": 402,
      "ame": 403,
      "ĠU": 404,
      "Ġâ": 405,
      "Ġhad": 406,
      "ect": 407,
      "ack": 408,
      "ĠSt": 409,
      "ĠâĢ": 410,
      "Ġsu": 411,
      "ast": 412,
      "se": 413,
      "red": 414,
      "Ġk": 415,
      "ge": 416,
      "Ġwhich": 417,
      "our": 418,
      "ment": 419,
      "Ġle": 420,
      "und": 421,
      "Ġare": 422,
      "ian": 423,
      "ov": 424,
      "ial": 425,
      "Ġnot": 426,
      "ell": 427,
      "Ġsp": 428,
      "ost": 429,
      "Ġy": 430,
      "ight": 431,
      "ia": 432,
      "ord": 433,
      "ust": 434,
      "ary": 435,
      "ine": 436,
      "ther": 437,
      "pt": 438,
      "rit": 439,
      "Ġ3": 440,
      "oun": 441,
      "pp": 442,
      "ical": 443,
      "ĠCh": 444,
      "ave": 445,
      "Ġun": 446,
      "Ġ200": 447,
      "cc": 448,
      "Ġinc": 449,
      "fter": 450,
      "ould": 451,
      "ĠV": 452,
      "Ġbut": 453,
      "irst": 454,
      "ish": 455,
      "ous": 456,
      "te": 457,
      "ff": 458,
      "ions": 459,
      "so": 460,
      "Ġcomp": 461,
      "Ġ20": 462,
      "ide": 463,
      "Ġro": 464,
      "ure": 465,
      "Ġwhe": 466,
      "Ġar": 467,
      "ub": 468,
      "Ġcont": 469,
      "ie": 470,
      "Ġ;": 471,
      "og": 472,
      "ign": 473,
      "Ġfirst": 474,
      "Ġcl": 475,
      "wo": 476,
      "Ġher": 477,
      "ry": 478,
      "ue": 479,
      "Ġits": 480,
      "ass": 481,
      "Ġtheir": 482,
      "orm": 483,
      "ĠâĢĵ": 484,
      "ok": 485,
      "ork": 486,
      "Ġint": 487,
      "Ġres": 488,
      "ĠHe": 489,
      "Ġ:": 490,
      "ater": 491,
      "Ġalso": 492,
      "Ġab": 493,
      "ond": 494,
      "Ġad": 495,
      "ome": 496,
      "out": 497,
      "ran": 498,
      "mer": 499,
      "ire": 500,
      "hed": 501,
      "ru": 502,
      "Ġus": 503,
      "age": 504,
      "du": 505,
      "Ġ4": 506,
      "ime": 507,
      "low": 508,
      "Ġper": 509,
      "per": 510,
      "Ġwho": 511,
      "Ġ5": 512,
      "ĠTh": 513,
      "Ġone": 514,
      "Ġhave": 515,
      "Ġsc": 516,
      "pl": 517,
      "ally": 518,
      "own": 519,
      "ile": 520,
      "Ġrec": 521,
      "ted": 522,
      "Ġ18": 523,
      ".@": 524,
      "Ġ@.@": 525,
      "Ġtwo": 526,
      "ition": 527,
      "ugh": 528,
      "iz": 529,
      "ree": 530,
      "ence": 531,
      "uring": 532,
      "ts": 533,
      "port": 534,
      "Ġbeen": 535,
      "Ġpart": 536,
      "Ġbec": 537,
      "ice": 538,
      "Ġhas": 539,
      "Ġag": 540,
      "ĠAl": 541,
      "Ġapp": 542,
      "Ġ201": 543,
      ",@": 544,
      "Ġ@,@": 545,
      "ough": 546,
      "Ġj": 547,
      "Ġen": 548,
      "Ġdis": 549,
      "lud": 550,
      "ke": 551,
      "Ġover": 552,
      "Ġser": 553,
      "Ġthis": 554,
      "ory": 555,
      "ely": 556,
      "Ġyear": 557,
      "ations": 558,
      "ember": 559,
      "ren": 560,
      "ction": 561,
      "ound": 562,
      "ach": 563,
      "Ġoff": 564,
      "Ġafter": 565,
      "ric": 566,
      "Ġup": 567,
      "land": 568,
      "Ġdes": 569,
      "ace": 570,
      "Ġplay": 571,
      "ĠIt": 572,
      "ark": 573,
      "over": 574,
      "ance": 575,
      "Ġout": 576,
      "Ġthey": 577,
      "Ġman": 578,
      "ade": 579,
      "Ġte": 580,
      "act": 581,
      "Ġother": 582,
      "ib": 583,
      "man": 584,
      "ult": 585,
      "Ġim": 586,
      "ĠY": 587,
      "ph": 588,
      "ress": 589,
      "Ġinclud": 590,
      "ced": 591,
      "ens": 592,
      "urn": 593,
      "wn": 594,
      "Ġwould": 595,
      "ind": 596,
      "Ġtime": 597,
      "one": 598,
      "Ġinto": 599,
      "Ġpre": 600,
      "vel": 601,
      "ĠOn": 602,
      "ĠUn": 603,
      "ward": 604,
      "we": 605,
      "Ġwe": 606,
      "Ġhim": 607,
      "ite": 608,
      "oin": 609,
      "ates": 610,
      "Ġ6": 611,
      "Ġshe": 612,
      "les": 613,
      "Ġev": 614,
      "Ġatt": 615,
      "ilm": 616,
      "ased": 617,
      "Ġne": 618,
      "ited": 619,
      "able": 620,
      "end": 621,
      "ied": 622,
      "ase": 623,
      "amp": 624,
      "Ġcomm": 625,
      "ors": 626,
      "Ġinter": 627,
      "are": 628,
      "rough": 629,
      "oy": 630,
      "ons": 631,
      "ount": 632,
      "ep": 633,
      "form": 634,
      "Ġall": 635,
      "ose": 636,
      "ood": 637,
      "ang": 638,
      "Ġmore": 639,
      "ces": 640,
      "Ġwork": 641,
      "Ġ7": 642,
      "ail": 643,
      "old": 644,
      "aw": 645,
      "ered": 646,
      "ings": 647,
      "ve": 648,
      "ĠAn": 649,
      "ild": 650,
      "Ġnew": 651,
      "Ġsec": 652,
      "Ġbet": 653,
      "Ġwhen": 654,
      "inal": 655,
      "Ġfe": 656,
      "Ġfilm": 657,
      "ick": 658,
      "vi": 659,
      "ents": 660,
      "ĠSe": 661,
      "att": 662,
      "way": 663,
      "ft": 664,
      "iss": 665,
      "aus": 666,
      "Ġ8": 667,
      "fer": 668,
      "gan": 669,
      "ĠMar": 670,
      "reat": 671,
      "Ġcons": 672,
      "rib": 673,
      "ĠAr": 674,
      "round": 675,
      "ake": 676,
      "Ġrem": 677,
      "ved": 678,
      "Ġtr": 679,
      "Ġdec": 680,
      "ason": 681,
      "ans": 682,
      "Ġduring": 683,
      "orth": 684,
      "Ġund": 685,
      "Ġ9": 686,
      "ubl": 687,
      "hip": 688,
      "Ġagain": 689,
      "ĠAs": 690,
      "Ġmost": 691,
      "Ġgame": 692,
      "oth": 693,
      "Ġthem": 694,
      "Ġ199": 695,
      "Ġonly": 696,
      "Ġpr": 697,
      "ween": 698,
      "ath": 699,
      "ix": 700,
      "Ġear": 701,
      "ollow": 702,
      "Ġthan": 703,
      "ob": 704,
      "rop": 705,
      "Ġsup": 706,
      "ational": 707,
      "ĠNew": 708,
      "fore": 709,
      "Ġabout": 710,
      "Ġprodu": 711,
      "ug": 712,
      "Ġcent": 713,
      "tern": 714,
      "Ġkn": 715,
      "Ġret": 716,
      "ey": 717,
      "Ġchar": 718,
      "Ġsong": 719,
      "Ġcan": 720,
      "outh": 721,
      "Ġbetween": 722,
      "Ġlater": 723,
      "orn": 724,
      "Ġrele": 725,
      "Ġunder": 726,
      "ict": 727,
      "Ġthree": 728,
      "ton": 729,
      "hn": 730,
      "ron": 731,
      "Ġcol": 732,
      "Ġact": 733,
      "Ġ00": 734,
      "als": 735,
      "Ġqu": 736,
      "Ġthrough": 737,
      "ĠEn": 738,
      "orld": 739,
      "ook": 740,
      "Ġnum": 741,
      "Ġso": 742,
      "Ġme": 743,
      "Ġacc": 744,
      "Ġrel": 745,
      "Ġwhile": 746,
      "Ġra": 747,
      "Ġend": 748,
      "meric": 749,
      "ĠAmeric": 750,
      "lect": 751,
      "Ġfl": 752,
      "ĠLe": 753,
      "ters": 754,
      "ock": 755,
      "ral": 756,
      "Ġpos": 757,
      "Ġsub": 758,
      "ever": 759,
      "Ġass": 760,
      "ular": 761,
      "ating": 762,
      "Ġwhere": 763,
      "Ġver": 764,
      "Ġday": 765,
      "ck": 766,
      "Ġreg": 767,
      "Ġsecond": 768,
      "ĠCom": 769,
      "aid": 770,
      "ener": 771,
      "Ġbu": 772,
      "ision": 773,
      "Ġmade": 774,
      "ames": 775,
      "ived": 776,
      "ĠRe": 777,
      "Ġpe": 778,
      "hes": 779,
      "Ġrecord": 780,
      "son": 781,
      "Ġdef": 782,
      "bum": 783,
      "Ġfour": 784,
      "Ġgro": 785,
      "Ġfollow": 786,
      "Ġseason": 787,
      "Ġ000": 788,
      "Ġep": 789,
      "Ġform": 790,
      "Ġsome": 791,
      "Ġsuch": 792,
      "Ġam": 793,
      "ool": 794,
      "ished": 795,
      "Ġmov": 796,
      "Ġbefore": 797,
      "Ġtra": 798,
      "ĠSp": 799,
      "Ġmus": 800,
      "Ġthere": 801,
      "Ġwrit": 802,
      "hen": 803,
      "ics": 804,
      "io": 805,
      "ĠJo": 806,
      "Ġspec": 807,
      "iel": 808,
      "Ġ10": 809,
      "ike": 810,
      "Ġsy": 811,
      "Ġyears": 812,
      "Ġteam": 813,
      "ĠAt": 814,
      "ode": 815,
      "ual": 816,
      "ĠThis": 817,
      "Ġ/": 818,
      "ident": 819,
      "Ġlar": 820,
      "ĠSh": 821,
      "Ġalbum": 822,
      "Ġind": 823,
      "ros": 824,
      "ily": 825,
      "owever": 826,
      "Ġent": 827,
      "ning": 828,
      "Ġused": 829,
      "ank": 830,
      "Ġcall": 831,
      "Ġsur": 832,
      "ific": 833,
      "Ġac": 834,
      "Ġhigh": 835,
      "ury": 836,
      "Ġpubl": 837,
      "Ġbeing": 838,
      "Ġepis": 839,
      "ained": 840,
      "Ġthen": 841,
      "led": 842,
      "ten": 843,
      "aj": 844,
      "velop": 845,
      "Ġloc": 846,
      "Ġdo": 847,
      "Ġexp": 848,
      "ife": 849,
      "ris": 850,
      "Ġagainst": 851,
      "Ġ17": 852,
      "Ġinv": 853,
      "Ġ0": 854,
      "Ġbl": 855,
      "Ġpres": 856,
      "Ġnumber": 857,
      "other": 858,
      "ĠAfter": 859,
      "Ġshow": 860,
      "Ġcharac": 861,
      "ious": 862,
      "Ġsever": 863,
      "Ġadd": 864,
      "Ġco": 865,
      "ek": 866,
      "Ġset": 867,
      "ince": 868,
      "ject": 869,
      "ĠBrit": 870,
      "ars": 871,
      "Ġbecame": 872,
      "Ġrece": 873,
      "ause": 874,
      "Ġperform": 875,
      "Ġlead": 876,
      "Ġincluding": 877,
      "ines": 878,
      "Ġno": 879,
      "ĠâĢĶ": 880,
      "Ġsing": 881,
      "ather": 882,
      "ins": 883,
      "rans": 884,
      "ĠUnited": 885,
      "Ġfound": 886,
      "air": 887,
      "Ġwell": 888,
      "Ġmon": 889,
      "Ġrep": 890,
      "ĠSc": 891,
      "ale": 892,
      "Ġpol": 893,
      "Ġback": 894,
      "Ġboth": 895,
      "Ġcap": 896,
      "ier": 897,
      "Ġ198": 898,
      "Ġ15": 899,
      "Ġseries": 900,
      "Ġ12": 901,
      "ober": 902,
      "ram": 903,
      "ik": 904,
      "Ġship": 905,
      "ĠCon": 906,
      "ower": 907,
      "ement": 908,
      "its": 909,
      "ert": 910,
      "ures": 911,
      "ired": 912,
      "ley": 913,
      "ĠWh": 914,
      "ĠShe": 915,
      "ivers": 916,
      "Ġmain": 917,
      "Ġ194": 918,
      "pen": 919,
      "Ġmin": 920,
      "iet": 921,
      "der": 922,
      "overn": 923,
      "Ġdid": 924,
      "ven": 925,
      "olog": 926,
      "Ġgo": 927,
      "elf": 928,
      "Ġcre": 929,
      "Ġimp": 930,
      "Ġdevelop": 931,
      "az": 932,
      "Ġmet": 933,
      "ities": 934,
      "iver": 935,
      "ĠEng": 936,
      "Ġlong": 937,
      "any": 938,
      "ll": 939,
      "ised": 940,
      "erm": 941,
      "ting": 942,
      "uch": 943,
      "ared": 944,
      "Ġem": 945,
      "ann": 946,
      "ane": 947,
      "Ġmill": 948,
      "ird": 949,
      "ful": 950,
      "ĠJohn": 951,
      "Ġmat": 952,
      "Ġair": 953,
      "Ġepisode": 954,
      "tend": 955,
      "irect": 956,
      "Ġsaid": 957,
      "Ġstud": 958,
      "Ġmany": 959,
      "ute": 960,
      "Ġbro": 961,
      "Ġdep": 962,
      "Ġcar": 963,
      "ative": 964,
      "ash": 965,
      "Ġcould": 966,
      "Ġ16": 967,
      "Ġwar": 968,
      "Ġorig": 969,
      "Ġcontin": 970,
      "ĠCl": 971,
      "Ġseveral": 972,
      "ĠAmerican": 973,
      "though": 974,
      "ĠInd": 975,
      "Ġdif": 976,
      "ield": 977,
      "ah": 978,
      "Ġpop": 979,
      "Ġinst": 980,
      "ouse": 981,
      "ise": 982,
      "emb": 983,
      "Ġknown": 984,
      "Ġ197": 985,
      "ĠAust": 986,
      "ty": 987,
      "ually": 988,
      "Ġ196": 989,
      "Ġ11": 990,
      "Ġconc": 991,
      "til": 992,
      "iam": 993,
      "ĠWar": 994,
      "view": 995,
      "erson": 996,
      "Ġob": 997,
      "ĠGer": 998,
      "ued": 999,
      "Ġsm": 1000,
      "Ġreturn": 1001,
      "Ġbegan": 1002,
      "ĠZ": 1003,
      "Ġany": 1004,
      "Ġcomple": 1005,
      "Ġdesign": 1006,
      "ern": 1007,
      "ĠDe": 1008,
      "Ġdesc": 1009,
      "Ġsign": 1010,
      "ross": 1011,
      "ople": 1012,
      "chool": 1013,
      "my": 1014,
      "Ġest": 1015,
      "ism": 1016,
      "oot": 1017,
      "Ġtrans": 1018,
      "ccess": 1019,
      "Ġprov": 1020,
      "aking": 1021,
      "Ġfeat": 1022,
      "ĠBl": 1023,
      "ided": 1024,
      "Ġinf": 1025,
      "anc": 1026,
      "Ġrun": 1027,
      "Ġearly": 1028,
      "Ġart": 1029,
      "ized": 1030,
      "Ġdist": 1031,
      "Ġnear": 1032,
      "Ġmusic": 1033,
      "Ġown": 1034,
      "Ġreleased": 1035,
      "Ġuntil": 1036,
      "Ġcalled": 1037,
      "ĠCol": 1038,
      "Ġeff": 1039,
      "ĠUS": 1040,
      "imes": 1041,
      "ists": 1042,
      "rid": 1043,
      "une": 1044,
      "Ġresp": 1045,
      "Ġbel": 1046,
      "enn": 1047,
      "Ġpass": 1048,
      "ured": 1049,
      "stem": 1050,
      "Ġfin": 1051,
      "ĠMay": 1052,
      "ially": 1053,
      "Ġdown": 1054,
      "Ġph": 1055,
      "ution": 1056,
      "Ġdisc": 1057,
      "ments": 1058,
      "Ġcrit": 1059,
      "xt": 1060,
      "osed": 1061,
      "Ġdirect": 1062,
      "Ġgener": 1063,
      "Ġalong": 1064,
      "Ġins": 1065,
      "ium": 1066,
      "Ġmillion": 1067,
      "ĠBritish": 1068,
      "ger": 1069,
      "ull": 1070,
      "ax": 1071,
      "ĠGerman": 1072,
      "Ġgroup": 1073,
      "Ġoffic": 1074,
      "vent": 1075,
      "Ġ13": 1076,
      "Ġfam": 1077,
      "eb": 1078,
      "Ġthese": 1079,
      "ajor": 1080,
      "Ġmod": 1081,
      "Ġmay": 1082,
      "Ġ$": 1083,
      "cept": 1084,
      "Ġopen": 1085,
      "ĠAd": 1086,
      "Ġmil": 1087,
      "ange": 1088,
      "ĠBe": 1089,
      "Ġpoin": 1090,
      "uc": 1091,
      "Ġland": 1092,
      "gg": 1093,
      "Ġhist": 1094,
      "ĠAug": 1095,
      "Ġgovern": 1096,
      "Ġsim": 1097,
      "ĠSept": 1098,
      "Ã©": 1099,
      "Ġsuccess": 1100,
      "ĠSeptember": 1101,
      "ĠAugust": 1102,
      "ets": 1103,
      "Ġoper": 1104,
      "ĠWorld": 1105,
      "erv": 1106,
      "Ġattack": 1107,
      "Ġgu": 1108,
      "ible": 1109,
      "ĠAp": 1110,
      "ĠStates": 1111,
      "ink": 1112,
      "Ġcount": 1113,
      "Ġuse": 1114,
      "Ġsame": 1115,
      "wards": 1116,
      "ys": 1117,
      "Ġdescrib": 1118,
      "Ġpeople": 1119,
      "aced": 1120,
      "ĠFor": 1121,
      "ĠIs": 1122,
      "amed": 1123,
      "yp": 1124,
      "Ġcharacter": 1125,
      "ĠAll": 1126,
      "Ġbecause": 1127,
      "els": 1128,
      "Ġ14": 1129,
      "Ġvi": 1130,
      "Ġlike": 1131,
      "Ġserv": 1132,
      "ĠJu": 1133,
      "ĠFran": 1134,
      "Ġaround": 1135,
      "ged": 1136,
      "Ġstart": 1137,
      "Ġthough": 1138,
      "Ġed": 1139,
      "Ġkm": 1140,
      "ĠPl": 1141,
      "Ġ195": 1142,
      "ĠQ": 1143,
      "ner": 1144,
      "Ġwin": 1145,
      "ĠAustral": 1146,
      "Ġconst": 1147,
      "ues": 1148,
      "ring": 1149,
      "Ġtook": 1150,
      "ruct": 1151,
      "Ġocc": 1152,
      "Ġbatt": 1153,
      "aving": 1154,
      "ĠOct": 1155,
      "Ġann": 1156,
      "Ġsupport": 1157,
      "ĠNov": 1158,
      "ove": 1159,
      "Ġnorth": 1160,
      "Ġfollowing": 1161,
      "Ġsix": 1162,
      "Ġele": 1163,
      "ĠCar": 1164,
      "Ġ193": 1165,
      "ĠHowever": 1166,
      "Ġsystem": 1167,
      "uss": 1168,
      "Ġappear": 1169,
      "Ġfinal": 1170,
      "Ġclass": 1171,
      "Ġreceived": 1172,
      "Ġhead": 1173,
      "ined": 1174,
      "ĠOctober": 1175,
      "ives": 1176,
      "Ġprom": 1177,
      "Ġconsid": 1178,
      "ene": 1179,
      "ants": 1180,
      "rad": 1181,
      "ling": 1182,
      "ility": 1183,
      "ically": 1184,
      "ĠDec": 1185,
      "ĠPro": 1186,
      "Ġ191": 1187,
      "Ġstate": 1188,
      "Ġever": 1189,
      "Ġbuild": 1190,
      "Ġeach": 1191,
      "ret": 1192,
      "anu": 1193,
      "Ġext": 1194,
      "Ġfive": 1195,
      "rist": 1196,
      "Ġaut": 1197,
      "rol": 1198,
      "Ġcentury": 1199,
      "ĠYork": 1200,
      "ina": 1201,
      "Ġbo": 1202,
      "Ġarea": 1203,
      "Ġvar": 1204,
      "ĠThey": 1205,
      "Ġsmall": 1206,
      "ately": 1207,
      "Ġwill": 1208,
      "oss": 1209,
      "ĠNorth": 1210,
      "Ġpartic": 1211,
      "get": 1212,
      "Ġlife": 1213,
      "iving": 1214,
      "Ġreport": 1215,
      "ril": 1216,
      "ĠMe": 1217,
      "Ġ]": 1218,
      "Ġ[": 1219,
      "tle": 1220,
      "ored": 1221,
      "ians": 1222,
      "ĠJune": 1223,
      "ĠBy": 1224,
      "Ġcity": 1225,
      "ording": 1226,
      "ped": 1227,
      "gin": 1228,
      "Ġmar": 1229,
      "Ġmajor": 1230,
      "Ġpublic": 1231,
      "Ġweek": 1232,
      "ĠKing": 1233,
      "ission": 1234,
      "ĠJuly": 1235,
      "Ġ%": 1236,
      "Ġconf": 1237,
      "ection": 1238,
      "Ġband": 1239,
      "ĠHar": 1240,
      "Ġref": 1241,
      "med": 1242,
      "ĠNovember": 1243,
      "urch": 1244,
      "inc": 1245,
      "ĠComm": 1246,
      "Ġrest": 1247,
      "ĠPh": 1248,
      "ĠWill": 1249,
      "Ġsince": 1250,
      "Ġworld": 1251,
      "Ġmed": 1252,
      "esp": 1253,
      "raft": 1254,
      "Ġsingle": 1255,
      "raph": 1256,
      "por": 1257,
      "ĠApril": 1258,
      "ble": 1259,
      "ains": 1260,
      "ĠMc": 1261,
      "ried": 1262,
      "Ġdet": 1263,
      "omet": 1264,
      "lish": 1265,
      "ĠMarch": 1266,
      "Ġjust": 1267,
      "ected": 1268,
      "Ġlast": 1269,
      "ĠEd": 1270,
      "ural": 1271,
      "ional": 1272,
      "hest": 1273,
      "aim": 1274,
      "cl": 1275,
      "Ġturn": 1276,
      "ively": 1277,
      "Ġpo": 1278,
      "ilt": 1279,
      "Ġhel": 1280,
      "ient": 1281,
      "Ġallow": 1282,
      "Ġ30": 1283,
      "ĠCan": 1284,
      "vious": 1285,
      "ĠGe": 1286,
      "Ġleft": 1287,
      "Ġlarge": 1288,
      "ats": 1289,
      "Ġline": 1290,
      "ĠSouth": 1291,
      "Ġdiffer": 1292,
      "ales": 1293,
      "Ġcare": 1294,
      "Ġsouth": 1295,
      "Ġadv": 1296,
      "ified": 1297,
      "ĠDuring": 1298,
      "Ġstr": 1299,
      "Ġdr": 1300,
      "empt": 1301,
      "Ġbook": 1302,
      "Ġvers": 1303,
      "Ġsl": 1304,
      "Ġschool": 1305,
      "avy": 1306,
      "ĠDecember": 1307,
      "Ġthird": 1308,
      "ague": 1309,
      "Ġincre": 1310,
      "Ġ25": 1311,
      "Ġmonth": 1312,
      "Ġdue": 1313,
      "Ġappro": 1314,
      "Ġplayed": 1315,
      "..": 1316,
      "Ġmuch": 1317,
      "Ġevent": 1318,
      "row": 1319,
      "Ġif": 1320,
      "Ġanother": 1321,
      "ĠJanu": 1322,
      "rote": 1323,
      "ĠJanuary": 1324,
      "ĠPr": 1325,
      "Ġincluded": 1326,
      "Ġ192": 1327,
      "Ġwhat": 1328,
      "Ġplace": 1329,
      "Ġbased": 1330,
      "ne": 1331,
      "Ġshort": 1332,
      "ĠII": 1333,
      "Ġgovernment": 1334,
      "ony": 1335,
      "ball": 1336,
      "apan": 1337,
      "Ġexpl": 1338,
      "Ġperson": 1339,
      "Ġwrote": 1340,
      "Ġtrack": 1341,
      "ĠWhen": 1342,
      "Ġcamp": 1343,
      "Ġtit": 1344,
      "Ġold": 1345,
      "alf": 1346,
      "Ġport": 1347,
      "Ġbre": 1348,
      "ĠEu": 1349,
      "Ġdeath": 1350,
      "Ġname": 1351,
      "ently": 1352,
      "ĠJapan": 1353,
      "Ġelect": 1354,
      "ple": 1355,
      "rent": 1356,
      "Ġ...": 1357,
      "Ġeng": 1358,
      "Ġwon": 1359,
      "by": 1360,
      "ience": 1361,
      "ĠOr": 1362,
      "Ġprot": 1363,
      "Ġchild": 1364,
      "Ġlit": 1365,
      "oad": 1366,
      "Ġkill": 1367,
      "Ġprog": 1368,
      "ideo": 1369,
      "Ġpower": 1370,
      "ages": 1371,
      "Ġstory": 1372,
      "ĠTe": 1373,
      "ĠBro": 1374,
      "Ġreview": 1375,
      "ital": 1376,
      "ody": 1377,
      "Ġvis": 1378,
      "Ġhome": 1379,
      "ott": 1380,
      "Ġled": 1381,
      "ps": 1382,
      "Ġgun": 1383,
      "Ġrequ": 1384,
      "Ġdescribed": 1385,
      "Ġprevious": 1386,
      "eng": 1387,
      "oman": 1388,
      "Ġfamily": 1389,
      "yl": 1390,
      "rand": 1391,
      "tain": 1392,
      "Ġway": 1393,
      "Ġnamed": 1394,
      "Ġnow": 1395,
      "Ġright": 1396,
      "ĠMus": 1397,
      "Ġdem": 1398,
      "urther": 1399,
      "iod": 1400,
      "iven": 1401,
      "Ġmen": 1402,
      "Ġeven": 1403,
      "embers": 1404,
      "ilar": 1405,
      "ĠGu": 1406,
      "Ġorgan": 1407,
      "Ġmake": 1408,
      "reen": 1409,
      "ont": 1410,
      "ister": 1411,
      "cy": 1412,
      "iversity": 1413,
      "Ġattempt": 1414,
      "omin": 1415,
      "ivision": 1416,
      "itions": 1417,
      "Ġbest": 1418,
      "Ġcour": 1419,
      "Ġ100": 1420,
      "Ġrepl": 1421,
      "rench": 1422,
      "ĠÂ": 1423,
      "Ġopp": 1424,
      "Ġleg": 1425,
      "ior": 1426,
      "Ġgames": 1427,
      "ached": 1428,
      "Ġcommand": 1429,
      "Ġterm": 1430,
      "Ġhand": 1431,
      "ĠAnd": 1432,
      "ival": 1433,
      "ĠFl": 1434,
      "mp": 1435,
      "Ġposs": 1436,
      "Ġdam": 1437,
      "Ġbelie": 1438,
      "Ġvery": 1439,
      "ox": 1440,
      "ĠHis": 1441,
      "Ġthose": 1442,
      "ĠFeb": 1443,
      "ĠEurop": 1444,
      "Ġpar": 1445,
      "ĠFebru": 1446,
      "ĠFebruary": 1447,
      "sh": 1448,
      "Ġiss": 1449,
      "Ġstill": 1450,
      "Ġnext": 1451,
      "Ġtop": 1452,
      "Ġspecies": 1453,
      "ĠChrist": 1454,
      "Ġeffect": 1455,
      "ched": 1456,
      "riend": 1457,
      "Ġview": 1458,
      "ĠThere": 1459,
      "ĠNational": 1460,
      "oci": 1461,
      "aken": 1462,
      "Ġoriginal": 1463,
      "Ġspe": 1464,
      "ĠWe": 1465,
      "ences": 1466,
      "ature": 1467,
      "lu": 1468,
      "Ġwater": 1469,
      "ness": 1470,
      "Ġjoin": 1471,
      "Ġaddition": 1472,
      "ĠEurope": 1473,
      "au": 1474,
      "Ġlist": 1475,
      "ĠBar": 1476,
      "Ġwithin": 1477,
      "Ġperiod": 1478,
      "eter": 1479,
      "alk": 1480,
      "Ġmembers": 1481,
      "Ġbuilt": 1482,
      "ĠFrench": 1483,
      "Ġmark": 1484,
      "Ġheld": 1485,
      "Ġdeb": 1486,
      "ĠAm": 1487,
      "Ġexper": 1488,
      "hor": 1489,
      "Ġ2010": 1490,
      "af": 1491,
      "Ġalthough": 1492,
      "Ġmatch": 1493,
      "Ġlate": 1494,
      "Ġformer": 1495,
      "Ġrelease": 1496,
      "ĠPar": 1497,
      "rew": 1498,
      "Ġgreat": 1499,
      "ridge": 1500,
      "augh": 1501,
      "Ġdest": 1502,
      "Ġsold": 1503,
      "Ġcur": 1504,
      "ney": 1505,
      "uted": 1506,
      "tended": 1507,
      "Ġvideo": 1508,
      "Ġ21": 1509,
      "ards": 1510,
      "Ġcaus": 1511,
      "Ġstorm": 1512,
      "ropical": 1513,
      "ĠWest": 1514,
      "line": 1515,
      "ves": 1516,
      "Ġcover": 1517,
      "ech": 1518,
      "Ġtri": 1519,
      "Ġinit": 1520,
      "Ġrole": 1521,
      "ĠX": 1522,
      "ĠWilliam": 1523,
      "self": 1524,
      "Ġcame": 1525,
      "Ġestab": 1526,
      "Ġdays": 1527,
      "hel": 1528,
      "ances": 1529,
      "ĠHer": 1530,
      "Ġresult": 1531,
      "Ġmid": 1532,
      "oon": 1533,
      "Ġpresent": 1534,
      "na": 1535,
      "lev": 1536,
      "aged": 1537,
      "Ġcontrol": 1538,
      "ulation": 1539,
      "ption": 1540,
      "Ġpolit": 1541,
      "Ġstand": 1542,
      "Ġreal": 1543,
      "Ġhowever": 1544,
      "itary": 1545,
      "ham": 1546,
      "ĠMan": 1547,
      "ĠMin": 1548,
      "aster": 1549,
      "Ġ2008": 1550,
      "Ġprop": 1551,
      "let": 1552,
      "Ġwind": 1553,
      "ense": 1554,
      "ides": 1555,
      "Ġfew": 1556,
      "atic": 1557,
      "Ġ2009": 1558,
      "Ġ24": 1559,
      "Ġtown": 1560,
      "ĠGeor": 1561,
      "omb": 1562,
      "Ġside": 1563,
      "Ġyou": 1564,
      "ograph": 1565,
      "Ġtw": 1566,
      "Ġsk": 1567,
      "Ġcontinued": 1568,
      "Ġpost": 1569,
      "Ġequ": 1570,
      "Ġoften": 1571,
      "ays": 1572,
      "ĠEar": 1573,
      "Ġlocal": 1574,
      "Ġ2011": 1575,
      "elt": 1576,
      "ĠChar": 1577,
      "ator": 1578,
      "ĠAir": 1579,
      "Ġamong": 1580,
      "ruction": 1581,
      "Ġsimilar": 1582,
      "ches": 1583,
      "ĠMich": 1584,
      "ead": 1585,
      "ract": 1586,
      "ĠNo": 1587,
      "Ġhum": 1588,
      "Ġav": 1589,
      "Ġclaim": 1590,
      "estern": 1591,
      "ung": 1592,
      "omen": 1593,
      "ese": 1594,
      "ĠEngland": 1595,
      "reet": 1596,
      "Ġ&": 1597,
      "read": 1598,
      "ops": 1599,
      "akes": 1600,
      "ler": 1601,
      "ology": 1602,
      "side": 1603,
      "Ġdifferent": 1604,
      "Ġdel": 1605,
      "Ġbeh": 1606,
      "Ġmy": 1607,
      "ĠRec": 1608,
      "par": 1609,
      "Ġfurther": 1610,
      "Ġ22": 1611,
      "Ġsent": 1612,
      "Ġtyp": 1613,
      "esc": 1614,
      "ots": 1615,
      "ested": 1616,
      "urs": 1617,
      "Ġlevel": 1618,
      "Ġfre": 1619,
      "ĠDav": 1620,
      "ery": 1621,
      "Ġconsidered": 1622,
      "Ġtake": 1623,
      "Ġlaw": 1624,
      "tal": 1625,
      "ĠEl": 1626,
      "Ġ2007": 1627,
      "Ġcareer": 1628,
      "gy": 1629,
      "ĠOne": 1630,
      "Ġproduction": 1631,
      "me": 1632,
      "Ġhalf": 1633,
      "arm": 1634,
      "ĠPark": 1635,
      "ĠCo": 1636,
      "ices": 1637,
      "ampions": 1638,
      "ĠCity": 1639,
      "Ġhaving": 1640,
      "Ġant": 1641,
      "bo": 1642,
      "ĠAcc": 1643,
      "ĠEnglish": 1644,
      "Ġeast": 1645,
      "Ġroad": 1646,
      "Ġmag": 1647,
      "Ġmoved": 1648,
      "Ġdra": 1649,
      "Ġwest": 1650,
      "ering": 1651,
      "Ġevery": 1652,
      "Ġwithout": 1653,
      "ĠAlthough": 1654,
      "Ġcr": 1655,
      "rodu": 1656,
      "ĠCent": 1657,
      "Ġposition": 1658,
      "Ġ2012": 1659,
      "Ġappe": 1660,
      "Ġplan": 1661,
      "Ġtro": 1662,
      "ining": 1663,
      "Ġplayer": 1664,
      "ront": 1665,
      "Ġarr": 1666,
      "ĠAng": 1667,
      "Ġhistory": 1668,
      "Ġcor": 1669,
      "Ġbecome": 1670,
      "ones": 1671,
      "vers": 1672,
      "ĠCal": 1673,
      "Ġversion": 1674,
      "Ġarm": 1675,
      "ĠCount": 1676,
      "ford": 1677,
      "ondon": 1678,
      "Ġcast": 1679,
      "Ġel": 1680,
      "Ġinflu": 1681,
      "Ġ23": 1682,
      "ize": 1683,
      "ĠLondon": 1684,
      "ĠBatt": 1685,
      "yle": 1686,
      "Ġhouse": 1687,
      "rig": 1688,
      "Ġfore": 1689,
      "Ġcommun": 1690,
      "Ġsound": 1691,
      "resent": 1692,
      "irc": 1693,
      "app": 1694,
      "roy": 1695,
      "aul": 1696,
      "atter": 1697,
      "Ġinvol": 1698,
      "Ġstrong": 1699,
      "Ġgr": 1700,
      "Ġsugg": 1701,
      "ai": 1702,
      "Ġclub": 1703,
      "Ġwritten": 1704,
      "Ġ190": 1705,
      "aining": 1706,
      "Ġbas": 1707,
      "ĠWith": 1708,
      "Ġstat": 1709,
      "rest": 1710,
      "oung": 1711,
      "Ġless": 1712,
      "Ġannoun": 1713,
      "ĠRiver": 1714,
      "utes": 1715,
      "Ġfoot": 1716,
      "iqu": 1717,
      "Ġorder": 1718,
      "ald": 1719,
      "iment": 1720,
      "Ġrefer": 1721,
      "iety": 1722,
      "Ġtem": 1723,
      "ges": 1724,
      "craft": 1725,
      "ae": 1726,
      "Ġprof": 1727,
      "ĠCanad": 1728,
      "sequ": 1729,
      "Ġaff": 1730,
      "Ġpoint": 1731,
      "Ġgiven": 1732,
      "Ġrad": 1733,
      "Ġlow": 1734,
      "ĠGener": 1735,
      "Ġtrad": 1736,
      "Ġhig": 1737,
      "ĠUniversity": 1738,
      "Ġwant": 1739,
      "ille": 1740,
      "Ġgave": 1741,
      "Ġke": 1742,
      "Ġpat": 1743,
      "isc": 1744,
      "uck": 1745,
      "Ġdefe": 1746,
      "Ġimport": 1747,
      "Ġnever": 1748,
      "aff": 1749,
      "ĠWhile": 1750,
      "ĠPol": 1751,
      "Ġchang": 1752,
      "Ġreturned": 1753,
      "ories": 1754,
      "ration": 1755,
      "Ġsoc": 1756,
      "Ġtotal": 1757,
      "Ġvict": 1758,
      "ĠAb": 1759,
      "ĠHigh": 1760,
      "Ġfact": 1761,
      "Ġfire": 1762,
      "Ġgood": 1763,
      "ention": 1764,
      "Ġcomb": 1765,
      "ĠTr": 1766,
      "Ġcompany": 1767,
      "Ġcountry": 1768,
      "Ġwent": 1769,
      "ailed": 1770,
      "ison": 1771,
      "sp": 1772,
      "cess": 1773,
      "ours": 1774,
      "Ġfriend": 1775,
      "Ġcapt": 1776,
      "rick": 1777,
      "ĠEx": 1778,
      "aun": 1779,
      "Ġpublished": 1780,
      "Ġproduced": 1781,
      "aying": 1782,
      "Ġfind": 1783,
      "levision": 1784,
      "Ġreported": 1785,
      "con": 1786,
      "Ġorigin": 1787,
      "Ġ2006": 1788,
      "ĠSm": 1789,
      "Ġlost": 1790,
      "aign": 1791,
      "Ġstated": 1792,
      "Ġcommon": 1793,
      "Ġprogram": 1794,
      "Ġlight": 1795,
      "ington": 1796,
      "Ġord": 1797,
      "yn": 1798,
      "Ġparticular": 1799,
      "ape": 1800,
      "echn": 1801,
      "Ġadm": 1802,
      "Ġinclude": 1803,
      "ests": 1804,
      "ĠAccording": 1805,
      "Ġlarg": 1806,
      "ably": 1807,
      "Ġer": 1808,
      "urric": 1809,
      "ĠSte": 1810,
      "used": 1811,
      "Ġcompet": 1812,
      "Ġforces": 1813,
      "Ġrecorded": 1814,
      "ief": 1815,
      "Ġbuilding": 1816,
      "Ġpress": 1817,
      "Ġneed": 1818,
      "Ġbus": 1819,
      "Ġproject": 1820,
      "Ġnort": 1821,
      "ĠNe": 1822,
      "hing": 1823,
      "ument": 1824,
      "Ġships": 1825,
      "Ġ27": 1826,
      "Ġshould": 1827,
      "Ġusing": 1828,
      "Ġeight": 1829,
      "Ġ50": 1830,
      "osp": 1831,
      "Ġ28": 1832,
      "Ġperformance": 1833,
      "iness": 1834,
      "ploy": 1835,
      "Ġservice": 1836,
      "ĠThese": 1837,
      "bs": 1838,
      "ĠSw": 1839,
      "Ġpopular": 1840,
      "Ġide": 1841,
      "Ġtimes": 1842,
      "Ġmaking": 1843,
      "Ġten": 1844,
      "Ġaircraft": 1845,
      "oyal": 1846,
      "Ġmilitary": 1847,
      "ĠAustralia": 1848,
      "Ġhimself": 1849,
      "Ġ2013": 1850,
      "atch": 1851,
      "Ġauthor": 1852,
      "Ġfun": 1853,
      "Ġfather": 1854,
      "Ġbattle": 1855,
      "ampionship": 1856,
      "ĠSec": 1857,
      "lear": 1858,
      "ned": 1859,
      "Ġanim": 1860,
      "ĠJack": 1861,
      "Ġsit": 1862,
      "Ġlim": 1863,
      "ĠAss": 1864,
      "ĠAf": 1865,
      "Ġsongs": 1866,
      "Ġsomet": 1867,
      "outher": 1868,
      "Ġread": 1869,
      "ensive": 1870,
      "ither": 1871,
      "Ġcritic": 1872,
      "ords": 1873,
      "Ġdevelopment": 1874,
      "ĠGeneral": 1875,
      "Ġsw": 1876,
      "Ġ40": 1877,
      "Ġhow": 1878,
      "alth": 1879,
      "Ġgl": 1880,
      "quad": 1881,
      "eder": 1882,
      "eth": 1883,
      "itive": 1884,
      "ĠState": 1885,
      "Ġ26": 1886,
      "Ġsol": 1887,
      "ases": 1888,
      "ĠCor": 1889,
      "oll": 1890,
      "Ġcross": 1891,
      "outhern": 1892,
      "amb": 1893,
      "ĠJames": 1894,
      "cer": 1895,
      "Ġ189": 1896,
      "Ġground": 1897,
      "Ġrepresent": 1898,
      "ĠSy": 1899,
      "Ġdestroy": 1900,
      "Ġft": 1901,
      "acy": 1902,
      "Ġstar": 1903,
      "Ġste": 1904,
      "Ġremained": 1905,
      "astern": 1906,
      "ĠArmy": 1907,
      "ks": 1908,
      "rie": 1909,
      "Ġnational": 1910,
      "Ġcharacters": 1911,
      "Ġget": 1912,
      "ries": 1913,
      "ĠPres": 1914,
      "Ġsuff": 1915,
      "work": 1916,
      "Ġmonths": 1917,
      "ĠBo": 1918,
      "ĠComp": 1919,
      "aur": 1920,
      "Ġgen": 1921,
      "Ġdied": 1922,
      "Ġter": 1923,
      "ublic": 1924,
      "ĠGl": 1925,
      "Ġdeveloped": 1926,
      "Ġtitle": 1927,
      "dom": 1928,
      "Ġsum": 1929,
      "Ġforce": 1930,
      "ream": 1931,
      "fic": 1932,
      "Ġchart": 1933,
      "Ġcampaign": 1934,
      "urricane": 1935,
      "ĠLeague": 1936,
      "Ġchildren": 1937,
      "lands": 1938,
      "Ġintrodu": 1939,
      "ency": 1940,
      "Ġpra": 1941,
      "Ġtour": 1942,
      "Ġpromot": 1943,
      "itted": 1944,
      "isted": 1945,
      "Ġsignific": 1946,
      "Ġacross": 1947,
      "ael": 1948,
      "ression": 1949,
      "Ġson": 1950,
      "Ġred": 1951,
      "hern": 1952,
      "Ġaway": 1953,
      "ĠDivision": 1954,
      "Ġobs": 1955,
      "Ġrelations": 1956,
      "Ġhistor": 1957,
      "Ġofficial": 1958,
      "Ġfield": 1959,
      "Ġfav": 1960,
      "Ġfelt": 1961,
      "ole": 1962,
      "ĠAmerica": 1963,
      "lege": 1964,
      "Ġnight": 1965,
      "Ġfac": 1966,
      "Ġnoted": 1967,
      "ĠSim": 1968,
      "alt": 1969,
      "Ġreached": 1970,
      "ĠRuss": 1971,
      "most": 1972,
      "Ġannounced": 1973,
      "ĠSup": 1974,
      "Ġintern": 1975,
      "ĠJapanese": 1976,
      "ĠCounty": 1977,
      "Ġareas": 1978,
      "Ġcreated": 1979,
      "ĠRep": 1980,
      "com": 1981,
      "Ġcoun": 1982,
      "ĠMon": 1983,
      "ĠRoad": 1984,
      "Ġtelevision": 1985,
      "Ġ2005": 1986,
      "ressed": 1987,
      "Ġsuccessful": 1988,
      "Ġstation": 1989,
      "ĠMad": 1990,
      "hem": 1991,
      "Ġrock": 1992,
      "ĠReg": 1993,
      "imately": 1994,
      "Ġbar": 1995,
      "Ġval": 1996,
      "ĠStreet": 1997,
      "ising": 1998,
      "ĠGr": 1999,
      "Ġvarious": 2000,
      "ĠâĢĻ": 2001,
      "Ġ29": 2002,
      "Ġpolitical": 2003,
      "Ġseen": 2004,
      "Ġfollowed": 2005,
      "field": 2006,
      "Ġaver": 2007,
      "Ġtoo": 2008,
      "iber": 2009,
      "ization": 2010,
      "iting": 2011,
      "Ġrank": 2012,
      "ĠEast": 2013,
      "cast": 2014,
      "Ġserved": 2015,
      "ett": 2016,
      "Ġperformed": 2017,
      "ope": 2018,
      "ĠRober": 2019,
      "Ġcult": 2020,
      "reg": 2021,
      "Ġplayers": 2022,
      "Ġ2014": 2023,
      "Ġcond": 2024,
      "Ġprim": 2025,
      "Ġrev": 2026,
      "Ġfull": 2027,
      "ination": 2028,
      "Ġdecl": 2029,
      "ĠGeorge": 2030,
      "ality": 2031,
      "Ġbegin": 2032,
      "Ġfle": 2033,
      "Ġblack": 2034,
      "duct": 2035,
      "Ġconv": 2036,
      "elling": 2037,
      "Ġput": 2038,
      "Ġcirc": 2039,
      "ĠSer": 2040,
      "ĠPer": 2041,
      "Ġearl": 2042,
      "ĠPhil": 2043,
      "ĠTo": 2044,
      "olution": 2045,
      "Ġcost": 2046,
      "abor": 2047,
      "ĠHen": 2048,
      "Ġsee": 2049,
      "Ġdiv": 2050,
      "idence": 2051,
      "Ġprocess": 2052,
      "Ġnon": 2053,
      "Ġstyle": 2054,
      "ying": 2055,
      "Ġlook": 2056,
      "Ġkilled": 2057,
      "Ġcy": 2058,
      "Ġvol": 2059,
      "Ġseven": 2060,
      "Ġaud": 2061,
      "ĠEm": 2062,
      "rict": 2063,
      "Ġtropical": 2064,
      "Ġhelp": 2065,
      "lished": 2066,
      "Ġlet": 2067,
      "play": 2068,
      "Ġthroughout": 2069,
      "Ġtaken": 2070,
      "ĠBill": 2071,
      "Ġfight": 2072,
      "Ġable": 2073,
      "ana": 2074,
      "Ġdiscover": 2075,
      "Ġagre": 2076,
      "ecut": 2077,
      "urg": 2078,
      "Ġwid": 2079,
      "Ġlittle": 2080,
      "Ġsignificant": 2081,
      "ertain": 2082,
      "Ġbecom": 2083,
      "Ġage": 2084,
      "Ġhit": 2085,
      "ĠSch": 2086,
      "Ġfem": 2087,
      "Ġident": 2088,
      "Ġmeet": 2089,
      "ways": 2090,
      "ĠThom": 2091,
      "ĠAustralian": 2092,
      "Ġtechn": 2093,
      "Ġspecial": 2094,
      "irl": 2095,
      "Ġstruct": 2096,
      "oice": 2097,
      "Ġfront": 2098,
      "Ġwriting": 2099,
      "Ġcop": 2100,
      "Ġthought": 2101,
      "Ġmm": 2102,
      "Ġbroad": 2103,
      "Ġestablished": 2104,
      "enced": 2105,
      "aval": 2106,
      "ĠAct": 2107,
      "ĠDavid": 2108,
      "ius": 2109,
      "ĠPart": 2110,
      "Ġappeared": 2111,
      "ĠMor": 2112,
      "Ġentire": 2113,
      "Ġcoll": 2114,
      "Ġdoes": 2115,
      "epend": 2116,
      "Ġmiles": 2117,
      "cil": 2118,
      "Ġyoung": 2119,
      "Ġ!": 2120,
      "Ġcoast": 2121,
      "ĠRich": 2122,
      "Ġpoints": 2123,
      "Ġbody": 2124,
      "Ġaward": 2125,
      "less": 2126,
      "Ġroute": 2127,
      "odes": 2128,
      "Ġimpro": 2129,
      "ought": 2130,
      "Ġmember": 2131,
      "ript": 2132,
      "ground": 2133,
      "ĠMed": 2134,
      "ivil": 2135,
      "Ġrange": 2136,
      "Ġactiv": 2137,
      "ask": 2138,
      "iron": 2139,
      "ster": 2140,
      "Ġwomen": 2141,
      "iers": 2142,
      "ĠPe": 2143,
      "Ġstarted": 2144,
      "Ġcaused": 2145,
      "ĠYou": 2146,
      "Ġdecided": 2147,
      "int": 2148,
      "blem": 2149,
      "lected": 2150,
      "ĠAfric": 2151,
      "Ġfeatures": 2152,
      "Ġpain": 2153,
      "day": 2154,
      "Ġgeneral": 2155,
      "ĠQu": 2156,
      "ators": 2157,
      "Ġeventually": 2158,
      "iec": 2159,
      "men": 2160,
      "umb": 2161,
      "oph": 2162,
      "conom": 2163,
      "ĠRoyal": 2164,
      "Ġarch": 2165,
      "ogn": 2166,
      "uk": 2167,
      "Ġrace": 2168,
      "den": 2169,
      "Ġvot": 2170,
      "itar": 2171,
      "here": 2172,
      "Ġfeet": 2173,
      "Ġgrow": 2174,
      "Ġmanag": 2175,
      "pped": 2176,
      "ĠHist": 2177,
      "ush": 2178,
      "bert": 2179,
      "Ġadded": 2180,
      "rison": 2181,
      "Ġtre": 2182,
      "Ġhold": 2183,
      "Ġcut": 2184,
      "Ġtoget": 2185,
      "Ġtogether": 2186,
      "Ġ188": 2187,
      "ĠHouse": 2188,
      "Ġformed": 2189,
      "ivid": 2190,
      "Ġlocated": 2191,
      "Ġonce": 2192,
      "Ġwhite": 2193,
      "Ġstri": 2194,
      "reek": 2195,
      "ament": 2196,
      "ample": 2197,
      "Ġnov": 2198,
      "Ġarg": 2199,
      "Ġmodern": 2200,
      "urb": 2201,
      "Ġconn": 2202,
      "Ġenc": 2203,
      "off": 2204,
      "ĠBlack": 2205,
      "dle": 2206,
      "ĠPort": 2207,
      "Ġinstead": 2208,
      "head": 2209,
      "Ġround": 2210,
      "rought": 2211,
      "Ġ31": 2212,
      "aces": 2213,
      "Ġesc": 2214,
      "ara": 2215,
      "emy": 2216,
      "Ġball": 2217,
      "ĠIntern": 2218,
      "Ġmix": 2219,
      "Ġimportant": 2220,
      "Ġcrew": 2221,
      "cing": 2222,
      "Ġpri": 2223,
      "Ġsaw": 2224,
      "ee": 2225,
      "Ġaction": 2226,
      "Ġcompleted": 2227,
      "ĠItal": 2228,
      "Ġredu": 2229,
      "ĠIndian": 2230,
      "ids": 2231,
      "ects": 2232,
      "Ġplaying": 2233,
      "rated": 2234,
      "ĠOther": 2235,
      "cent": 2236,
      "oney": 2237,
      "ells": 2238,
      "Ġ2004": 2239,
      "Ġbase": 2240,
      "Ġpopulation": 2241,
      "ata": 2242,
      "Ġsurv": 2243,
      "Ġinsp": 2244,
      "Ġmater": 2245,
      "Ġmot": 2246,
      "ĠMy": 2247,
      "Ġstage": 2248,
      "ĠMichael": 2249,
      "Ġvoc": 2250,
      "Ġguns": 2251,
      "Ġrather": 2252,
      "Ġask": 2253,
      "Ġoccur": 2254,
      "Ġbehind": 2255,
      "Ġopened": 2256,
      "Ġothers": 2257,
      "Ġ186": 2258,
      "Ġfall": 2259,
      "Ġren": 2260,
      "ray": 2261,
      "asing": 2262,
      "ceed": 2263,
      "Ġbrother": 2264,
      "wood": 2265,
      "igned": 2266,
      "ements": 2267,
      "Ġcomment": 2268,
      "Ġlik": 2269,
      "lin": 2270,
      "stit": 2271,
      "Ġborn": 2272,
      "Ġsite": 2273,
      "Ġ2015": 2274,
      "Ġfif": 2275,
      "Ġworks": 2276,
      "Ġloss": 2277,
      "Ġbomb": 2278,
      "Ġlive": 2279,
      "Ġheavy": 2280,
      "ĠFrance": 2281,
      "Ġworked": 2282,
      "ficult": 2283,
      "Ġmiss": 2284,
      "Ã¡": 2285,
      "Ġpred": 2286,
      "Ġsubsequ": 2287,
      "medi": 2288,
      "Ġlack": 2289,
      "ĠSchool": 2290,
      "rap": 2291,
      "nder": 2292,
      "Ġclose": 2293,
      "Ġproblem": 2294,
      "Ġparty": 2295,
      "Ġdifficult": 2296,
      "lection": 2297,
      "Ġconstruction": 2298,
      "ĠSome": 2299,
      "ĠWash": 2300,
      "ĠSan": 2301,
      "Ġknow": 2302,
      "ĠNor": 2303,
      "Ġhost": 2304,
      "arch": 2305,
      "Ġweeks": 2306,
      "istic": 2307,
      "Ġrelationship": 2308,
      "Ġoriginally": 2309,
      "Ġsepar": 2310,
      "Ġassoci": 2311,
      "Ġreb": 2312,
      "co": 2313,
      "Ġupon": 2314,
      "Ġpract": 2315,
      "Ġappoin": 2316,
      "Ġleading": 2317,
      "Ġpeak": 2318,
      "Ġvill": 2319,
      "Ġaccom": 2320,
      "ĠHenry": 2321,
      "Ġalmost": 2322,
      "Ġdamage": 2323,
      "orts": 2324,
      "Ġmer": 2325,
      "Ġinj": 2326,
      "lic": 2327,
      "ĠRobert": 2328,
      "ĠAle": 2329,
      "unk": 2330,
      "Ġfourth": 2331,
      "Ġ2000": 2332,
      "osition": 2333,
      "Ġscored": 2334,
      "ĠBattle": 2335,
      "Ġinform": 2336,
      "aps": 2337,
      "Ġreve": 2338,
      "ĠStar": 2339,
      "Ġprovided": 2340,
      "Ġcase": 2341,
      "ĠMusic": 2342,
      "Ġmi": 2343,
      "ĠBest": 2344,
      "ming": 2345,
      "Ġclos": 2346,
      "board": 2347,
      "Ġengine": 2348,
      "Ġinvest": 2349,
      "Ġgoal": 2350,
      "Ġaccept": 2351,
      "ĠVir": 2352,
      "Ġcreat": 2353,
      "ica": 2354,
      "Ġscene": 2355,
      "ĠRed": 2356,
      "oring": 2357,
      "ĠDesp": 2358,
      "Ġhuman": 2359,
      "ellow": 2360,
      "ino": 2361,
      "ĠRou": 2362,
      "ule": 2363,
      "ological": 2364,
      "angu": 2365,
      "Ġbrought": 2366,
      "Ġ500": 2367,
      "aut": 2368,
      "Ġfree": 2369,
      "Ġindivid": 2370,
      "Ġ187": 2371,
      "ĠPaul": 2372,
      "Ġfeatured": 2373,
      "ula": 2374,
      "Ġleast": 2375,
      "Ġking": 2376,
      "Ġmother": 2377,
      "Ġlaun": 2378,
      "Ġallowed": 2379,
      "Ġworking": 2380,
      "ĠPresident": 2381,
      "ama": 2382,
      "Ġresul": 2383,
      "ĠMil": 2384,
      "Ġtowards": 2385,
      "ĠCap": 2386,
      "Ġaverage": 2387,
      "Ġregion": 2388,
      "Ġwanted": 2389,
      "Ġmult": 2390,
      "Ġtroops": 2391,
      "Ġindust": 2392,
      "Ġtradition": 2393,
      "Ġbusiness": 2394,
      "aves": 2395,
      "ĠAg": 2396,
      "ĠHol": 2397,
      "ĠWashington": 2398,
      "iding": 2399,
      "Ġplaced": 2400,
      "azine": 2401,
      "ĠQue": 2402,
      "Ġquick": 2403,
      "Ġve": 2404,
      "Ġce": 2405,
      "Ġeither": 2406,
      "ving": 2407,
      "Ġrespect": 2408,
      "Ġcritics": 2409,
      "ĠBel": 2410,
      "Ġoffice": 2411,
      "Ġhon": 2412,
      "Ġavail": 2413,
      "ky": 2414,
      "Ġreach": 2415,
      "Ġruns": 2416,
      "Ġexample": 2417,
      "antic": 2418,
      "Ġprofess": 2419,
      "Ġmaterial": 2420,
      "Ġrecogn": 2421,
      "Ġeconom": 2422,
      "ĠÃ": 2423,
      "Ġfar": 2424,
      "go": 2425,
      "ened": 2426,
      "Ġwife": 2427,
      "Ġestim": 2428,
      "to": 2429,
      "Ġarmy": 2430,
      "Ġneg": 2431,
      "ze": 2432,
      "earch": 2433,
      "chie": 2434,
      "ential": 2435,
      "Ġfoc": 2436,
      "ĠDespite": 2437,
      "right": 2438,
      "Ġ2003": 2439,
      "ĠFollow": 2440,
      "Ġsex": 2441,
      "ĠCour": 2442,
      "quadron": 2443,
      "Ġinterest": 2444,
      "Ġsour": 2445,
      "ength": 2446,
      "Ġjoined": 2447,
      "Ġmass": 2448,
      "Ġrail": 2449,
      "Ġdou": 2450,
      "Ġgenerally": 2451,
      "ĠAngel": 2452,
      "ĠHill": 2453,
      "enes": 2454,
      "ĠHam": 2455,
      "Ġproper": 2456,
      "Ġcurrent": 2457,
      "uff": 2458,
      "Ġdev": 2459,
      "ĠHall": 2460,
      "ourn": 2461,
      "Ġevents": 2462,
      "Ġbelieved": 2463,
      "ĠGame": 2464,
      "Ġparticip": 2465,
      "ĠCup": 2466,
      "Ġ35": 2467,
      "of": 2468,
      "itch": 2469,
      "Ġfig": 2470,
      "ĠFollowing": 2471,
      "ĠKe": 2472,
      "ville": 2473,
      "ĠFirst": 2474,
      "be": 2475,
      "rey": 2476,
      "Ġbill": 2477,
      "ĠMary": 2478,
      "Ġreplaced": 2479,
      "ĠDr": 2480,
      "Ġz": 2481,
      "Ġmph": 2482,
      "ĠGreat": 2483,
      "Ġrul": 2484,
      "Ġvictory": 2485,
      "artment": 2486,
      "Ġdesigned": 2487,
      "ĠLou": 2488,
      "Ġgrad": 2489,
      "Ġisland": 2490,
      "ĠJe": 2491,
      "iction": 2492,
      "sc": 2493,
      "Ġsoon": 2494,
      "Ġnomin": 2495,
      "xic": 2496,
      "itte": 2497,
      "ĠLa": 2498,
      "ĠGro": 2499,
      "oor": 2500,
      "ĠMal": 2501,
      "Ġfund": 2502,
      "Ġhours": 2503,
      "erous": 2504,
      "ĠTwo": 2505,
      "Ġemploy": 2506,
      "ification": 2507,
      "Ġinvolved": 2508,
      "ĠEuropean": 2509,
      "Ġpresident": 2510,
      "Ġroom": 2511,
      "uel": 2512,
      "aled": 2513,
      "ĠChampionship": 2514,
      "Ġsurf": 2515,
      "Ġstru": 2516,
      "aper": 2517,
      "val": 2518,
      "Ġfinished": 2519,
      "inf": 2520,
      "merc": 2521,
      "asion": 2522,
      "west": 2523,
      "inist": 2524,
      "iff": 2525,
      "emor": 2526,
      "ĠMart": 2527,
      "Ġbreak": 2528,
      "inn": 2529,
      "ĠRoman": 2530,
      "ĠPlay": 2531,
      "Ġhor": 2532,
      "Ġshot": 2533,
      "Ġcourt": 2534,
      "rain": 2535,
      "Ġsaying": 2536,
      "aren": 2537,
      "Ġthreat": 2538,
      "arn": 2539,
      "Ġopening": 2540,
      "ĠDan": 2541,
      "Ġscore": 2542,
      "ĠBer": 2543,
      "Ġregular": 2544,
      "ĠRoute": 2545,
      "Ġdesp": 2546,
      "ĠMet": 2547,
      "Ġdirector": 2548,
      "ades": 2549,
      "Ġlength": 2550,
      "BC": 2551,
      "ĠDon": 2552,
      "cher": 2553,
      "leg": 2554,
      "Ġindic": 2555,
      "Ġhom": 2556,
      "Ġlargest": 2557,
      "ĠMac": 2558,
      "ĠScott": 2559,
      "Ġconduct": 2560,
      "Ġill": 2561,
      "oul": 2562,
      "Ġhighway": 2563,
      "Ġcontrib": 2564,
      "antry": 2565,
      "Ġpossible": 2566,
      "Ġtravel": 2567,
      "Ġsouthern": 2568,
      "now": 2569,
      "ecutive": 2570,
      "Ġdro": 2571,
      "ki": 2572,
      "ude": 2573,
      "ishing": 2574,
      "Ġminutes": 2575,
      "ipp": 2576,
      "ĠCro": 2577,
      "Ġremov": 2578,
      "Ġhy": 2579,
      "ĠVal": 2580,
      "ĠFrom": 2581,
      "Ġhighest": 2582,
      "icle": 2583,
      "Ġearlier": 2584,
      "Ġtest": 2585,
      "Ġ2001": 2586,
      "Ġinitially": 2587,
      "Ġly": 2588,
      "Ġavailable": 2589,
      "ago": 2590,
      "ĠSing": 2591,
      "anned": 2592,
      "ĠAtl": 2593,
      "Ġparticularly": 2594,
      "Ġpercent": 2595,
      "ander": 2596,
      "Ġhard": 2597,
      "Ġtraining": 2598,
      "Ġsequ": 2599,
      "ĠWil": 2600,
      "ĠRepublic": 2601,
      "Ġforced": 2602,
      "ply": 2603,
      "Ġexist": 2604,
      "ĠMid": 2605,
      "ĠNavy": 2606,
      "Ġmust": 2607,
      "hib": 2608,
      "ĠCharles": 2609,
      "ĠKingdom": 2610,
      "ĠMag": 2611,
      "ography": 2612,
      "asy": 2613,
      "ĠÂ°": 2614,
      "rian": 2615,
      "ĠMcC": 2616,
      "Ġpark": 2617,
      "ĠBut": 2618,
      "Ġrespons": 2619,
      "ĠOff": 2620,
      "bor": 2621,
      "ateg": 2622,
      "Ġended": 2623,
      "Ġwall": 2624,
      "rac": 2625,
      "Ġquar": 2626,
      "Ġturned": 2627,
      "Ġexc": 2628,
      "ĠThomas": 2629,
      "ĠInternational": 2630,
      "ems": 2631,
      "Ġstudio": 2632,
      "uture": 2633,
      "Ġsocial": 2634,
      "ĠPal": 2635,
      "ĠDep": 2636,
      "rag": 2637,
      "Ġchange": 2638,
      "iforn": 2639,
      "ĠChurch": 2640,
      "ios": 2641,
      "ĠRes": 2642,
      "heast": 2643,
      "Ġlangu": 2644,
      "ĠWhite": 2645,
      "Ġpraised": 2646,
      "Ġpassed": 2647,
      "Ġnorthern": 2648,
      "Ġsuper": 2649,
      "Ġpriv": 2650,
      "Ġpiec": 2651,
      "Ġincreased": 2652,
      "atural": 2653,
      "Ġobject": 2654,
      "ĠVirgin": 2655,
      "rup": 2656,
      "Ġhurricane": 2657,
      "Ġ2002": 2658,
      "Ġregard": 2659,
      "Ġeduc": 2660,
      "ĠBrown": 2661,
      "Ġcentral": 2662,
      "Ġkeep": 2663,
      "ights": 2664,
      "Ġphys": 2665,
      "itor": 2666,
      "Ġunits": 2667,
      "Ġrelig": 2668,
      "Ġnovel": 2669,
      "Ġappearance": 2670,
      "Ġspeed": 2671,
      "ĠCanada": 2672,
      "sel": 2673,
      "rem": 2674,
      "ĠSl": 2675,
      "Ġpast": 2676,
      "ĠCaliforn": 2677,
      "ĠMer": 2678,
      "ership": 2679,
      "ĠRock": 2680,
      "ĠSen": 2681,
      "Ġstop": 2682,
      "key": 2683,
      "ended": 2684,
      "Ġimmedi": 2685,
      "Ġcou": 2686,
      "Ġchurch": 2687,
      "ĠBay": 2688,
      "Ġordered": 2689,
      "ocr": 2690,
      "Ġdisp": 2691,
      "uter": 2692,
      "Ġsym": 2693,
      "ĠSmith": 2694,
      "ston": 2695,
      "ĠMo": 2696,
      "Ġmeas": 2697,
      "ique": 2698,
      "aughter": 2699,
      "Ġtreat": 2700,
      "ference": 2701,
      "Ġtaking": 2702,
      "rying": 2703,
      "ĠSam": 2704,
      "ĠRichard": 2705,
      "ittee": 2706,
      "Ġmove": 2707,
      "Ġindepend": 2708,
      "Ġsigned": 2709,
      "ĠAlex": 2710,
      "Ġlove": 2711,
      "ilities": 2712,
      "Ġachie": 2713,
      "ĠCalifornia": 2714,
      "Ġbetter": 2715,
      "etwork": 2716,
      "Ġpers": 2717,
      "ĠUnion": 2718,
      "itz": 2719,
      "ump": 2720,
      "aker": 2721,
      "Ġwinds": 2722,
      "ĠGovern": 2723,
      "Ġap": 2724,
      "ecess": 2725,
      "arily": 2726,
      "ĠGod": 2727,
      "Ġinn": 2728,
      "nel": 2729,
      "ĠIsland": 2730,
      "Ġwat": 2731,
      "Ġenough": 2732,
      "Ġcommerc": 2733,
      "Ġpositive": 2734,
      "ĠCourt": 2735,
      "ears": 2736,
      "Ġhous": 2737,
      "ume": 2738,
      "Ġaccording": 2739,
      "anks": 2740,
      "elled": 2741,
      "Ġspent": 2742,
      "Ġabove": 2743,
      "Ġslow": 2744,
      "Ġgoing": 2745,
      "Ġpot": 2746,
      "Ġoutside": 2747,
      "ĠVict": 2748,
      "ĠBra": 2749,
      "ĠTom": 2750,
      "Ġfilms": 2751,
      "ĠMill": 2752,
      "ma": 2753,
      "uation": 2754,
      "apt": 2755,
      "ĠAward": 2756,
      "Ġtold": 2757,
      "ĠUp": 2758,
      "Ġfeel": 2759,
      "berg": 2760,
      "ĠCong": 2761,
      "Ġfootball": 2762,
      "Ġclear": 2763,
      "Ġpreviously": 2764,
      "quare": 2765,
      "Ġstates": 2766,
      "Ġ1990": 2767,
      "ĠAc": 2768,
      "Ġ60": 2769,
      "Ġmean": 2770,
      "anding": 2771,
      "Ġnine": 2772,
      "Ġquest": 2773,
      "ĠCompany": 2774,
      "Ġrecording": 2775,
      "ĠAssoci": 2776,
      "alion": 2777,
      "Ġpur": 2778,
      "Ġsubject": 2779,
      "atin": 2780,
      "het": 2781,
      "usion": 2782,
      "ĠArt": 2783,
      "Ġfailed": 2784,
      "reng": 2785,
      "Ġassist": 2786,
      "Ġey": 2787,
      "Ġrequired": 2788,
      "Ġcome": 2789,
      "ows": 2790,
      "osing": 2791,
      "Ġ45": 2792,
      "Ġprob": 2793,
      "Ġelements": 2794,
      "ĠGermany": 2795,
      "van": 2796,
      "ida": 2797,
      "Ġcru": 2798,
      "ĠStud": 2799,
      "Ġlower": 2800,
      "ĠMark": 2801,
      "ĠIndia": 2802,
      "Ġreviews": 2803,
      "Ġinterview": 2804,
      "edy": 2805,
      "Ġparts": 2806,
      "Ġphot": 2807,
      "ĠGold": 2808,
      "Ġitself": 2809,
      "ĠPeter": 2810,
      "ship": 2811,
      "Ġnar": 2812,
      "Ġthink": 2813,
      "ĠChristian": 2814,
      "nes": 2815,
      "Ġsil": 2816,
      "ranch": 2817,
      "Ġdirected": 2818,
      "ĠNY": 2819,
      "Ġabs": 2820,
      "isl": 2821,
      "ibility": 2822,
      "Ġdespite": 2823,
      "Ġesp": 2824,
      "Ġflow": 2825,
      "Ġcred": 2826,
      "Ġcontract": 2827,
      "amer": 2828,
      "Ġ185": 2829,
      "oke": 2830,
      "ĠThat": 2831,
      "Ġdebut": 2832,
      "ĠPat": 2833,
      "ĠÂ£": 2834,
      "Ġ?": 2835,
      "ĠTimes": 2836,
      "ready": 2837,
      "erved": 2838,
      "Ġaccess": 2839,
      "Ġbeginning": 2840,
      "leb": 2841,
      "Ġgroups": 2842,
      "onna": 2843,
      "oid": 2844,
      "ĠCollege": 2845,
      "ĠCast": 2846,
      "Ġsection": 2847,
      "Ġbi": 2848,
      "Ġviol": 2849,
      "ability": 2850,
      "ĠUK": 2851,
      "hester": 2852,
      "Ġwhose": 2853,
      "ĠSov": 2854,
      "ĠBr": 2855,
      "asons": 2856,
      "Ġclaimed": 2857,
      "Ġlines": 2858,
      "Ġtransfer": 2859,
      "ĠWestern": 2860,
      "Ġprevent": 2861,
      "Ġinternational": 2862,
      "Ġasked": 2863,
      "Ġstreng": 2864,
      "ĠDem": 2865,
      "Ġscreen": 2866,
      "mar": 2867,
      "Ġche": 2868,
      "airs": 2869,
      "Ġgive": 2870,
      "onse": 2871,
      "rief": 2872,
      "Ġbeg": 2873,
      "Ġkey": 2874,
      "ĠMexic": 2875,
      "ĠSoviet": 2876,
      "ĠDo": 2877,
      "Ġunc": 2878,
      "ĠSpan": 2879,
      "Ġadditional": 2880,
      "ĠFilm": 2881,
      "Ġfuture": 2882,
      "ĠFrank": 2883,
      "Ġfort": 2884,
      "Ġwhom": 2885,
      "ĠGrand": 2886,
      "Ġleague": 2887,
      "Ġop": 2888,
      "ĠBen": 2889,
      "Ġpoor": 2890,
      "Ġgold": 2891,
      "ĠAwards": 2892,
      "lying": 2893,
      "Ġdon": 2894,
      "onst": 2895,
      "Ġintroduced": 2896,
      "Ġprem": 2897,
      "Ġsea": 2898,
      "Ġevidence": 2899,
      "ites": 2900,
      "Ġquickly": 2901,
      "Ġidea": 2902,
      "ex": 2903,
      "Ġcal": 2904,
      "Ġcenter": 2905,
      "Ġalready": 2906,
      "Ġ32": 2907,
      "ĠForce": 2908,
      "Ġbridge": 2909,
      "ĠSoc": 2910,
      "atory": 2911,
      "eck": 2912,
      "Ġfrequ": 2913,
      "usp": 2914,
      "ĠMost": 2915,
      "Ġemb": 2916,
      "Ġoccup": 2917,
      "Ġelection": 2918,
      "Ġ1970": 2919,
      "Ġproduct": 2920,
      "Ġexcept": 2921,
      "Ġcycl": 2922,
      "eum": 2923,
      "ĠCoun": 2924,
      "back": 2925,
      "eal": 2926,
      "Ġpil": 2927,
      "Ġdeal": 2928,
      "Ġpen": 2929,
      "Ġarrived": 2930,
      "irth": 2931,
      "Ġblock": 2932,
      "ecially": 2933,
      "Ġwestern": 2934,
      "Ġ1980": 2935,
      "Ġcivil": 2936,
      "aring": 2937,
      "ĠBritain": 2938,
      "ĠRob": 2939,
      "Ġusually": 2940,
      "Ġradio": 2941,
      "Ġmusical": 2942,
      "unt": 2943,
      "ĠOver": 2944,
      "ully": 2945,
      "ĠDay": 2946,
      "liam": 2947,
      "ergy": 2948,
      "ĠIm": 2949,
      "ĠPac": 2950,
      "Ġsometimes": 2951,
      "Ġfemale": 2952,
      "Ġdecision": 2953,
      "Ġresponse": 2954,
      "Ġfood": 2955,
      "Ġstudy": 2956,
      "Ġmagazine": 2957,
      "ĠLater": 2958,
      "Ġmoney": 2959,
      "ĠVictor": 2960,
      "Ġespecially": 2961,
      "ĠHot": 2962,
      "Ġissue": 2963,
      "ĠBur": 2964,
      "asc": 2965,
      "Ġlab": 2966,
      "ĠTra": 2967,
      "Ġflood": 2968,
      "Ġ-": 2969,
      "liament": 2970,
      "Ġliter": 2971,
      "Ġsurface": 2972,
      "Ġenv": 2973,
      "gen": 2974,
      "Ġcarried": 2975,
      "rack": 2976,
      "Ġmight": 2977,
      "Ġestimated": 2978,
      "ĠRh": 2979,
      "Ġguitar": 2980,
      "Ġcommunity": 2981,
      "ena": 2982,
      "aint": 2983,
      "Ġconstruct": 2984,
      "ĠChic": 2985,
      "iter": 2986,
      "Ġshows": 2987,
      "Ġremain": 2988,
      "Ġdefeated": 2989,
      "Ġarran": 2990,
      "Ġeastern": 2991,
      "igan": 2992,
      "Ġ1999": 2993,
      "Ġremaining": 2994,
      "aries": 2995,
      "Ġminor": 2996,
      "ĠEarly": 2997,
      "Ġdeterm": 2998,
      "inent": 2999,
      "ĠMount": 3000,
      "Ġwood": 3001,
      "ha": 3002,
      "raw": 3003,
      "Ġapprox": 3004,
      "ession": 3005,
      "Ġlarger": 3006,
      "Ġrap": 3007,
      "ulf": 3008,
      "Ġbecoming": 3009,
      "ĠVirginia": 3010,
      "ĠInf": 3011,
      "Ġcomplete": 3012,
      "Ġpolice": 3013,
      "Ġ36": 3014,
      "rab": 3015,
      "ror": 3016,
      "porary": 3017,
      "Ġshoot": 3018,
      "Ġ80": 3019,
      "Ġteams": 3020,
      "Ġentered": 3021,
      "Ġmedia": 3022,
      "Ġsuggested": 3023,
      "Ġpressure": 3024,
      "rics": 3025,
      "Ġlatter": 3026,
      "NA": 3027,
      "ĠLos": 3028,
      "Ġcommercial": 3029,
      "ĠJust": 3030,
      "ands": 3031,
      "erve": 3032,
      "Ġanal": 3033,
      "Ġinvestig": 3034,
      "Ġsurround": 3035,
      "Ġdoc": 3036,
      "Ġlo": 3037,
      "Ġconsider": 3038,
      "Ġmarket": 3039,
      "Ġbrief": 3040,
      "Ġconcern": 3041,
      "ises": 3042,
      "ĠSecond": 3043,
      "Ġstudents": 3044,
      "Ġbur": 3045,
      "Ġpersonal": 3046,
      "inct": 3047,
      "Ġprison": 3048,
      "ederal": 3049,
      "ĠIf": 3050,
      "ĠTex": 3051,
      "ĠFle": 3052,
      "Ġacqu": 3053,
      "Ġdiscuss": 3054,
      "Ġcertain": 3055,
      "Ġcomplet": 3056,
      "alled": 3057,
      "Ġappointed": 3058,
      "Ġeffects": 3059,
      "ĠJackson": 3060,
      "Ġprior": 3061,
      "Ġder": 3062,
      "Ġsummer": 3063,
      "Ġhop": 3064,
      "Ġsat": 3065,
      "change": 3066,
      "ĠCont": 3067,
      "incip": 3068,
      "Ġepisodes": 3069,
      "Ġtar": 3070,
      "Ġriver": 3071,
      "ĠFlor": 3072,
      "Ġstaff": 3073,
      "enth": 3074,
      "Ġemer": 3075,
      "Ġsize": 3076,
      "lymp": 3077,
      "Ġdestroyed": 3078,
      "ĠLouis": 3079,
      "Ġchanges": 3080,
      "ores": 3081,
      "ulated": 3082,
      "Ġcommission": 3083,
      "Ġrid": 3084,
      "imate": 3085,
      "Ġscenes": 3086,
      "Ġwinning": 3087,
      "Ġfleet": 3088,
      "sy": 3089,
      "Ġlimited": 3090,
      "omm": 3091,
      "iser": 3092,
      "Ġleaving": 3093,
      "ĠSpanish": 3094,
      "Ġdeg": 3095,
      "ĠOlymp": 3096,
      "tt": 3097,
      "ĠClub": 3098,
      "Ġpay": 3099,
      "II": 3100,
      "Ġden": 3101,
      "Ġ75": 3102,
      "Ġdraw": 3103,
      "ga": 3104,
      "que": 3105,
      "su": 3106,
      "lo": 3107,
      "rigade": 3108,
      "Ġself": 3109,
      "Ġprovide": 3110,
      "idents": 3111,
      "Ġrights": 3112,
      "Ġpolic": 3113,
      "Ġtrib": 3114,
      "ties": 3115,
      "ournal": 3116,
      "Ġtype": 3117,
      "ires": 3118,
      "Ġdate": 3119,
      "ension": 3120,
      "rd": 3121,
      "Ġwriter": 3122,
      "Ġfail": 3123,
      "sen": 3124,
      "ĠDu": 3125,
      "Ġterrit": 3126,
      "ari": 3127,
      "Ġkil": 3128,
      "Ġtransport": 3129,
      "Ġproposed": 3130,
      "Ġinfluence": 3131,
      "Ġoverall": 3132,
      "Ġdivision": 3133,
      "Ġgirl": 3134,
      "oms": 3135,
      "ĠKh": 3136,
      "Ġstructure": 3137,
      "ĠGreen": 3138,
      "inese": 3139,
      "ĠParty": 3140,
      "Ġtax": 3141,
      "Ġ1960": 3142,
      "Ġequip": 3143,
      "Ġcontro": 3144,
      "Ġ184": 3145,
      "Ġscript": 3146,
      "iral": 3147,
      "Ġ300": 3148,
      "ĠTer": 3149,
      "Ġbr": 3150,
      "ÃŃ": 3151,
      "Ġagreed": 3152,
      "ĠAssociation": 3153,
      "Ġintended": 3154,
      "atives": 3155,
      "Ġanti": 3156,
      "AA": 3157,
      "Ġjud": 3158,
      "Ġrunning": 3159,
      "ĠPri": 3160,
      "ift": 3161,
      "ending": 3162,
      "ĠEdward": 3163,
      "icles": 3164,
      "ĠAdm": 3165,
      "Ġdaughter": 3166,
      "Ġdeep": 3167,
      "Ġsupported": 3168,
      "Ġwide": 3169,
      "Ġbow": 3170,
      "Ġpurch": 3171,
      "Ġnearly": 3172,
      "Ġbig": 3173,
      "ĠChicago": 3174,
      "Ġbroadcast": 3175,
      "ĠMany": 3176,
      "imum": 3177,
      "ĠChinese": 3178,
      "Ġestablish": 3179,
      "ĠOper": 3180,
      "Ġdi": 3181,
      "Ġresearch": 3182,
      "Ġhelped": 3183,
      "Ġmovement": 3184,
      "Ġ1998": 3185,
      "ĠRo": 3186,
      "Ġmarried": 3187,
      "Ġawarded": 3188,
      "ili": 3189,
      "Ġintens": 3190,
      "Ġmultip": 3191,
      "ĠIr": 3192,
      "ĠCouncil": 3193,
      "ĠSong": 3194,
      "iles": 3195,
      "atively": 3196,
      "acing": 3197,
      "Ġfavor": 3198,
      "Ġdiss": 3199,
      "Ġcreate": 3200,
      "irm": 3201,
      "Ġdark": 3202,
      "ĠSal": 3203,
      "Ġsusp": 3204,
      "ny": 3205,
      "pris": 3206,
      "teen": 3207,
      "omer": 3208,
      "ĠKore": 3209,
      "Ġbird": 3210,
      "ĠEnter": 3211,
      "Ġstars": 3212,
      "Ġlonger": 3213,
      "Ã¶": 3214,
      "Ġlanguage": 3215,
      "che": 3216,
      "Ġcat": 3217,
      "Ġcaptured": 3218,
      "Ġplanned": 3219,
      "Ġhigher": 3220,
      "uz": 3221,
      "Ġincreasing": 3222,
      "mon": 3223,
      "Ġcompared": 3224,
      "ĠEv": 3225,
      "Ġfans": 3226,
      "ĠServ": 3227,
      "ĠEmp": 3228,
      "Ġconclud": 3229,
      "Ġcourse": 3230,
      "ĠSuper": 3231,
      "Ġchanged": 3232,
      "Ġ33": 3233,
      "Ġapproximately": 3234,
      "Ġexperience": 3235,
      "Ġfeature": 3236,
      "selves": 3237,
      "Ġliving": 3238,
      "ĠJohnson": 3239,
      "ounds": 3240,
      "Ġrelated": 3241,
      "Ġdone": 3242,
      "Ġfifth": 3243,
      "Ġthemselves": 3244,
      "enty": 3245,
      "Ġ70": 3246,
      "ĠHistory": 3247,
      "abit": 3248,
      "Ġwithd": 3249,
      "ĠPacific": 3250,
      "tained": 3251,
      "bers": 3252,
      "arent": 3253,
      "Ġproducer": 3254,
      "Ġmostly": 3255,
      "Ġtemper": 3256,
      "Ġtracks": 3257,
      "isions": 3258,
      "ĠBack": 3259,
      "ss": 3260,
      "ĠInter": 3261,
      "Ġspace": 3262,
      "Ġoperations": 3263,
      "anced": 3264,
      "ij": 3265,
      "can": 3266,
      "Ġdead": 3267,
      "uth": 3268,
      "ĠBillboard": 3269,
      "umn": 3270,
      "ĠApp": 3271,
      "Ġthus": 3272,
      "olic": 3273,
      "ĠNot": 3274,
      "ĠBet": 3275,
      "Ġwoman": 3276,
      "Ġsyn": 3277,
      "Ġimm": 3278,
      "Ġremains": 3279,
      "Ġbring": 3280,
      "ĠMont": 3281,
      "thing": 3282,
      "Ġquarter": 3283,
      "Ã¼": 3284,
      "Ġsoldiers": 3285,
      "imin": 3286,
      "Ġult": 3287,
      "Ġour": 3288,
      "Ġnatural": 3289,
      "oint": 3290,
      "vin": 3291,
      "Ġwhether": 3292,
      "Ġweap": 3293,
      "Ġprobably": 3294,
      "Ġface": 3295,
      "Ġdram": 3296,
      "Ġconcept": 3297,
      "anded": 3298,
      "Ġran": 3299,
      "ĠFinal": 3300,
      "rast": 3301,
      "ĠScot": 3302,
      "bour": 3303,
      "Ġbattles": 3304,
      "Ġbuildings": 3305,
      "Ġcopies": 3306,
      "Ġcomplex": 3307,
      "Ġreact": 3308,
      "Ġ1997": 3309,
      "ĠSun": 3310,
      "ĠSince": 3311,
      "Ġforward": 3312,
      "Ġleader": 3313,
      "Ġdepart": 3314,
      "ĠKn": 3315,
      "Ġlyrics": 3316,
      "Ġextended": 3317,
      "Ġboy": 3318,
      "Ġvoice": 3319,
      "iring": 3320,
      "itt": 3321,
      "Ġheav": 3322,
      "Ġboard": 3323,
      "Ġchall": 3324,
      "ospital": 3325,
      "Ġissued": 3326,
      "ĠAtlantic": 3327,
      "Ġ37": 3328,
      "ging": 3329,
      "vey": 3330,
      "Ġsuffered": 3331,
      "Ġreally": 3332,
      "riage": 3333,
      "Ġcountries": 3334,
      "rate": 3335,
      "ĠFort": 3336,
      "ĠLake": 3337,
      "ĠBig": 3338,
      "urt": 3339,
      "Ġcm": 3340,
      "ĠSever": 3341,
      "ĠCongress": 3342,
      "ĠFranc": 3343,
      "Ġincludes": 3344,
      "Ġimmediately": 3345,
      "ĠLove": 3346,
      "ĠFlorida": 3347,
      "ĠBoth": 3348,
      "Ġmeth": 3349,
      "Ġgoals": 3350,
      "Ġattend": 3351,
      "ĠJim": 3352,
      "ĠJew": 3353,
      "Ġcapital": 3354,
      "hood": 3355,
      "Ġprivate": 3356,
      "Ġmixed": 3357,
      "Ġmanager": 3358,
      "Ġofficers": 3359,
      "iant": 3360,
      "Ġlikely": 3361,
      "Ġcann": 3362,
      "Ġbreed": 3363,
      "ĠOld": 3364,
      "Ġremoved": 3365,
      "Ġmach": 3366,
      "Ġplant": 3367,
      "ien": 3368,
      "ĠSea": 3369,
      "venue": 3370,
      "bury": 3371,
      "hold": 3372,
      "de": 3373,
      "Ġdistrib": 3374,
      "Ġceleb": 3375,
      "ĠDist": 3376,
      "Ġincrease": 3377,
      "Ġsubsequently": 3378,
      "ĠTexas": 3379,
      "Ġinitial": 3380,
      "ĠQueen": 3381,
      "ĠChina": 3382,
      "Ġmount": 3383,
      "ĠTown": 3384,
      "ĠPet": 3385,
      "Ġhealth": 3386,
      "ections": 3387,
      "ria": 3388,
      "Ġalways": 3389,
      "Ġleave": 3390,
      "Ġplans": 3391,
      "Ġcompan": 3392,
      "Ġstatus": 3393,
      "order": 3394,
      "Ġfocus": 3395,
      "rial": 3396,
      "ĠTor": 3397,
      "Ġlocation": 3398,
      "Ġvia": 3399,
      "ĠAnother": 3400,
      "ĠTrans": 3401,
      "Ġservices": 3402,
      "ĠLaw": 3403,
      "Ġnetwork": 3404,
      "Ġvisit": 3405,
      "Ġcoin": 3406,
      "ĠMr": 3407,
      "ĠAnt": 3408,
      "ams": 3409,
      "ĠCamp": 3410,
      "Ġmur": 3411,
      "Ġproblems": 3412,
      "iation": 3413,
      "Ġoffered": 3414,
      "Ġflag": 3415,
      "Ġcolon": 3416,
      "ĠHow": 3417,
      "well": 3418,
      "ĠLord": 3419,
      "ĠEarth": 3420,
      "Ġinstr": 3421,
      "Ġterms": 3422,
      "Ġapproach": 3423,
      "aily": 3424,
      "ĠOl": 3425,
      "ously": 3426,
      "etic": 3427,
      "Ġnorm": 3428,
      "ĠConst": 3429,
      "Ġtons": 3430,
      "ctor": 3431,
      "Ġvillage": 3432,
      "ounted": 3433,
      "Ġmodel": 3434,
      "Ġfell": 3435,
      "Ġsomething": 3436,
      "wer": 3437,
      "ills": 3438,
      "Ġadminist": 3439,
      "ĠBoy": 3440,
      "Ġtor": 3441,
      "orning": 3442,
      "ĠTur": 3443,
      "Ġcounter": 3444,
      "Ġmajority": 3445,
      "Ġsch": 3446,
      "ĠWood": 3447,
      "ironment": 3448,
      "Ġprofessional": 3449,
      "Ġ183": 3450,
      "ĠCanadian": 3451,
      "burg": 3452,
      "ĠIts": 3453,
      "Ġinters": 3454,
      "adium": 3455,
      "ĠAfrica": 3456,
      "ibr": 3457,
      "Ġgot": 3458,
      "ĠRail": 3459,
      "Ġdamaged": 3460,
      "Ġconsist": 3461,
      "Ã³": 3462,
      "aches": 3463,
      "ĠMur": 3464,
      "uries": 3465,
      "Ġcause": 3466,
      "Ġadop": 3467,
      "Ġmeeting": 3468,
      "Ġjob": 3469,
      "Ġappears": 3470,
      "Ġminute": 3471,
      "ĠSquadron": 3472,
      "ĠCenter": 3473,
      "ĠGre": 3474,
      "Ġranked": 3475,
      "Ġlay": 3476,
      "Ġindividual": 3477,
      "olk": 3478,
      "ĠRussian": 3479,
      "ste": 3480,
      "cean": 3481,
      "Ġattacks": 3482,
      "uf": 3483,
      "Ġcomposed": 3484,
      "oes": 3485,
      "ify": 3486,
      "ĠHighway": 3487,
      "Ġ90": 3488,
      "itect": 3489,
      "ĠRad": 3490,
      "Ġrevealed": 3491,
      "Ġflight": 3492,
      "Ġang": 3493,
      "Ġplot": 3494,
      "Ġdiscovered": 3495,
      "reak": 3496,
      "Ġraised": 3497,
      "umed": 3498,
      "ĠMel": 3499,
      "lor": 3500,
      "Ġfinanc": 3501,
      "ĠKent": 3502,
      "ĠCentral": 3503,
      "Ġrespectively": 3504,
      "Ġmakes": 3505,
      "ĠCarol": 3506,
      "pan": 3507,
      "Ġassociated": 3508,
      "ĠMartin": 3509,
      "ĠSir": 3510,
      "Ġ1995": 3511,
      "Ġnumerous": 3512,
      "Ġdomin": 3513,
      "ĠIII": 3514,
      "ault": 3515,
      "Ġanc": 3516,
      "ĠAngeles": 3517,
      "Ġtakes": 3518,
      "Ġaltern": 3519,
      "gar": 3520,
      "Ġneeded": 3521,
      "Ġ34": 3522,
      "Ġinspired": 3523,
      "Ġlived": 3524,
      "ĠBow": 3525,
      "Ġcoach": 3526,
      "Ġlaunched": 3527,
      "oe": 3528,
      "Ġyet": 3529,
      "Ġamb": 3530,
      "Ġgrand": 3531,
      "ription": 3532,
      "Ġattacked": 3533,
      "Ġcand": 3534,
      "Ġpow": 3535,
      "Ġoccurred": 3536,
      "Ġnature": 3537,
      "Ġgra": 3538,
      "Ġdig": 3539,
      "Ġattempted": 3540,
      "uments": 3541,
      "Ġcontains": 3542,
      "Ġveh": 3543,
      "Ġshown": 3544,
      "ĠDV": 3545,
      "Ġbene": 3546,
      "Ġhour": 3547,
      "ĠMiss": 3548,
      "Ġconditions": 3549,
      "estival": 3550,
      "down": 3551,
      "Ġmoving": 3552,
      "Ġupper": 3553,
      "uals": 3554,
      "ĠDes": 3555,
      "imb": 3556,
      "iest": 3557,
      "Ġ38": 3558,
      "ka": 3559,
      "ken": 3560,
      "ĠTV": 3561,
      "ĠYear": 3562,
      "ĠGroup": 3563,
      "ective": 3564,
      "Ġcollect": 3565,
      "Ġsales": 3566,
      "ĠTour": 3567,
      "joy": 3568,
      "orce": 3569,
      "aught": 3570,
      "ĠDel": 3571,
      "urity": 3572,
      "Ġ2016": 3573,
      "Ġissues": 3574,
      "Ġ1996": 3575,
      "Ġyards": 3576,
      "Ġ1950": 3577,
      "Ġbirth": 3578,
      "Ġexam": 3579,
      "Ġslight": 3580,
      "ĠRev": 3581,
      "ĠEmpire": 3582,
      "izing": 3583,
      "Ġsal": 3584,
      "Ġwhole": 3585,
      "Ġcer": 3586,
      "win": 3587,
      "Ġi": 3588,
      "Ġinformation": 3589,
      "uing": 3590,
      "Ġreferred": 3591,
      "Ġfarm": 3592,
      "Ġmom": 3593,
      "oly": 3594,
      "ĠOut": 3595,
      "Ġbox": 3596,
      "Ġcritical": 3597,
      "vert": 3598,
      "ĠUnder": 3599,
      "Ġdefeat": 3600,
      "Ġsen": 3601,
      "Ġpit": 3602,
      "Ġselected": 3603,
      "Ġsmaller": 3604,
      "Ġresulted": 3605,
      "Ġnumbers": 3606,
      "Ġfinally": 3607,
      "reme": 3608,
      "Ġbad": 3609,
      "Ġincor": 3610,
      "ĠPenn": 3611,
      "Ġelected": 3612,
      "ĠGar": 3613,
      "Ġstay": 3614,
      "Ġgrant": 3615,
      "Ġqual": 3616,
      "Ġscient": 3617,
      "Ġactive": 3618,
      "Ġsinger": 3619,
      "onic": 3620,
      "Ġprincip": 3621,
      "ĠItalian": 3622,
      "Ġsecret": 3623,
      "kin": 3624,
      "Ġmission": 3625,
      "itation": 3626,
      "uated": 3627,
      "ĠJose": 3628,
      "Ġ1994": 3629,
      "Ġoperation": 3630,
      "andon": 3631,
      "Ġstandard": 3632,
      "enant": 3633,
      "Ġindustry": 3634,
      "Ġens": 3635,
      "Ġlargely": 3636,
      "Ġassigned": 3637,
      "Ġsem": 3638,
      "Ġprec": 3639,
      "Ġlink": 3640,
      "use": 3641,
      "ortun": 3642,
      "Ġthr": 3643,
      "oura": 3644,
      "Ġlegisl": 3645,
      "Ġsaf": 3646,
      "Ġearned": 3647,
      "Ġcommented": 3648,
      "ĠCorps": 3649,
      "Ġexpected": 3650,
      "Ġmale": 3651,
      "itude": 3652,
      "iled": 3653,
      "Ġaudience": 3654,
      "ĠDVD": 3655,
      "oud": 3656,
      "Ġsuggest": 3657,
      "ãĥ": 3658,
      "Ġlisted": 3659,
      "ĠArm": 3660,
      "Ġroy": 3661,
      "Ġcovered": 3662,
      "ĠDis": 3663,
      "Ġgre": 3664,
      "ĠCrit": 3665,
      "Ġunable": 3666,
      "Ġpurp": 3667,
      "irection": 3668,
      "Ġsched": 3669,
      "ĠMichigan": 3670,
      "Ġtraditional": 3671,
      "Ġheart": 3672,
      "ĠCr": 3673,
      "Ġtrade": 3674,
      "Ġartist": 3675,
      "Ġdouble": 3676,
      "ĠViet": 3677,
      "Ġrefused": 3678,
      "Ġeducation": 3679,
      "ya": 3680,
      "Ġclosed": 3681,
      "Ġnewsp": 3682,
      "gr": 3683,
      "Ġfriends": 3684,
      "Ġaw": 3685,
      "Ġrecover": 3686,
      "Ġunderst": 3687,
      "ounts": 3688,
      "Ġprimary": 3689,
      "agon": 3690,
      "ĠPre": 3691,
      "Ġattention": 3692,
      "Ġmethod": 3693,
      "hips": 3694,
      "ogue": 3695,
      "Ġtalk": 3696,
      "ighter": 3697,
      "tered": 3698,
      "Ġbelow": 3699,
      "Ġsister": 3700,
      "Ġkind": 3701,
      "Ġplat": 3702,
      "ffic": 3703,
      "ĠWales": 3704,
      "Ġofficer": 3705,
      "Ġcontem": 3706,
      "Ġreason": 3707,
      "Ġdepression": 3708,
      "Ġ1940": 3709,
      "Ġperformances": 3710,
      "Ġability": 3711,
      "Ġenjoy": 3712,
      "ĠMass": 3713,
      "oo": 3714,
      "Ġmeant": 3715,
      "Ġwalk": 3716,
      "Ġdeclared": 3717,
      "ĠNort": 3718,
      "Ġfighting": 3719,
      "Ġ49": 3720,
      "Ġblood": 3721,
      "ples": 3722,
      "ĠMore": 3723,
      "Ġgiving": 3724,
      "Ġ180": 3725,
      "Ġcommander": 3726,
      "undred": 3727,
      "Ġword": 3728,
      "isher": 3729,
      "Ġmiddle": 3730,
      "Ġletter": 3731,
      "Ġtheat": 3732,
      "Ġcompl": 3733,
      "Ġreligious": 3734,
      "ĠCath": 3735,
      "Ġmax": 3736,
      "Ġhot": 3737,
      "Ġsett": 3738,
      "ĠCle": 3739,
      "Ġbooks": 3740,
      "ĠOx": 3741,
      "Ġrate": 3742,
      "ona": 3743,
      "ĠArch": 3744,
      "Ġmatches": 3745,
      "ils": 3746,
      "Ġnames": 3747,
      "ĠStep": 3748,
      "ĠCare": 3749,
      "Ġrecords": 3750,
      "ĠLong": 3751,
      "ĠAcad": 3752,
      "aped": 3753,
      "ĠDemocr": 3754,
      "Ġconstit": 3755,
      "ĠBec": 3756,
      "Ġunit": 3757,
      "ĠFer": 3758,
      "Ġproduce": 3759,
      "Ġquestion": 3760,
      "ĠTest": 3761,
      "ĠZeal": 3762,
      "ĠTeam": 3763,
      "Ġcentre": 3764,
      "ounded": 3765,
      "Ġserious": 3766,
      "Ġcompetition": 3767,
      "Ġtouch": 3768,
      "ux": 3769,
      "ĠMajor": 3770,
      "Ġri": 3771,
      "utch": 3772,
      "antasy": 3773,
      "odies": 3774,
      "ims": 3775,
      "Ġdisapp": 3776,
      "Ġvocals": 3777,
      "ector": 3778,
      "Ġabandon": 3779,
      "Ġmention": 3780,
      "osh": 3781,
      "ĠMinister": 3782,
      "ĠSeveral": 3783,
      "Ġrapid": 3784,
      "iences": 3785,
      "Ġ41": 3786,
      "Ġ1992": 3787,
      "road": 3788,
      "irt": 3789,
      "quar": 3790,
      "icted": 3791,
      "ĠWal": 3792,
      "Ġaccount": 3793,
      "ĠCons": 3794,
      "Ġdocument": 3795,
      "Ġnecess": 3796,
      "Ġkilomet": 3797,
      "ares": 3798,
      "Ġmor": 3799,
      "Ġenergy": 3800,
      "ervation": 3801,
      "echan": 3802,
      "Ġconstructed": 3803,
      "ĠFore": 3804,
      "ĠKenn": 3805,
      "Ġdut": 3806,
      "ening": 3807,
      "oses": 3808,
      "Ġtheme": 3809,
      "ĠZealand": 3810,
      "Ġris": 3811,
      "rug": 3812,
      "Ġstra": 3813,
      "ĠFox": 3814,
      "ishop": 3815,
      "rier": 3816,
      "ette": 3817,
      "Ġcas": 3818,
      "ĠSum": 3819,
      "Ġhighly": 3820,
      "Ġnearby": 3821,
      "Ġpick": 3822,
      "ĠTime": 3823,
      "yr": 3824,
      "Ġseparate": 3825,
      "Ġroyal": 3826,
      "Ġpositions": 3827,
      "Ġprep": 3828,
      "ails": 3829,
      "Ġcontinue": 3830,
      "ĠMexico": 3831,
      "ĠEr": 3832,
      "Ġdrum": 3833,
      "Ġtur": 3834,
      "ĠSar": 3835,
      "Ġeffort": 3836,
      "ĠSo": 3837,
      "Ġcombat": 3838,
      "vention": 3839,
      "edic": 3840,
      "Ġchief": 3841,
      "ĠBu": 3842,
      "ĠAfrican": 3843,
      "Ġ400": 3844,
      "ĠHaw": 3845,
      "ĠMatt": 3846,
      "Ġpresented": 3847,
      "Ġannual": 3848,
      "Ġreduced": 3849,
      "ĠMa": 3850,
      "ĠFour": 3851,
      "Ġcontrovers": 3852,
      "ether": 3853,
      "oper": 3854,
      "emorial": 3855,
      "ibly": 3856,
      "ieut": 3857,
      "Ġdirectly": 3858,
      "ĠChris": 3859,
      "Ġ1930": 3860,
      "Ġlevels": 3861,
      "Ġcle": 3862,
      "Ġ55": 3863,
      "Ġmeans": 3864,
      "Ġnotes": 3865,
      "Ġneigh": 3866,
      "cel": 3867,
      "Ġsevent": 3868,
      "Ġtried": 3869,
      "Ġattended": 3870,
      "Ġfast": 3871,
      "Ġpractice": 3872,
      "Ġhar": 3873,
      "ĠWall": 3874,
      "ita": 3875,
      "Ġforest": 3876,
      "ado": 3877,
      "Ġcompos": 3878,
      "shire": 3879,
      "ĠBrad": 3880,
      "Ġedition": 3881,
      "ĠDar": 3882,
      "vement": 3883,
      "ĠMadonna": 3884,
      "uit": 3885,
      "Ġtrain": 3886,
      "ĠBob": 3887,
      "Ġnuc": 3888,
      "acher": 3889,
      "Ġmetal": 3890,
      "ĠChart": 3891,
      "Ġaccepted": 3892,
      "arents": 3893,
      "Ġtwenty": 3894,
      "Ġstating": 3895,
      "Ġ1993": 3896,
      "ĠTre": 3897,
      "osen": 3898,
      "Ġ1991": 3899,
      "Ġwatch": 3900,
      "Ġarchitect": 3901,
      "Ġmovie": 3902,
      "Ġconcert": 3903,
      "Ġtext": 3904,
      "Ġadvance": 3905,
      "isation": 3906,
      "Ġrepe": 3907,
      "rical": 3908,
      "Ġcandid": 3909,
      "ĠHel": 3910,
      "Ġ179": 3911,
      "Ġpair": 3912,
      "track": 3913,
      "Ġfr": 3914,
      "stitute": 3915,
      "ĠScotland": 3916,
      "Ġportray": 3917,
      "irmed": 3918,
      "Ġdirection": 3919,
      "ih": 3920,
      "ĠJones": 3921,
      "Ġseem": 3922,
      "Ġdism": 3923,
      "illery": 3924,
      "eway": 3925,
      "Ġschools": 3926,
      "Ġlegal": 3927,
      "house": 3928,
      "ĠTheir": 3929,
      "Äĩ": 3930,
      "ersey": 3931,
      "lict": 3932,
      "ĠAnn": 3933,
      "ĠInfantry": 3934,
      "Ġthick": 3935,
      "Ġreject": 3936,
      "fall": 3937,
      "ĠManc": 3938,
      "icip": 3939,
      "wide": 3940,
      "ĠDepartment": 3941,
      "inem": 3942,
      "Ġasp": 3943,
      "ani": 3944,
      "ĠCross": 3945,
      "aging": 3946,
      "Ġhorse": 3947,
      "Ġge": 3948,
      "light": 3949,
      "Ġpurs": 3950,
      "Ġrecomm": 3951,
      "Ġefforts": 3952,
      "Ġ+": 3953,
      "Ġcollege": 3954,
      "awn": 3955,
      "Ġmanaged": 3956,
      "ĠDou": 3957,
      "ĠGo": 3958,
      "Ġmarriage": 3959,
      "ĠGreek": 3960,
      "Ġending": 3961,
      "Ġ39": 3962,
      "Ġresulting": 3963,
      "like": 3964,
      "icient": 3965,
      "hy": 3966,
      "utions": 3967,
      "Ġresponsible": 3968,
      "ieutenant": 3969,
      "ĠThree": 3970,
      "irit": 3971,
      "Ġwing": 3972,
      "MS": 3973,
      "Ġshowed": 3974,
      "ĠLit": 3975,
      "band": 3976,
      "Ġdropped": 3977,
      "ĠPost": 3978,
      "Ġinside": 3979,
      "ĠMic": 3980,
      "Ġdisplay": 3981,
      "ĠBost": 3982,
      "illed": 3983,
      "Ġcyclone": 3984,
      "Ġ182": 3985,
      "Ġnation": 3986,
      "ĠFoot": 3987,
      "Ġenvironment": 3988,
      "Ġcases": 3989,
      "Ġkept": 3990,
      "Ġ48": 3991,
      "peror": 3992,
      "ĠCreek": 3993,
      "ĠLad": 3994,
      "ĠLeg": 3995,
      "Ġmorning": 3996,
      "Ġculture": 3997,
      "Ġrare": 3998,
      "Ġcust": 3999,
      "Ġmeaning": 4000,
      "olf": 4001,
      "Ġ42": 4002,
      "Ġrat": 4003,
      "Ġbegins": 4004,
      "Ġdom": 4005,
      "Ġincorpor": 4006,
      "Ġvariety": 4007,
      "ĠStone": 4008,
      "Ġhouses": 4009,
      "ceeded": 4010,
      "Ġsubst": 4011,
      "Ġchampionship": 4012,
      "Ġforms": 4013,
      "pe": 4014,
      "rane": 4015,
      "ĠService": 4016,
      "pass": 4017,
      "Ġarrest": 4018,
      "Ġwords": 4019,
      "Ġcerem": 4020,
      "ĠHung": 4021,
      "Ġschol": 4022,
      "cend": 4023,
      "Ġoil": 4024,
      "Ġinches": 4025,
      "ĠWilliams": 4026,
      "Ġcontinues": 4027,
      "Ġmarked": 4028,
      "Ġyard": 4029,
      "ĠRecords": 4030,
      "Ġspl": 4031,
      "ĠBC": 4032,
      "ĠSecret": 4033,
      "Ġ181": 4034,
      "Åį": 4035,
      "Ġperm": 4036,
      "ini": 4037,
      "ĠNews": 4038,
      "ecting": 4039,
      "ols": 4040,
      "Ġsymb": 4041,
      "gl": 4042,
      "Ġscience": 4043,
      "Ġbank": 4044,
      "gypt": 4045,
      "Ġuses": 4046,
      "ĠSur": 4047,
      "Ġeconomic": 4048,
      "ĠStan": 4049,
      "writ": 4050,
      "ĠTro": 4051,
      "ĠHal": 4052,
      "cle": 4053,
      "thel": 4054,
      "Ġdefend": 4055,
      "ĠParliament": 4056,
      "Ġsource": 4057,
      "bed": 4058,
      "ĠGames": 4059,
      "ĠFin": 4060,
      "Ġmetres": 4061,
      "ĠTri": 4062,
      "Ġlear": 4063,
      "ras": 4064,
      "Ġhundred": 4065,
      "ulations": 4066,
      "Ġquality": 4067,
      "Ġsettle": 4068,
      "ĠPan": 4069,
      "Ġ1942": 4070,
      "ĠBook": 4071,
      "Ġstarting": 4072,
      "Ġconducted": 4073,
      "wh": 4074,
      "Ġimpact": 4075,
      "thur": 4076,
      "Ġallowing": 4077,
      "Ġsides": 4078,
      "Ġspecific": 4079,
      "ĠEgypt": 4080,
      "Ġstrugg": 4081,
      "Ġbeat": 4082,
      "Ġpresence": 4083,
      "ĠSociety": 4084,
      "ĠOh": 4085,
      "ĠSol": 4086,
      "Ġamount": 4087,
      "een": 4088,
      "ĠJer": 4089,
      "Ġsuppl": 4090,
      "sych": 4091,
      "Ġchap": 4092,
      "Ġexhib": 4093,
      "Ġviewers": 4094,
      "Ġdu": 4095,
      "Ġdance": 4096,
      "Ġcaptain": 4097,
      "ingu": 4098,
      "Ġple": 4099,
      "ĠVer": 4100,
      "Ġrule": 4101,
      "Ġunivers": 4102,
      "Ġtransferred": 4103,
      "ĠLu": 4104,
      "Ġdistinct": 4105,
      "ĠSouthern": 4106,
      "ĠPrince": 4107,
      "Ġ65": 4108,
      "Ġmultiple": 4109,
      "ĠStephen": 4110,
      "ĠLatin": 4111,
      "ding": 4112,
      "Ġpotential": 4113,
      "ĠSat": 4114,
      "ĠCommittee": 4115,
      "ĠGeorg": 4116,
      "Ġforeign": 4117,
      "Ġcontrast": 4118,
      "Ġ47": 4119,
      "Ġenemy": 4120,
      "ĠOxford": 4121,
      "Ġpeaked": 4122,
      "Ġtraffic": 4123,
      "inet": 4124,
      "ping": 4125,
      "ĠSpec": 4126,
      "arian": 4127,
      "ĠJoseph": 4128,
      "itiz": 4129,
      "Ġyour": 4130,
      "Ġbecomes": 4131,
      "ĠSil": 4132,
      "Ġthings": 4133,
      "Ġmess": 4134,
      "Ġowned": 4135,
      "Ġfounded": 4136,
      "Ġgreater": 4137,
      "Ġportion": 4138,
      "ĠAdmiral": 4139,
      "ĠLike": 4140,
      "Ġvocal": 4141,
      "Ġencoun": 4142,
      "Ġconcluded": 4143,
      "ĠCamb": 4144,
      "Ġrespond": 4145,
      "ĠBoston": 4146,
      "Ġattempts": 4147,
      "iance": 4148,
      "kn": 4149,
      "Ġopt": 4150,
      "anes": 4151,
      "Ġrelatively": 4152,
      "rong": 4153,
      "ym": 4154,
      "Ġfederal": 4155,
      "ĠClass": 4156,
      "very": 4157,
      "ellig": 4158,
      "ider": 4159,
      "ĠManchester": 4160,
      "Ġscoring": 4161,
      "ĠChief": 4162,
      "Ġproperty": 4163,
      "Ġprimarily": 4164,
      "Ġstories": 4165,
      "Ġcastle": 4166,
      "Ġdemonst": 4167,
      "ĠTw": 4168,
      "Ġfinancial": 4169,
      "ĠHarrison": 4170,
      "ressive": 4171,
      "Ġactually": 4172,
      "ĠCaptain": 4173,
      "ĠJeff": 4174,
      "ĠBecause": 4175,
      "ĠTim": 4176,
      "ĠForm": 4177,
      "ograp": 4178,
      "ĠBefore": 4179,
      "Ġanimals": 4180,
      "Ġlif": 4181,
      "Ġtourn": 4182,
      "ĠBattalion": 4183,
      "ĠWin": 4184,
      "ĠVietn": 4185,
      "ĠHurricane": 4186,
      "Ġobserved": 4187,
      "ĠSwed": 4188,
      "Ġcollection": 4189,
      "Ġopportun": 4190,
      "ĠBat": 4191,
      "Ġ46": 4192,
      "ĠCommission": 4193,
      "fect": 4194,
      "ĠDen": 4195,
      "Ġ52": 4196,
      "istics": 4197,
      "Ġtitled": 4198,
      "Ġfeaturing": 4199,
      "Ġweaken": 4200,
      "Ġstrength": 4201,
      "Ġ1944": 4202,
      "ĠDef": 4203,
      "ĠBridge": 4204,
      "Ġwriters": 4205,
      "Ġwa": 4206,
      "Ġinch": 4207,
      "eds": 4208,
      "Ġwrite": 4209,
      "Ġjournal": 4210,
      "Ġsituation": 4211,
      "ĠFred": 4212,
      "umber": 4213,
      "ees": 4214,
      "Ġwor": 4215,
      "Ġmechan": 4216,
      "Ġpaid": 4217,
      "Ġspot": 4218,
      "Ġfigure": 4219,
      "Ġdistance": 4220,
      "Ġcompanies": 4221,
      "stein": 4222,
      "Ġparents": 4223,
      "Ġ64": 4224,
      "Ġpremi": 4225,
      "ĠOtt": 4226,
      "perial": 4227,
      "ĠLittle": 4228,
      "mas": 4229,
      "rel": 4230,
      "Ġindependent": 4231,
      "Ġmel": 4232,
      "Ġonto": 4233,
      "Ġdivided": 4234,
      "Ġacting": 4235,
      "Ġ43": 4236,
      "Ġactor": 4237,
      "Ġshare": 4238,
      "Ġmind": 4239,
      "Ġslightly": 4240,
      "aud": 4241,
      "ĠProdu": 4242,
      "ĠParis": 4243,
      "astic": 4244,
      "ĠLuc": 4245,
      "ĠGra": 4246,
      "ĠColumb": 4247,
      "ĠCarl": 4248,
      "ĠSeries": 4249,
      "Ġcollabor": 4250,
      "ĠLife": 4251,
      "Ġtarget": 4252,
      "lam": 4253,
      "Ġpiece": 4254,
      "Ġtorped": 4255,
      "ĠMod": 4256,
      "Ġpowerful": 4257,
      "Ġ44": 4258,
      "Ġfunction": 4259,
      "Ġreform": 4260,
      "anna": 4261,
      "Ġinnings": 4262,
      "Ġconcent": 4263,
      "Ġselling": 4264,
      "ĠEntertain": 4265,
      "oration": 4266,
      "thlet": 4267,
      "Ġera": 4268,
      "Ġrough": 4269,
      "Ġrating": 4270,
      "Ġbroke": 4271,
      "osaur": 4272,
      "ĠBBC": 4273,
      "chest": 4274,
      "ĠMax": 4275,
      "ĠPop": 4276,
      "mond": 4277,
      "istry": 4278,
      "ĠOs": 4279,
      "Ġtoday": 4280,
      "Ġplays": 4281,
      "ricket": 4282,
      "ĠHistor": 4283,
      "uge": 4284,
      "Ġultimately": 4285,
      "Ġlot": 4286,
      "Ġwaters": 4287,
      "Ġtrial": 4288,
      "Ġactions": 4289,
      "Ġcho": 4290,
      "annel": 4291,
      "ĠCroat": 4292,
      "Ġsquare": 4293,
      "Ġmaximum": 4294,
      "rown": 4295,
      "illa": 4296,
      "ero": 4297,
      "ada": 4298,
      "Ġtend": 4299,
      "itan": 4300,
      "load": 4301,
      "Ġinterp": 4302,
      "Ġdise": 4303,
      "Ġcompletely": 4304,
      "Ġbound": 4305,
      "Ġsought": 4306,
      "Ġlog": 4307,
      "ĠAcademy": 4308,
      "Ġpilot": 4309,
      "Ġ1920": 4310,
      "Ġgar": 4311,
      "Ġblue": 4312,
      "under": 4313,
      "rupt": 4314,
      "Ġess": 4315,
      "ĠMuseum": 4316,
      "oti": 4317,
      "Ġ1945": 4318,
      "mark": 4319,
      "Ġscale": 4320,
      "ĠHor": 4321,
      "Ġ1941": 4322,
      "Ġdesignated": 4323,
      "Ġsociety": 4324,
      "alle": 4325,
      "Ġmainly": 4326,
      "ĠLine": 4327,
      "Ġstruck": 4328,
      "Ġ150": 4329,
      "Ġhus": 4330,
      "ota": 4331,
      "Ġbehav": 4332,
      "ĠSk": 4333,
      "Ġconver": 4334,
      "Ġcombined": 4335,
      "Ġofficials": 4336,
      "ĠSaint": 4337,
      "Ġnortheast": 4338,
      "za": 4339,
      "Ġactivity": 4340,
      "Ġpolicy": 4341,
      "Ġvess": 4342,
      "Ġinfluenced": 4343,
      "Ġtransl": 4344,
      "omy": 4345,
      "ĠVan": 4346,
      "ylvan": 4347,
      "cers": 4348,
      "olved": 4349,
      "Ġsearch": 4350,
      "Ġsay": 4351,
      "ented": 4352,
      "ĠWay": 4353,
      "Ġwear": 4354,
      "Ġalongside": 4355,
      "Ġsout": 4356,
      "ĠBrigade": 4357,
      "Ġcorn": 4358,
      "AS": 4359,
      "ĠItaly": 4360,
      "ĠEntertainment": 4361,
      "Ġcalling": 4362,
      "racted": 4363,
      "Ġbatter": 4364,
      "iano": 4365,
      "Ġthous": 4366,
      "Ġseconds": 4367,
      "ĠArab": 4368,
      "while": 4369,
      "ĠAmericans": 4370,
      "ĠConf": 4371,
      "ĠWind": 4372,
      "Ġseg": 4373,
      "Ġsources": 4374,
      "Ġnaval": 4375,
      "ĠLee": 4376,
      "ĠIre": 4377,
      "orses": 4378,
      "Ġbackground": 4379,
      "Ġwinter": 4380,
      "ĠRegiment": 4381,
      "Ġcrow": 4382,
      "Ġice": 4383,
      "ala": 4384,
      "Ġplatform": 4385,
      "Ġnews": 4386,
      "Ġthir": 4387,
      "rative": 4388,
      "Ġwebs": 4389,
      "ĠTod": 4390,
      "phy": 4391,
      "quarters": 4392,
      "udd": 4393,
      "Ġsuc": 4394,
      "Ġrecent": 4395,
      "Ġmem": 4396,
      "aine": 4397,
      "Ġgained": 4398,
      "Ġnominated": 4399,
      "TV": 4400,
      "Ġtheory": 4401,
      "ĠAlb": 4402,
      "Ġartists": 4403,
      "onn": 4404,
      "ĠAvenue": 4405,
      "Ġpromoted": 4406,
      "Ġwidely": 4407,
      "ube": 4408,
      "adel": 4409,
      "Ġconfirmed": 4410,
      "ĠIreland": 4411,
      "HL": 4412,
      "Ġsystems": 4413,
      "Ġpassing": 4414,
      "Ġelectric": 4415,
      "Ġreaching": 4416,
      "Ġproved": 4417,
      "ibrary": 4418,
      "Ġinvasion": 4419,
      "ĠFleet": 4420,
      "Ġresults": 4421,
      "pson": 4422,
      "Ġconflict": 4423,
      "ĠEll": 4424,
      "Ġgreatest": 4425,
      "Ġsubsequent": 4426,
      "ĠGood": 4427,
      "Ġexplained": 4428,
      "Ġalbums": 4429,
      "Ġiron": 4430,
      "Ġcoming": 4431,
      "Ġpeace": 4432,
      "Ġnorthwest": 4433,
      "oured": 4434,
      "town": 4435,
      "Ġir": 4436,
      "Ġcontent": 4437,
      "ĠAut": 4438,
      "hew": 4439,
      "Ġsn": 4440,
      "Ġsixth": 4441,
      "Ġresist": 4442,
      "Ġ1989": 4443,
      "ĠRay": 4444,
      "Ġwick": 4445,
      "Ġcharge": 4446,
      "grad": 4447,
      "Ġcounty": 4448,
      "AF": 4449,
      "Ġhero": 4450,
      "Ġ1943": 4451,
      "Ġweather": 4452,
      "Ġshortly": 4453,
      "ĠOrig": 4454,
      "Ġsust": 4455,
      "Ġsays": 4456,
      "Ġadj": 4457,
      "aga": 4458,
      "ĠBus": 4459,
      "ĠSub": 4460,
      "Ġcausing": 4461,
      "ĠVictoria": 4462,
      "Ġserve": 4463,
      "Ġversions": 4464,
      "Ġ51": 4465,
      "Ġpath": 4466,
      "ĠSant": 4467,
      "ĠLo": 4468,
      "itness": 4469,
      "aling": 4470,
      "ĠTropical": 4471,
      "Ġexpressed": 4472,
      "Ġborder": 4473,
      "Ġseek": 4474,
      "Ġburn": 4475,
      "Ġreception": 4476,
      "ĠCharl": 4477,
      "Ġresidents": 4478,
      "iced": 4479,
      "bon": 4480,
      "ĠCatholic": 4481,
      "ĠWork": 4482,
      "Ġemot": 4483,
      "Ġcities": 4484,
      "ĠNorm": 4485,
      "Ġchem": 4486,
      "ĠAdd": 4487,
      "Ġsoundtrack": 4488,
      "ansion": 4489,
      "ĠValley": 4490,
      "Ġseasons": 4491,
      "ĠNin": 4492,
      "ĠMat": 4493,
      "ips": 4494,
      "infall": 4495,
      "Ġsense": 4496,
      "ĠLight": 4497,
      "Ġgreen": 4498,
      "Ġhospital": 4499,
      "Ġappearances": 4500,
      "Ġsexual": 4501,
      "ategory": 4502,
      "tation": 4503,
      "Ġartillery": 4504,
      "ĠDi": 4505,
      "Ġpun": 4506,
      "ĠMiddle": 4507,
      "unction": 4508,
      "Ġidentified": 4509,
      "Ġrequire": 4510,
      "ighth": 4511,
      "Ġhands": 4512,
      "Ġphysical": 4513,
      "Ġolder": 4514,
      "ĠThough": 4515,
      "ĠLive": 4516,
      "arden": 4517,
      "Ġdedic": 4518,
      "Ġtells": 4519,
      "Ġtrue": 4520,
      "Ġoffer": 4521,
      "Ġpal": 4522,
      "ĠRam": 4523,
      "ĠDun": 4524,
      "ĠCommun": 4525,
      "ysis": 4526,
      "Ġkg": 4527,
      "ĠLiber": 4528,
      "ĠThrough": 4529,
      "ĠShow": 4530,
      "Ġweapons": 4531,
      "ĠRy": 4532,
      "Ġrepresented": 4533,
      "ancy": 4534,
      "Ġahead": 4535,
      "Ġgas": 4536,
      "Ġextra": 4537,
      "ĠMen": 4538,
      "ĠFootball": 4539,
      "aded": 4540,
      "ĠTop": 4541,
      "ĠYoung": 4542,
      "ĠVol": 4543,
      "eption": 4544,
      "Ġheavily": 4545,
      "Ġimage": 4546,
      "ylvania": 4547,
      "ĠJul": 4548,
      "ronic": 4549,
      "ĠKar": 4550,
      "Ġeas": 4551,
      "ĠTay": 4552,
      "Ġdefense": 4553,
      "ĠDirect": 4554,
      "lers": 4555,
      "itable": 4556,
      "Ġchallen": 4557,
      "Ġsupp": 4558,
      "ĠUpon": 4559,
      "Ġavoid": 4560,
      "Ġagg": 4561,
      "ĠBey": 4562,
      "Ġapparent": 4563,
      "abeth": 4564,
      "ĠDutch": 4565,
      "ĠWeek": 4566,
      "Ġalone": 4567,
      "Ġstudent": 4568,
      "Ġspread": 4569,
      "Ġstudies": 4570,
      "known": 4571,
      "Ġofficially": 4572,
      "Ġdistrict": 4573,
      "ĠIll": 4574,
      "Ġhusband": 4575,
      "Ġbit": 4576,
      "Ġexecutive": 4577,
      "ĠEliz": 4578,
      "Ġprominent": 4579,
      "ĠFre": 4580,
      "Ġinstit": 4581,
      "Ġconsisted": 4582,
      "Ġorganization": 4583,
      "Ġstone": 4584,
      "essions": 4585,
      "Ġcapture": 4586,
      "Ġdebuted": 4587,
      "ĠAlbert": 4588,
      "Ġsend": 4589,
      "Ġinjury": 4590,
      "Ġfired": 4591,
      "ĠBond": 4592,
      "bur": 4593,
      "Ġwild": 4594,
      "ports": 4595,
      "Ġpattern": 4596,
      "Ġequipment": 4597,
      "Ġpoet": 4598,
      "Ġpack": 4599,
      "Ġprepar": 4600,
      "Ġresc": 4601,
      "Ġinstrument": 4602,
      "ĠFar": 4603,
      "ĠRog": 4604,
      "Ġfigures": 4605,
      "ĠCivil": 4606,
      "ĠBre": 4607,
      "Ġsurpris": 4608,
      "Ġexped": 4609,
      "ĠDam": 4610,
      "urban": 4611,
      "ushed": 4612,
      "Ġargued": 4613,
      "Ġox": 4614,
      "Ġaired": 4615,
      "pool": 4616,
      "Ġeth": 4617,
      "Ġring": 4618,
      "Ġpict": 4619,
      "Ġcontemporary": 4620,
      "Ġgrowth": 4621,
      "Ġcouple": 4622,
      "Ġdoing": 4623,
      "acity": 4624,
      "Ġreturning": 4625,
      "Ġhun": 4626,
      "Ġgraph": 4627,
      "Ġfloor": 4628,
      "rog": 4629,
      "ĠHomer": 4630,
      "Ġbud": 4631,
      "Ġmagn": 4632,
      "Ġcert": 4633,
      "Ġpan": 4634,
      "Ġweight": 4635,
      "Ġlaid": 4636,
      "Ġstep": 4637,
      "lines": 4638,
      "ĠStorm": 4639,
      "ĠNorthern": 4640,
      "Ġearth": 4641,
      "Ġdoub": 4642,
      "Ġpieces": 4643,
      "Ġmatter": 4644,
      "Ġ600": 4645,
      "Ġleaders": 4646,
      "Ġaffected": 4647,
      "Ġshell": 4648,
      "Ġtun": 4649,
      "Ġhabit": 4650,
      "ĠGal": 4651,
      "appen": 4652,
      "ĠTem": 4653,
      "Ġrang": 4654,
      "Ġmaintained": 4655,
      "amber": 4656,
      "Ġhere": 4657,
      "inson": 4658,
      "ias": 4659,
      "Ġcommunic": 4660,
      "Ġmaintain": 4661,
      "Ġtermin": 4662,
      "ĠHard": 4663,
      "ifying": 4664,
      "Ġpropos": 4665,
      "Ġoccasion": 4666,
      "Ġvisited": 4667,
      "emic": 4668,
      "Ġhyd": 4669,
      "Ġspeech": 4670,
      "ĠDaniel": 4671,
      "Ġcomes": 4672,
      "Ġrain": 4673,
      "Ġcriticized": 4674,
      "ental": 4675,
      "Ġactivities": 4676,
      "stone": 4677,
      "ola": 4678,
      "ĠHa": 4679,
      "rat": 4680,
      "Ġexec": 4681,
      "acement": 4682,
      "ĠCarolina": 4683,
      "Ġtoward": 4684,
      "Ġreign": 4685,
      "ĠJon": 4686,
      "Ġattract": 4687,
      "Ġemph": 4688,
      "ockey": 4689,
      "Ġtournament": 4690,
      "Ġcrowd": 4691,
      "Ġhall": 4692,
      "ocked": 4693,
      "ĠOperation": 4694,
      "uls": 4695,
      "Ġcitiz": 4696,
      "eed": 4697,
      "orne": 4698,
      "Ġsenior": 4699,
      "Ġtrees": 4700,
      "Ġsetting": 4701,
      "Ġsingles": 4702,
      "Ġreference": 4703,
      "Ġdrug": 4704,
      "Ġformation": 4705,
      "Ġ53": 4706,
      "elve": 4707,
      "Ġadapt": 4708,
      "Ġ1987": 4709,
      "Ġmedical": 4710,
      "ivity": 4711,
      "Ġsurre": 4712,
      "Ġmurder": 4713,
      "ĠMarsh": 4714,
      "ĠSystem": 4715,
      "ners": 4716,
      "ĠScottish": 4717,
      "uct": 4718,
      "Ġworldwide": 4719,
      "ĠGovernment": 4720,
      "Ġbul": 4721,
      "ĠRom": 4722,
      "Ġtrying": 4723,
      "Ġ1988": 4724,
      "ĠHolly": 4725,
      "ĠDistrict": 4726,
      "Ġterritory": 4727,
      "ĠField": 4728,
      "estic": 4729,
      "ruit": 4730,
      "Ġappl": 4731,
      "Ġnegoti": 4732,
      "ĠOcean": 4733,
      "Ġstations": 4734,
      "ĠWrit": 4735,
      "Ġmachine": 4736,
      "embly": 4737,
      "ĠBackground": 4738,
      "Ġdog": 4739,
      "Ġrainfall": 4740,
      "Ġload": 4741,
      "Ġclaims": 4742,
      "Ġdispl": 4743,
      "ĠGovernor": 4744,
      "Ġfellow": 4745,
      "eller": 4746,
      "Ġdoll": 4747,
      "ĠHome": 4748,
      "ĠColon": 4749,
      "Ġgod": 4750,
      "Ġ85": 4751,
      "Ġbirds": 4752,
      "ĠFantasy": 4753,
      "ĠDev": 4754,
      "gian": 4755,
      "ĠRod": 4756,
      "Ġhistorian": 4757,
      "ĠGuard": 4758,
      "Ġfully": 4759,
      "ĠChe": 4760,
      "resh": 4761,
      "Ġaccident": 4762,
      "Ġcell": 4763,
      "uled": 4764,
      "ĠPenns": 4765,
      "Ġrisk": 4766,
      "ote": 4767,
      "Ġvalue": 4768,
      "omers": 4769,
      "Ġtherefore": 4770,
      "Ġsplit": 4771,
      "bit": 4772,
      "Ġchosen": 4773,
      "Ġsupply": 4774,
      "Ġguest": 4775,
      "Ġtreatment": 4776,
      "rael": 4777,
      "ĠShort": 4778,
      "ĠDuke": 4779,
      "velopment": 4780,
      "Ġuniversity": 4781,
      "Ġgovernor": 4782,
      "ĠSenate": 4783,
      "Ġsens": 4784,
      "ampion": 4785,
      "ĠBeat": 4786,
      "Ġdyn": 4787,
      "Ġtwice": 4788,
      "Ġfrequently": 4789,
      "Ġreports": 4790,
      "Ġut": 4791,
      "ayer": 4792,
      "ordin": 4793,
      "ĠLew": 4794,
      "Ġleaves": 4795,
      "stitution": 4796,
      "gu": 4797,
      "Ġremark": 4798,
      "agn": 4799,
      "ĠStudios": 4800,
      "Ġfaced": 4801,
      "ĠGirl": 4802,
      "ĠPolish": 4803,
      "Ġpaper": 4804,
      "aly": 4805,
      "illy": 4806,
      "izes": 4807,
      "ledge": 4808,
      "ĠEastern": 4809,
      "Ġwalls": 4810,
      "Ġoperated": 4811,
      "Ġlabel": 4812,
      "ĠCorn": 4813,
      "ĠMD": 4814,
      "Ġwounded": 4815,
      "Ġbillion": 4816,
      "Ġfollows": 4817,
      "Ġopin": 4818,
      "ĠMean": 4819,
      "Ġsurrounding": 4820,
      "azz": 4821,
      "Ġgrew": 4822,
      "ĠBart": 4823,
      "antly": 4824,
      "ufact": 4825,
      "Ġplanet": 4826,
      "ĠAndrew": 4827,
      "ĠRos": 4828,
      "Ġswe": 4829,
      "min": 4830,
      "rect": 4831,
      "Ġcontained": 4832,
      "ĠChristmas": 4833,
      "ĠAllied": 4834,
      "orter": 4835,
      "Ġcondition": 4836,
      "Ġmanufact": 4837,
      "onents": 4838,
      "resp": 4839,
      "antine": 4840,
      "Ġdegree": 4841,
      "rance": 4842,
      "Ġbal": 4843,
      "gend": 4844,
      "Ġherself": 4845,
      "isco": 4846,
      "ĠJud": 4847,
      "ĠNight": 4848,
      "Ġaccompan": 4849,
      "Ġcolor": 4850,
      "Ġhorses": 4851,
      "Ġsle": 4852,
      "Ġpasses": 4853,
      "Ġ54": 4854,
      "tar": 4855,
      "ety": 4856,
      "Ġescape": 4857,
      "Ġtypically": 4858,
      "Ġunf": 4859,
      "Ġreinf": 4860,
      "mit": 4861,
      "Ġfuel": 4862,
      "Ġmaster": 4863,
      "isters": 4864,
      "Ġsimply": 4865,
      "ĠWilson": 4866,
      "Ġbrown": 4867,
      "ĠTaylor": 4868,
      "fully": 4869,
      "utation": 4870,
      "Ġelement": 4871,
      "ĠInst": 4872,
      "Ã¨": 4873,
      "Ġorders": 4874,
      "Ġdraft": 4875,
      "Ġlives": 4876,
      "Ġrailway": 4877,
      "Ġdang": 4878,
      "ĠPen": 4879,
      "Ġ1986": 4880,
      "Ġcasual": 4881,
      "aming": 4882,
      "Ġeditor": 4883,
      "la": 4884,
      "ĠHead": 4885,
      "Ġarms": 4886,
      "more": 4887,
      "Ġserving": 4888,
      "Ġcamer": 4889,
      "uous": 4890,
      "Ġphil": 4891,
      "Ġconsecutive": 4892,
      "Ġ95": 4893,
      "Ġ97": 4894,
      "Ġmoment": 4895,
      "ĠElizabeth": 4896,
      "Ġfan": 4897,
      "Ġchose": 4898,
      "ĠHum": 4899,
      "Ġnothing": 4900,
      "Ġauthority": 4901,
      "ographer": 4902,
      "ĠJoe": 4903,
      "ĠAlexander": 4904,
      "Ġcannot": 4905,
      "Ġvote": 4906,
      "ĠEach": 4907,
      "Ġ56": 4908,
      "ricult": 4909,
      "Ġworkers": 4910,
      "ĠOf": 4911,
      "Ġunknown": 4912,
      "Ġnewly": 4913,
      "Ġnative": 4914,
      "ĠMike": 4915,
      "Ġopposed": 4916,
      "ĠGi": 4917,
      "ucky": 4918,
      "Ġparticipated": 4919,
      "Ġemphas": 4920,
      "isf": 4921,
      "ĠJac": 4922,
      "ĠLes": 4923,
      "ancing": 4924,
      "Ġexperiment": 4925,
      "Ġgrowing": 4926,
      "rich": 4927,
      "ĠWW": 4928,
      "ĠÎ": 4929,
      "ĠPers": 4930,
      "ager": 4931,
      "Ġattrib": 4932,
      "Ġpsych": 4933,
      "Ġbass": 4934,
      "Ġwebsite": 4935,
      "ef": 4936,
      "ĠDet": 4937,
      "Ġlosing": 4938,
      "Ġnewspaper": 4939,
      "ãĤ": 4940,
      "Ġfair": 4941,
      "ype": 4942,
      "Ġproducers": 4943,
      "Ġadopted": 4944,
      "ĠLand": 4945,
      "Ġadvanced": 4946,
      "Ġbenef": 4947,
      "ilies": 4948,
      "Ġfilming": 4949,
      "ĠExp": 4950,
      "Ġoffensive": 4951,
      "ĠCastle": 4952,
      "Ġheard": 4953,
      "Ã¤": 4954,
      "imens": 4955,
      "ĠFestival": 4956,
      "then": 4957,
      "Ġsevere": 4958,
      "ĠSound": 4959,
      "ĠRet": 4960,
      "Ġguard": 4961,
      "Ġspirit": 4962,
      "ĠIslands": 4963,
      "ĠPennsylvania": 4964,
      "ĠWat": 4965,
      "Ġopposition": 4966,
      "Ġsquadron": 4967,
      "Ġfeed": 4968,
      "ĠWhat": 4969,
      "Ġfirm": 4970,
      "Ġsequence": 4971,
      "Ġextend": 4972,
      "pton": 4973,
      "Ġactors": 4974,
      "ĠHy": 4975,
      "Ġfiction": 4976,
      "Ġrear": 4977,
      "Ġbasis": 4978,
      "Ġcapacity": 4979,
      "Ġcouncil": 4980,
      "Ġrom": 4981,
      "orship": 4982,
      "ĠCard": 4983,
      "Ġweak": 4984,
      "TC": 4985,
      "Ġends": 4986,
      "Ġadvant": 4987,
      "Ġabandoned": 4988,
      "ĠGall": 4989,
      "Ġ177": 4990,
      "Ġprin": 4991,
      "ĠFurther": 4992,
      "anda": 4993,
      "ĠReception": 4994,
      "zy": 4995,
      "uses": 4996,
      "Ġast": 4997,
      "Ġcompar": 4998,
      "isers": 4999,
      "ura": 5000,
      "ĠIrish": 5001,
      "aven": 5002,
      "ĠBlue": 5003,
      "Ġrival": 5004,
      "Ġevac": 5005,
      "Ġprompt": 5006,
      "iated": 5007,
      "Ġhonor": 5008,
      "ables": 5009,
      "ĠSS": 5010,
      "ĠTech": 5011,
      "Ġflying": 5012,
      "Ġenter": 5013,
      "Ġelev": 5014,
      "ĠFam": 5015,
      "Ġkick": 5016,
      "ĠBab": 5017,
      "lement": 5018,
      "ĠSpain": 5019,
      "ĠHarry": 5020,
      "Ġcoal": 5021,
      "Ġbey": 5022,
      "Ġcreating": 5023,
      "Ġdeploy": 5024,
      "ocated": 5025,
      "Ġfilmed": 5026,
      "Ġlaunch": 5027,
      "ĠJersey": 5028,
      "Ġhomes": 5029,
      "BA": 5030,
      "Ġpoll": 5031,
      "Ġhappen": 5032,
      "Ġregarded": 5033,
      "Ġeye": 5034,
      "Ġnormal": 5035,
      "Ġincident": 5036,
      "onc": 5037,
      "ĠCat": 5038,
      "Ġexpansion": 5039,
      "Ġindividuals": 5040,
      "Ġ76": 5041,
      "Ġ178": 5042,
      "Ġcriticism": 5043,
      "Ġagreement": 5044,
      "Ġbeyond": 5045,
      "ounger": 5046,
      "Ġsail": 5047,
      "ĠUs": 5048,
      "eld": 5049,
      "Ġsports": 5050,
      "Ġspect": 5051,
      "Ġdelay": 5052,
      "ĠSquare": 5053,
      "ĠCa": 5054,
      "iner": 5055,
      "Ġspring": 5056,
      "Ġfailure": 5057,
      "ĠCoast": 5058,
      "apers": 5059,
      "Ġchair": 5060,
      "Ġliber": 5061,
      "ĠAre": 5062,
      "FA": 5063,
      "Ġstrike": 5064,
      "Ġdismiss": 5065,
      "Ġfamous": 5066,
      "ĠBul": 5067,
      "Ġinte": 5068,
      "Ġboat": 5069,
      "ima": 5070,
      "ĠLind": 5071,
      "Ġvo": 5072,
      "ĠUl": 5073,
      "imet": 5074,
      "ĠFe": 5075,
      "Ġmeasure": 5076,
      "Ġpossibly": 5077,
      "Ġ1939": 5078,
      "ĠSand": 5079,
      "Ġhistorical": 5080,
      "Ġbodies": 5081,
      "Ġmob": 5082,
      "Ġprogress": 5083,
      "Ġnegative": 5084,
      "ĠCD": 5085,
      "Ġcontact": 5086,
      "ĠPublic": 5087,
      "Ġachieved": 5088,
      "ifications": 5089,
      "Ġroles": 5090,
      "ĠBroad": 5091,
      "Ġkilling": 5092,
      "Ġbelieve": 5093,
      "Ġnarrow": 5094,
      "Ġsilver": 5095,
      "ĠEnd": 5096,
      "ĠWild": 5097,
      "ĠProduction": 5098,
      "iny": 5099,
      "ico": 5100,
      "ĠElect": 5101,
      "ĠCy": 5102,
      "Ġretired": 5103,
      "ĠMul": 5104,
      "ĠIsrael": 5105,
      "ienced": 5106,
      "Ġideas": 5107,
      "Ġur": 5108,
      "ĠVen": 5109,
      "onent": 5110,
      "Ġtorpedo": 5111,
      "ĠLy": 5112,
      "ĠInstitute": 5113,
      "Ġdrive": 5114,
      "Ġpet": 5115,
      "Ġimag": 5116,
      "mosp": 5117,
      "Ġpersonnel": 5118,
      "iana": 5119,
      "Ġtask": 5120,
      "Ġ61": 5121,
      "Ġdisease": 5122,
      "Ġ1985": 5123,
      "Ġbriefly": 5124,
      "ĠDoctor": 5125,
      "ĠDue": 5126,
      "hol": 5127,
      "Ġarmed": 5128,
      "war": 5129,
      "ĠArthur": 5130,
      "Ġdiam": 5131,
      "Ġ1968": 5132,
      "Ġ66": 5133,
      "ĠRevolution": 5134,
      "Ġtower": 5135,
      "imal": 5136,
      "Ġarrang": 5137,
      "edom": 5138,
      "Ġeffective": 5139,
      "Ġnecessary": 5140,
      "Ġroads": 5141,
      "kins": 5142,
      "ĠMeanwhile": 5143,
      "Ġkilometres": 5144,
      "Ġperman": 5145,
      "ocks": 5146,
      "Ġapplic": 5147,
      "ĠLiver": 5148,
      "Ġgranted": 5149,
      "Ġrepeated": 5150,
      "Ġinfantry": 5151,
      "Ġtree": 5152,
      "ĠTy": 5153,
      "ĠAsh": 5154,
      "ĠCub": 5155,
      "ĠRepublican": 5156,
      "ĠSund": 5157,
      "Ġbudget": 5158,
      "Ġreceive": 5159,
      "Ġadministration": 5160,
      "Ġcolumn": 5161,
      "ĠMir": 5162,
      "Ġrejected": 5163,
      "Ġinh": 5164,
      "kes": 5165,
      "ĠPerson": 5166,
      "Ġinterchange": 5167,
      "Ġtwelve": 5168,
      "Ġtable": 5169,
      "Ġgross": 5170,
      "enger": 5171,
      "ĠAlbum": 5172,
      "Ġimproved": 5173,
      "Ġleadership": 5174,
      "ĠClark": 5175,
      "Ġturns": 5176,
      "iments": 5177,
      "avalry": 5178,
      "Ġextensive": 5179,
      "Ġstraight": 5180,
      "ĠOhio": 5181,
      "worth": 5182,
      "Ġlanding": 5183,
      "Ġyellow": 5184,
      "Ġparalle": 5185,
      "ourney": 5186,
      "aved": 5187,
      "Ġlands": 5188,
      "Ġdata": 5189,
      "Ġcrossing": 5190,
      "Ġseat": 5191,
      "Ġmanagement": 5192,
      "Ġplants": 5193,
      "Ġpurpose": 5194,
      "och": 5195,
      "zil": 5196,
      "Ġexpress": 5197,
      "Ġbroken": 5198,
      "ĠBoard": 5199,
      "Ġchoice": 5200,
      "Ġmile": 5201,
      "Ġdescribes": 5202,
      "Ġexpanded": 5203,
      "iÄĩ": 5204,
      "Ġsuccessfully": 5205,
      "gers": 5206,
      "Ġdefin": 5207,
      "ĠBell": 5208,
      "lusion": 5209,
      "oln": 5210,
      "Ġintellig": 5211,
      "Ġsolo": 5212,
      "set": 5213,
      "etball": 5214,
      "Ġfranch": 5215,
      "Ġtru": 5216,
      "ĠSecretary": 5217,
      "Ġfought": 5218,
      "oma": 5219,
      "Ġdeliver": 5220,
      "Ġexplos": 5221,
      "adelph": 5222,
      "Ġlearn": 5223,
      "Ġ1984": 5224,
      "uate": 5225,
      "ĠEp": 5226,
      "Ġorganized": 5227,
      "Ġdidn": 5228,
      "Ġcaught": 5229,
      "Ġanimal": 5230,
      "ĠProt": 5231,
      "ĠBurn": 5232,
      "ĠSa": 5233,
      "ĠHit": 5234,
      "Ġ800": 5235,
      "Ġchor": 5236,
      "Ġroof": 5237,
      "ĠPhiladelph": 5238,
      "Ġexcl": 5239,
      "Ġvehicles": 5240,
      "Ġancient": 5241,
      "ĠBru": 5242,
      "Ġsuggests": 5243,
      "erc": 5244,
      "Ġcommissioned": 5245,
      "ĠEven": 5246,
      "ev": 5247,
      "Ġplaces": 5248,
      "haps": 5249,
      "rif": 5250,
      "ĠIS": 5251,
      "stream": 5252,
      "Ġacquired": 5253,
      "ĠMov": 5254,
      "Ġglob": 5255,
      "Ġcommittee": 5256,
      "Ġdrama": 5257,
      "ĠNever": 5258,
      "Ġ57": 5259,
      "ĠGeorgia": 5260,
      "Ġunsu": 5261,
      "ĠCambridge": 5262,
      "ĠSher": 5263,
      "Ġcomedy": 5264,
      "Ġcreation": 5265,
      "Ġtypes": 5266,
      "Ġarticle": 5267,
      "Ġgives": 5268,
      "ĠLar": 5269,
      "appy": 5270,
      "ms": 5271,
      "Ġseventh": 5272,
      "Ġfat": 5273,
      "Ġ120": 5274,
      "ĠPhiladelphia": 5275,
      "Ġwave": 5276,
      "Ġprefer": 5277,
      "Ġsoft": 5278,
      "akers": 5279,
      "zer": 5280,
      "etts": 5281,
      "Ġheadquarters": 5282,
      "aith": 5283,
      "ii": 5284,
      "Ġnuclear": 5285,
      "ĠAlso": 5286,
      "Ġauthorities": 5287,
      "Ġgenus": 5288,
      "Ġcontain": 5289,
      "ĠCommon": 5290,
      "ĠRel": 5291,
      "Ġsecurity": 5292,
      "restling": 5293,
      "Ġdetermined": 5294,
      "ĠSR": 5295,
      "Ġ1967": 5296,
      "Ġroll": 5297,
      "Ġtrav": 5298,
      "Ġbott": 5299,
      "Ġislands": 5300,
      "Ġcenturies": 5301,
      "ĠAddition": 5302,
      "uan": 5303,
      "Ġbeaut": 5304,
      "Ġcommonly": 5305,
      "rin": 5306,
      "Ġmentioned": 5307,
      "ns": 5308,
      "ĠRussia": 5309,
      "Ġrecently": 5310,
      "attle": 5311,
      "Ġstreet": 5312,
      "oted": 5313,
      "Ġlooking": 5314,
      "ĠWars": 5315,
      "ipl": 5316,
      "Ġcontrolled": 5317,
      "Ġfavour": 5318,
      "ĠMah": 5319,
      "umes": 5320,
      "Ġ62": 5321,
      "amin": 5322,
      "Ġencoura": 5323,
      "ĠAmong": 5324,
      "ĠGil": 5325,
      "oles": 5326,
      "Ġfamilies": 5327,
      "Ġbattalion": 5328,
      "Ġaim": 5329,
      "ĠKorean": 5330,
      "Ġhousehold": 5331,
      "ĠArg": 5332,
      "Ġacad": 5333,
      "Ġsand": 5334,
      "arts": 5335,
      "Ġfinds": 5336,
      "outs": 5337,
      "Ġwithdraw": 5338,
      "Ġadvert": 5339,
      "Ġdecre": 5340,
      "Ġsets": 5341,
      "ishes": 5342,
      "ĠNintend": 5343,
      "uting": 5344,
      "Ġsuppor": 5345,
      "Ġdrop": 5346,
      "Ġstanding": 5347,
      "Ġillust": 5348,
      "ĠLiverpool": 5349,
      "gn": 5350,
      "Ġla": 5351,
      "va": 5352,
      "Ġunp": 5353,
      "ĠHay": 5354,
      "ĠLinc": 5355,
      "ĠNintendo": 5356,
      "ĠJenn": 5357,
      "Ġreflect": 5358,
      "ĠChap": 5359,
      "Ġsinging": 5360,
      "Ġdeck": 5361,
      "Ġfish": 5362,
      "Ġven": 5363,
      "ĠKa": 5364,
      "Ġsac": 5365,
      "Ġdial": 5366,
      "ĠBad": 5367,
      "ĠPrime": 5368,
      "ĠEarl": 5369,
      "itled": 5370,
      "ĠColumbia": 5371,
      "Ġunique": 5372,
      "ĠAsia": 5373,
      "Ġheight": 5374,
      "Ġprotect": 5375,
      "Ġentirely": 5376,
      "Ġtouchdown": 5377,
      "Ġcontaining": 5378,
      "Ġcultural": 5379,
      "Ġdefence": 5380,
      "Ġfinish": 5381,
      "Ġtry": 5382,
      "water": 5383,
      "Ġcontributed": 5384,
      "Ġorchest": 5385,
      "ĠSingap": 5386,
      "oh": 5387,
      "Ġthemes": 5388,
      "Ġmist": 5389,
      "ĠDevelopment": 5390,
      "ĠLieutenant": 5391,
      "ĠJewish": 5392,
      "ĠLincoln": 5393,
      "illing": 5394,
      "Ġprovides": 5395,
      "Ġyounger": 5396,
      "Ġ58": 5397,
      "Ġflooding": 5398,
      "Ġ1983": 5399,
      "pping": 5400,
      "ĠBrazil": 5401,
      "Ġpurchased": 5402,
      "Ġ74": 5403,
      "room": 5404,
      "Ġdefensive": 5405,
      "Ġmis": 5406,
      "ĠChild": 5407,
      "Ġawards": 5408,
      "Ġatmosp": 5409,
      "Ġconvers": 5410,
      "Ġarrival": 5411,
      "Ġtitles": 5412,
      "Ġscheduled": 5413,
      "inity": 5414,
      "ĠHun": 5415,
      "ulate": 5416,
      "Ġpowers": 5417,
      "ĠCarey": 5418,
      "ĠOffice": 5419,
      "icial": 5420,
      "Ġresemb": 5421,
      "Ġ1969": 5422,
      "ĠFrancisco": 5423,
      "Ġthing": 5424,
      "ĠSingapore": 5425,
      "respond": 5426,
      "Ġaccompanied": 5427,
      "ĠSix": 5428,
      "Ġunus": 5429,
      "rons": 5430,
      "ĠPeople": 5431,
      "Ġintensity": 5432,
      "Ġ1964": 5433,
      "ĠRol": 5434,
      "Ġexpedition": 5435,
      "Ġperfect": 5436,
      "Ġexisting": 5437,
      "agan": 5438,
      "wall": 5439,
      "ĠPot": 5440,
      "Ġquite": 5441,
      "wick": 5442,
      "Ġadvantage": 5443,
      "Ġworth": 5444,
      "Ġ72": 5445,
      "Ġlocations": 5446,
      "ĠHon": 5447,
      "atures": 5448,
      "Ġinteract": 5449,
      "Ġceremony": 5450,
      "Ġdedicated": 5451,
      "Ġperforming": 5452,
      "Ġrequest": 5453,
      "Ġbat": 5454,
      "acted": 5455,
      "ĠDark": 5456,
      "Ġphilos": 5457,
      "Ġsquad": 5458,
      "Ġextrem": 5459,
      "Ġcomputer": 5460,
      "ĠBor": 5461,
      "ker": 5462,
      "ĠTam": 5463,
      "Ġ1914": 5464,
      "ĠTurn": 5465,
      "ĠLis": 5466,
      "Ġoccupied": 5467,
      "Ġstore": 5468,
      "ĠKey": 5469,
      "ĠHMS": 5470,
      "ĠDisney": 5471,
      "Ġty": 5472,
      "laim": 5473,
      "Ġfresh": 5474,
      "Ġwhy": 5475,
      "ĠâĪ": 5476,
      "dy": 5477,
      "Ġmounted": 5478,
      "Ġcarry": 5479,
      "Ġ1918": 5480,
      "Station": 5481,
      "iling": 5482,
      "Ġboats": 5483,
      "Ġmouth": 5484,
      "ashion": 5485,
      "ĠOrder": 5486,
      "Ġ1971": 5487,
      "ĠPlayStation": 5488,
      "ta": 5489,
      "Ġ1982": 5490,
      "Ġnob": 5491,
      "Ġcurrently": 5492,
      "Ġfix": 5493,
      "usc": 5494,
      "ĠKel": 5495,
      "yles": 5496,
      "ĠMot": 5497,
      "Ġclosely": 5498,
      "ĠDie": 5499,
      "rations": 5500,
      "Ġconsists": 5501,
      "ĠBalt": 5502,
      "fort": 5503,
      "Ġtim": 5504,
      "ĠAnderson": 5505,
      "Ġtail": 5506,
      "Ġ1972": 5507,
      "Ġ1966": 5508,
      "ĠConference": 5509,
      "Ġ1979": 5510,
      "ĠLewis": 5511,
      "Ġ59": 5512,
      "ĠSteve": 5513,
      "mann": 5514,
      "Ġsession": 5515,
      "Ġmic": 5516,
      "Ġlic": 5517,
      "ĠBrook": 5518,
      "ĠMiller": 5519,
      "pper": 5520,
      "Ġcricket": 5521,
      "hens": 5522,
      "Ġindustrial": 5523,
      "ava": 5524,
      "ĠBas": 5525,
      "Ġsimple": 5526,
      "ĠRadio": 5527,
      "Ġvari": 5528,
      "Ġegg": 5529,
      "Ġelimin": 5530,
      "Ġsteam": 5531,
      "Ġcold": 5532,
      "Ġfacilities": 5533,
      "ĠByz": 5534,
      "Ġsupporting": 5535,
      "mouth": 5536,
      "Ġprotection": 5537,
      "ĠOnce": 5538,
      "Ġdrawn": 5539,
      "Ġpiano": 5540,
      "ilton": 5541,
      "ĠSu": 5542,
      "Ġrow": 5543,
      "ĠGrant": 5544,
      "Ġbelong": 5545,
      "ĠOlympic": 5546,
      "Ġrise": 5547,
      "ĠConn": 5548,
      "Ġrated": 5549,
      "Ġdefined": 5550,
      "Ġsubmar": 5551,
      "ware": 5552,
      "ĠPu": 5553,
      "Ġtrains": 5554,
      "Ġselection": 5555,
      "ĠShak": 5556,
      "ĠEmperor": 5557,
      "Ġpros": 5558,
      "ĠBrian": 5559,
      "Ġregions": 5560,
      "Ġ1965": 5561,
      "Ġstructures": 5562,
      "awa": 5563,
      "Ġaid": 5564,
      "Ġprotected": 5565,
      "ĠBarb": 5566,
      "otic": 5567,
      "Ġharm": 5568,
      "Ġcalls": 5569,
      "iro": 5570,
      "Ġfocused": 5571,
      "Ġthrow": 5572,
      "Ġ#": 5573,
      "Ġhair": 5574,
      "ĠRailway": 5575,
      "gest": 5576,
      "Ġmotion": 5577,
      "Ġreceiving": 5578,
      "Ġengaged": 5579,
      "Ġshooting": 5580,
      "Ġcomic": 5581,
      "verse": 5582,
      "ĠPress": 5583,
      "ba": 5584,
      "Ġlabor": 5585,
      "ĠNHL": 5586,
      "Ġadap": 5587,
      "Ġopportunity": 5588,
      "Ġlap": 5589,
      "Ġ1975": 5590,
      "ingly": 5591,
      "ĠGib": 5592,
      "Ġcorrespond": 5593,
      "Ġ99": 5594,
      "ĠMu": 5595,
      "iration": 5596,
      "ĠGulf": 5597,
      "Ġanalysis": 5598,
      "Ġstrengthen": 5599,
      "Ġshark": 5600,
      "Ġmotor": 5601,
      "ua": 5602,
      "osa": 5603,
      "Ġsport": 5604,
      "ĠSummer": 5605,
      "Ġnotable": 5606,
      "uzz": 5607,
      "Ġcitizens": 5608,
      "Ġobserv": 5609,
      "Ġexperienced": 5610,
      "Ġmountain": 5611,
      "Ġconference": 5612,
      "ĠJr": 5613,
      "Ġholding": 5614,
      "ĠWater": 5615,
      "sey": 5616,
      "ĠWalter": 5617,
      "ĠHollywood": 5618,
      "ĠAv": 5619,
      "ults": 5620,
      "Ġsoutheast": 5621,
      "Ã¸": 5622,
      "Ġeyes": 5623,
      "ĠGermans": 5624,
      "ĠLab": 5625,
      "Ġproviding": 5626,
      "ĠInc": 5627,
      "Ġresident": 5628,
      "ĠOnly": 5629,
      "inth": 5630,
      "olid": 5631,
      "inger": 5632,
      "ĠHan": 5633,
      "Ġrapidly": 5634,
      "ĠAtt": 5635,
      "Ġvisual": 5636,
      "ĠSerb": 5637,
      "Ġcasualties": 5638,
      "Ġviewed": 5639,
      "Ġhired": 5640,
      "ading": 5641,
      "Ġ1974": 5642,
      "Ġbranch": 5643,
      "Ġmut": 5644,
      "FL": 5645,
      "Ġmerch": 5646,
      "Ġcharts": 5647,
      "ifically": 5648,
      "unior": 5649,
      "ĠDavis": 5650,
      "opher": 5651,
      "Ġtransform": 5652,
      "Ġalle": 5653,
      "Ġrecognized": 5654,
      "Ġ1973": 5655,
      "ĠSpecial": 5656,
      "Ġvac": 5657,
      "heim": 5658,
      "Ġrob": 5659,
      "Ġ63": 5660,
      "ĠDemocratic": 5661,
      "ĠUN": 5662,
      "Ġ77": 5663,
      "Ġsites": 5664,
      "Ġscholars": 5665,
      "Ġvolume": 5666,
      "iler": 5667,
      "ĠReview": 5668,
      "burgh": 5669,
      "Ġsteel": 5670,
      "Ġreaction": 5671,
      "Ġparallel": 5672,
      "essed": 5673,
      "Ġ73": 5674,
      "Ġgain": 5675,
      "ĠRome": 5676,
      "Ġconcer": 5677,
      "ĠKir": 5678,
      "ĠBetween": 5679,
      "ĠDown": 5680,
      "Ġshared": 5681,
      "Ġprote": 5682,
      "Ġteach": 5683,
      "Ġhyp": 5684,
      "ĠFall": 5685,
      "Ġedge": 5686,
      "Ġcart": 5687,
      "Ġpublication": 5688,
      "ĠJean": 5689,
      "Ġ1976": 5690,
      "Ġmoder": 5691,
      "Ġtemperature": 5692,
      "Ġdigital": 5693,
      "Ġeconomy": 5694,
      "Ġdeveloping": 5695,
      "roll": 5696,
      "ĠTen": 5697,
      "Ġintersection": 5698,
      "Ġheads": 5699,
      "ĠBank": 5700,
      "Ġcool": 5701,
      "ĠProv": 5702,
      "ĠNaz": 5703,
      "standing": 5704,
      "box": 5705,
      "ĠNap": 5706,
      "friend": 5707,
      "Ġsymbol": 5708,
      "Ġsecondary": 5709,
      "zen": 5710,
      "Ġapproved": 5711,
      "yer": 5712,
      "ĠGord": 5713,
      "ĠLady": 5714,
      "Ġlosses": 5715,
      "Ġchance": 5716,
      "ĠPrinc": 5717,
      "ali": 5718,
      "Ġvon": 5719,
      "Ã¡n": 5720,
      "Ġhydro": 5721,
      "Ġrac": 5722,
      "omew": 5723,
      "itors": 5724,
      "ĠMas": 5725,
      "ĠOb": 5726,
      "ologist": 5727,
      "Ġwitness": 5728,
      "Ġprepared": 5729,
      "Ġcontest": 5730,
      "Ġenl": 5731,
      "Ġsubstant": 5732,
      "oncÃ©": 5733,
      "Ġbelief": 5734,
      "ĠDaily": 5735,
      "iful": 5736,
      "rence": 5737,
      "rant": 5738,
      "Ġsignificantly": 5739,
      "Ġmyth": 5740,
      "ĠWomen": 5741,
      "ographic": 5742,
      "Ġletters": 5743,
      "ĠPhilipp": 5744,
      "ĠMusl": 5745,
      "Ġsort": 5746,
      "Ġbands": 5747,
      "ĠSyd": 5748,
      "onder": 5749,
      "Ġdomestic": 5750,
      "achus": 5751,
      "Ġcard": 5752,
      "asty": 5753,
      "Ġ250": 5754,
      "Ġsave": 5755,
      "Ġinstruct": 5756,
      "Ġdescend": 5757,
      "Ġunsuccess": 5758,
      "Ġknew": 5759,
      "Ġsouthwest": 5760,
      "ĠCommand": 5761,
      "Ġ67": 5762,
      "Ġfranchise": 5763,
      "Ġtank": 5764,
      "Ġliterature": 5765,
      "unte": 5766,
      "ryst": 5767,
      "Ġgoes": 5768,
      "Ġroughly": 5769,
      "eral": 5770,
      "aka": 5771,
      "break": 5772,
      "ĠMain": 5773,
      "Ġpainting": 5774,
      "Ġsemi": 5775,
      "ĠBeyoncÃ©": 5776,
      "Ġactress": 5777,
      "Ġassault": 5778,
      "Ġtechnology": 5779,
      "ora": 5780,
      "ĠColonel": 5781,
      "enc": 5782,
      "Ġurban": 5783,
      "theless": 5784,
      "Ġpitch": 5785,
      "Ġadvent": 5786,
      "range": 5787,
      "Ġanything": 5788,
      "Ġprojects": 5789,
      "Ġcab": 5790,
      "Ġcore": 5791,
      "ĠIndust": 5792,
      "ĠNick": 5793,
      "Ġbrothers": 5794,
      "Ġcars": 5795,
      "ĠBern": 5796,
      "ĠPoint": 5797,
      "ĠPlan": 5798,
      "Ġadult": 5799,
      "Ġresistance": 5800,
      "Ġlb": 5801,
      "Ġshape": 5802,
      "Ġexact": 5803,
      "Ġgameplay": 5804,
      "ella": 5805,
      "ients": 5806,
      "Ġstoryline": 5807,
      "ĠSupreme": 5808,
      "Ġemployed": 5809,
      "ĠKentucky": 5810,
      "ĠIV": 5811,
      "ropri": 5812,
      "ads": 5813,
      "iminal": 5814,
      "Ġinjured": 5815,
      "ulpt": 5816,
      "ĠVar": 5817,
      "Ġreasons": 5818,
      "Ġrules": 5819,
      "ĠWhit": 5820,
      "ĠIndepend": 5821,
      "Ġdaily": 5822,
      "Ġagent": 5823,
      "Ġ1946": 5824,
      "ĠStation": 5825,
      "ĠSpring": 5826,
      "Ġign": 5827,
      "Ġshall": 5828,
      "Ġ1981": 5829,
      "ĠFair": 5830,
      "Ġwatched": 5831,
      "Ġ82": 5832,
      "Ġ96": 5833,
      "Ġpopularity": 5834,
      "ira": 5835,
      "Ġfit": 5836,
      "ĠBall": 5837,
      "Ġisol": 5838,
      "Ġ68": 5839,
      "agement": 5840,
      "onym": 5841,
      "Ġcomposition": 5842,
      "Ġperhaps": 5843,
      "Ġadding": 5844,
      "Ġdeclined": 5845,
      "ati": 5846,
      "Ġrenamed": 5847,
      "ĠCur": 5848,
      "Ġgetting": 5849,
      "ĠâĪĴ": 5850,
      "ĠRoss": 5851,
      "Ġenjoyed": 5852,
      "Ġcompris": 5853,
      "Ġopinion": 5854,
      "ĠTheat": 5855,
      "oz": 5856,
      "Ġcalc": 5857,
      "ĠNorway": 5858,
      "Ġpoem": 5859,
      "omic": 5860,
      "Ġnor": 5861,
      "Ġshaped": 5862,
      "Ġreputation": 5863,
      "amm": 5864,
      "Ġundert": 5865,
      "Ġconnected": 5866,
      "ĠBase": 5867,
      "Ġ1917": 5868,
      "inking": 5869,
      "Ġconverted": 5870,
      "Ġlov": 5871,
      "ĠMos": 5872,
      "Ġestate": 5873,
      "Ġviews": 5874,
      "Ġmuseum": 5875,
      "ĠMassachus": 5876,
      "bound": 5877,
      "Ġdry": 5878,
      "Ġdrew": 5879,
      "Ġrend": 5880,
      "Ġstages": 5881,
      "ĠOlympics": 5882,
      "ĠPrem": 5883,
      "oir": 5884,
      "ĠImp": 5885,
      "Ġretire": 5886,
      "ceived": 5887,
      "Ġregarding": 5888,
      "ĠGolden": 5889,
      "ĠDream": 5890,
      "ĠMassachusetts": 5891,
      "gal": 5892,
      "osl": 5893,
      "Ġdistingu": 5894,
      "ĠWalk": 5895,
      "iform": 5896,
      "Ġsun": 5897,
      "Ġagricult": 5898,
      "Ġheaded": 5899,
      "Ġallows": 5900,
      "rets": 5901,
      "vest": 5902,
      "Ġbed": 5903,
      "Ġnick": 5904,
      "Ġ87": 5905,
      "han": 5906,
      "ĠSel": 5907,
      "Ġalternative": 5908,
      "Ġjourney": 5909,
      "ules": 5910,
      "Ġmissing": 5911,
      "igg": 5912,
      "ĠVi": 5913,
      "Ġdepth": 5914,
      "Ġcited": 5915,
      "Ġturning": 5916,
      "ĠAbb": 5917,
      "ĠSus": 5918,
      "Ġincreasingly": 5919,
      "athan": 5920,
      "ato": 5921,
      "eper": 5922,
      "ko": 5923,
      "ĠLet": 5924,
      "Ġapproached": 5925,
      "osis": 5926,
      "Ġplanning": 5927,
      "ĠRon": 5928,
      "Ġ160": 5929,
      "Ġresponded": 5930,
      "ĠAirport": 5931,
      "Ġstadium": 5932,
      "ĠHart": 5933,
      "Ġknowledge": 5934,
      "Ġ1948": 5935,
      "Ġoverl": 5936,
      "Ġexerc": 5937,
      "ilding": 5938,
      "eman": 5939,
      "Ġwealth": 5940,
      "Ġeasily": 5941,
      "Ġ700": 5942,
      "Ġfashion": 5943,
      "olt": 5944,
      "Ġescort": 5945,
      "Ġconstitution": 5946,
      "Ġcollected": 5947,
      "Ġequal": 5948,
      "ĠAbout": 5949,
      "Ġsucceeded": 5950,
      "Ġrebu": 5951,
      "psons": 5952,
      "Ġintroduction": 5953,
      "ĠKen": 5954,
      "Ġcells": 5955,
      "unicip": 5956,
      "Ġsustained": 5957,
      "mod": 5958,
      "Ġtrip": 5959,
      "Ġexistence": 5960,
      "ignment": 5961,
      "ĠBal": 5962,
      "Ġflu": 5963,
      "Ġpul": 5964,
      "Ġoccas": 5965,
      "ĠImperial": 5966,
      "Ġsafety": 5967,
      "Ġauth": 5968,
      "Ġlearned": 5969,
      "ĠSimpsons": 5970,
      "Ġtall": 5971,
      "ĠRun": 5972,
      "Ġ69": 5973,
      "wise": 5974,
      "Ġoperating": 5975,
      "ĠInit": 5976,
      "Ġmodels": 5977,
      "Ġcolle": 5978,
      "Ġ1978": 5979,
      "hi": 5980,
      "Ġcarrying": 5981,
      "rett": 5982,
      "Ġpromotion": 5983,
      "mitted": 5984,
      "Ġyouth": 5985,
      "ĠVietnam": 5986,
      "Ġ78": 5987,
      "uration": 5988,
      "Ġshowing": 5989,
      "Ġbaseball": 5990,
      "Ġlimit": 5991,
      "engers": 5992,
      "ĠMcG": 5993,
      "Ġburied": 5994,
      "ĠSongs": 5995,
      "eg": 5996,
      "iger": 5997,
      "Ġexchange": 5998,
      "onia": 5999,
      "Ġ91": 6000,
      "Ġweakened": 6001,
      "come": 6002,
      "leton": 6003,
      "Ġpaint": 6004,
      "Ġcredited": 6005,
      "ĠAD": 6006,
      "Ġseems": 6007,
      "ĠLoc": 6008,
      "Ġ1915": 6009,
      "Ġhumans": 6010,
      "ĠCape": 6011,
      "Ġimprove": 6012,
      "Ġdepend": 6013,
      "Ġimpl": 6014,
      "state": 6015,
      "Ġdesigns": 6016,
      "Ġarranged": 6017,
      "Ġfreeway": 6018,
      "ĠJay": 6019,
      "Ġjoint": 6020,
      "ĠShortly": 6021,
      "Ġathlet": 6022,
      "Ġlandfall": 6023,
      "Ġrhy": 6024,
      "Ġproducing": 6025,
      "Ġshel": 6026,
      "Ġearliest": 6027,
      "ĠSydney": 6028,
      "Ġproceed": 6029,
      "ĠOttoman": 6030,
      "Ġvan": 6031,
      "Ġflat": 6032,
      "inary": 6033,
      "eler": 6034,
      "oli": 6035,
      "istan": 6036,
      "Ġnote": 6037,
      "Ġsculpt": 6038,
      "Ġlasted": 6039,
      "Ġsettlement": 6040,
      "acts": 6041,
      "Ġretained": 6042,
      "ĠWho": 6043,
      "ĠPict": 6044,
      "Ġ1977": 6045,
      "Ġton": 6046,
      "ĠNaval": 6047,
      "ĠMoore": 6048,
      "ĠPoland": 6049,
      "Ġacres": 6050,
      "Ġdescription": 6051,
      "put": 6052,
      "Ġ94": 6053,
      "ĠRoy": 6054,
      "ĠRem": 6055,
      "Ġbrand": 6056,
      "issance": 6057,
      "ĠMaryland": 6058,
      "AR": 6059,
      "ĠCra": 6060,
      "rell": 6061,
      "ivered": 6062,
      "Äģ": 6063,
      "Ġreserve": 6064,
      "ĠMTV": 6065,
      "ĠStew": 6066,
      "ivalent": 6067,
      "bell": 6068,
      "Ġlaws": 6069,
      "Ġappoint": 6070,
      "Ġassistant": 6071,
      "Ġreplace": 6072,
      "Ġconsc": 6073,
      "ources": 6074,
      "Ġpatrol": 6075,
      "Ġinstall": 6076,
      "Ġ81": 6077,
      "Ġgenre": 6078,
      "insula": 6079,
      "Ġplayoff": 6080,
      "Ġprograms": 6081,
      "ader": 6082,
      "Ġvirt": 6083,
      "Ġcatch": 6084,
      "Ġcoastal": 6085,
      "Ġviolence": 6086,
      "Ġ98": 6087,
      "Ġentrance": 6088,
      "Ġstatement": 6089,
      "Ġhits": 6090,
      "Ġ1963": 6091,
      "ĠJes": 6092,
      "Ġapplied": 6093,
      "ĠArts": 6094,
      "Ġsynt": 6095,
      "Ġconsequ": 6096,
      "Ġneut": 6097,
      "iege": 6098,
      "Ġtrust": 6099,
      "Ġscientific": 6100,
      "othes": 6101,
      "Ġtick": 6102,
      "ĠPass": 6103,
      "avig": 6104,
      "math": 6105,
      "pet": 6106,
      "ĠRid": 6107,
      "Ġexclus": 6108,
      "tical": 6109,
      "ĠRhodes": 6110,
      "Ġbattery": 6111,
      "Ġdelivered": 6112,
      "ĠGreg": 6113,
      "Ġ1916": 6114,
      "Ġsections": 6115,
      "ĠFire": 6116,
      "Ġuns": 6117,
      "Ġcandidate": 6118,
      "Ġindicated": 6119,
      "Ġstopped": 6120,
      "time": 6121,
      "Ġtowns": 6122,
      "Ġgradually": 6123,
      "Ġtact": 6124,
      "Ġitems": 6125,
      "izations": 6126,
      "Ġpolitics": 6127,
      "lan": 6128,
      "Ġban": 6129,
      "ĠBowl": 6130,
      "ĠEdu": 6131,
      "ĠAri": 6132,
      "lee": 6133,
      "eke": 6134,
      "oard": 6135,
      "Ġbask": 6136,
      "Ġsupplies": 6137,
      "Ġdistribution": 6138,
      "Ġfilled": 6139,
      "ĠIG": 6140,
      "Ġdetails": 6141,
      "Ġindependence": 6142,
      "ĠConfeder": 6143,
      "eless": 6144,
      "AT": 6145,
      "ela": 6146,
      "Ġselect": 6147,
      "mun": 6148,
      "Ġ71": 6149,
      "Ġstream": 6150,
      "Ġcombination": 6151,
      "ĠJan": 6152,
      "Ġways": 6153,
      "Ġemp": 6154,
      "Å¡": 6155,
      "ushing": 6156,
      "ĠMulder": 6157,
      "Ġcinem": 6158,
      "ĠBon": 6159,
      "Ġglass": 6160,
      "ĠGordon": 6161,
      "Ġengines": 6162,
      "Ġparties": 6163,
      "Ġcamera": 6164,
      "reets": 6165,
      "ĠStadium": 6166,
      "Ġappeal": 6167,
      "phoon": 6168,
      "ĠBand": 6169,
      "ender": 6170,
      "Ġprisoners": 6171,
      "ÅĤ": 6172,
      "Ġ1919": 6173,
      "Ġ1962": 6174,
      "emies": 6175,
      "Ġ89": 6176,
      "Ġregister": 6177,
      "Ġcampus": 6178,
      "ĠAC": 6179,
      "ĠWell": 6180,
      "Ġsecure": 6181,
      "Ġentitled": 6182,
      "Ġextremely": 6183,
      "iversary": 6184,
      "Ġacts": 6185,
      "Ġwars": 6186,
      "Ġmig": 6187,
      "Ġregiment": 6188,
      "rec": 6189,
      "ropol": 6190,
      "Ġfinding": 6191,
      "ĠTheatre": 6192,
      "ador": 6193,
      "ĠRa": 6194,
      "Ġevening": 6195,
      "Ġinvestigation": 6196,
      "Ġtal": 6197,
      "Ġonline": 6198,
      "ĠStaff": 6199,
      "Ġdecade": 6200,
      "poration": 6201,
      "Ġwinner": 6202,
      "ĠProf": 6203,
      "inois": 6204,
      "ĠUnivers": 6205,
      "Ġadapted": 6206,
      "Ġ1938": 6207,
      "iques": 6208,
      "ĠCop": 6209,
      "ĠKim": 6210,
      "Ġbought": 6211,
      "Ġarc": 6212,
      "acter": 6213,
      "Ġ88": 6214,
      "Ġsurvived": 6215,
      "Ġknots": 6216,
      "Ġsomew": 6217,
      "Ġthreatened": 6218,
      "Ġdeaths": 6219,
      "Ġruled": 6220,
      "Ġmessage": 6221,
      "Ġwrites": 6222,
      "ashed": 6223,
      "Ġroutes": 6224,
      "ĠAnth": 6225,
      "iat": 6226,
      "ĠBir": 6227,
      "Ġconsum": 6228,
      "Ġstudied": 6229,
      "Ġrelief": 6230,
      "Ġreligion": 6231,
      "ja": 6232,
      "Ġaddress": 6233,
      "ĠJustice": 6234,
      "ĠVill": 6235,
      "Ġproposal": 6236,
      "Ġfear": 6237,
      "Ġdownload": 6238,
      "ĠInstead": 6239,
      "ĠNic": 6240,
      "Ġtanks": 6241,
      "ano": 6242,
      "Ġvoted": 6243,
      "Ġreduce": 6244,
      "ĠPo": 6245,
      "met": 6246,
      "Ġspecifically": 6247,
      "ighters": 6248,
      "Ġcrown": 6249,
      "Ġmales": 6250,
      "ieval": 6251,
      "Ġphase": 6252,
      "ĠMemorial": 6253,
      "Ġrevolution": 6254,
      "BS": 6255,
      "Ġspons": 6256,
      "bourne": 6257,
      "Ġfict": 6258,
      "Ġkingdom": 6259,
      "ĠAge": 6260,
      "Ġrecalled": 6261,
      "Ġportrayed": 6262,
      "Ġec": 6263,
      "Ġcontroversy": 6264,
      "BN": 6265,
      "Ġduty": 6266,
      "Ġimplement": 6267,
      "ĠCirc": 6268,
      "ctions": 6269,
      "ĠHere": 6270,
      "hat": 6271,
      "Ġemerg": 6272,
      "Ġsoul": 6273,
      "ĠAst": 6274,
      "adow": 6275,
      "apes": 6276,
      "Ġble": 6277,
      "Ġcauses": 6278,
      "Ġeverything": 6279,
      "Ġbottom": 6280,
      "Ġstret": 6281,
      "Ġ130": 6282,
      "Ġcapable": 6283,
      "ervative": 6284,
      "chers": 6285,
      "Ġconvin": 6286,
      "Ġ175": 6287,
      "ician": 6288,
      "Ġreferences": 6289,
      "Ġ1956": 6290,
      "Ġsell": 6291,
      "ĠKong": 6292,
      "Ġimportance": 6293,
      "aug": 6294,
      "Ġago": 6295,
      "Ġbreeding": 6296,
      "Ġet": 6297,
      "ĠTony": 6298,
      "ĠColl": 6299,
      "Ġoffers": 6300,
      "Ġteacher": 6301,
      "ridges": 6302,
      "ĠMcK": 6303,
      "Ġcrossed": 6304,
      "Ġarrested": 6305,
      "ĠDirector": 6306,
      "ĠSingles": 6307,
      "Ġ79": 6308,
      "Ġmeters": 6309,
      "Ġentry": 6310,
      "entially": 6311,
      "Ġsufficient": 6312,
      "ĠNel": 6313,
      "bro": 6314,
      "ĠPower": 6315,
      "ĠUr": 6316,
      "ĠId": 6317,
      "senal": 6318,
      "Ġclimb": 6319,
      "ĠOd": 6320,
      "ĠMoon": 6321,
      "Ġadmitted": 6322,
      "Ġinternal": 6323,
      "Ġopera": 6324,
      "arp": 6325,
      "ĠOk": 6326,
      "ĠAdams": 6327,
      "Ġcorner": 6328,
      "Ġnomination": 6329,
      "Ġmort": 6330,
      "Ġowner": 6331,
      "uro": 6332,
      "ĠDougl": 6333,
      "bar": 6334,
      "ĠJane": 6335,
      "ĠAlan": 6336,
      "Ġequipped": 6337,
      "Ġinstalled": 6338,
      "Ġproducts": 6339,
      "Ġoverse": 6340,
      "Ġconcerns": 6341,
      "Ġcopy": 6342,
      "Ġbor": 6343,
      "Ġ1936": 6344,
      "ĠJord": 6345,
      "Ġstarts": 6346,
      "ructure": 6347,
      "ĠIGN": 6348,
      "ĠAlf": 6349,
      "ĠBeach": 6350,
      "Ġconvoy": 6351,
      "ĠCritical": 6352,
      "Ġpreced": 6353,
      "wich": 6354,
      "andy": 6355,
      "Ġconqu": 6356,
      "Ġautom": 6357,
      "ĠHamilton": 6358,
      "ranean": 6359,
      "Ġinvited": 6360,
      "Ġsnow": 6361,
      "hr": 6362,
      "Ġtell": 6363,
      "Ġupgrad": 6364,
      "aki": 6365,
      "ĠEngine": 6366,
      "Ġones": 6367,
      "Ġunl": 6368,
      "ansas": 6369,
      "Ġprincipal": 6370,
      "Ġshut": 6371,
      "Ġcrime": 6372,
      "ĠSimon": 6373,
      "ĠUTC": 6374,
      "Ġinterested": 6375,
      "Ġretreat": 6376,
      "Ġremainder": 6377,
      "Ġrecommended": 6378,
      "ĠInt": 6379,
      "ĠGram": 6380,
      "ĠMaria": 6381,
      "ĠPlot": 6382,
      "espread": 6383,
      "Ġalt": 6384,
      "Ġacid": 6385,
      "Ġstock": 6386,
      "ĠYour": 6387,
      "Ġactual": 6388,
      "ĠAdam": 6389,
      "Ġfly": 6390,
      "Ġ92": 6391,
      "ca": 6392,
      "Ġvent": 6393,
      "Ġ93": 6394,
      "ĠVII": 6395,
      "Ġmedal": 6396,
      "Ġsolid": 6397,
      "ĠTrack": 6398,
      "Ġcharged": 6399,
      "Ġapart": 6400,
      "Ġdoor": 6401,
      "Ġconsisting": 6402,
      "ĠForest": 6403,
      "ilation": 6404,
      "ĠDeath": 6405,
      "Ġfunds": 6406,
      "Ġ1961": 6407,
      "osaurus": 6408,
      "iy": 6409,
      "mb": 6410,
      "vis": 6411,
      "ĠIndones": 6412,
      "Ġpromote": 6413,
      "Ġprice": 6414,
      "Ġmilit": 6415,
      "Ġobjects": 6416,
      "Ġ84": 6417,
      "ĠBos": 6418,
      "Ġconsiderable": 6419,
      "ĠCart": 6420,
      "Ġgall": 6421,
      "ĠVideo": 6422,
      "Ġcomposer": 6423,
      "Ġdates": 6424,
      "aked": 6425,
      "Ġfemales": 6426,
      "ĠNBA": 6427,
      "ĠFA": 6428,
      "Ġpage": 6429,
      "ĠFound": 6430,
      "ĠProg": 6431,
      "ĠWWE": 6432,
      "erted": 6433,
      "ĠGen": 6434,
      "Ġgrounds": 6435,
      "ĠNether": 6436,
      "Ġ1953": 6437,
      "hus": 6438,
      "Ġpoly": 6439,
      "ĠToday": 6440,
      "Ġblow": 6441,
      "iller": 6442,
      "Ġduties": 6443,
      "rete": 6444,
      "Ġextension": 6445,
      "Ġtypical": 6446,
      "Ġcong": 6447,
      "ĠMilitary": 6448,
      "ĠTransport": 6449,
      "ĠHitler": 6450,
      "ĠGun": 6451,
      "Ġcorrect": 6452,
      "Ġrural": 6453,
      "Ġsomeone": 6454,
      "cks": 6455,
      "ĠKennedy": 6456,
      "BI": 6457,
      "Ġeighth": 6458,
      "Ġevolution": 6459,
      "ĠSunday": 6460,
      "Ġimages": 6461,
      "Ġdecades": 6462,
      "ĠProject": 6463,
      "ĠHoward": 6464,
      "ĠMarc": 6465,
      "Ġsole": 6466,
      "Ġzone": 6467,
      "Ġpenal": 6468,
      "vements": 6469,
      "Ġdriving": 6470,
      "ĠIndiana": 6471,
      "Ġspin": 6472,
      "Ġhotel": 6473,
      "king": 6474,
      "osite": 6475,
      "ĠPit": 6476,
      "Ġidentity": 6477,
      "ĠTa": 6478,
      "Ġlane": 6479,
      "Ġreading": 6480,
      "AAF": 6481,
      "Ġchallenge": 6482,
      "ĠNorwe": 6483,
      "hetic": 6484,
      "Ġoccurs": 6485,
      "ĠHou": 6486,
      "add": 6487,
      "Ġremix": 6488,
      "Ġmanner": 6489,
      "ĠLeon": 6490,
      "Ġsubs": 6491,
      "Ġpermanent": 6492,
      "Ġfrag": 6493,
      "ĠScully": 6494,
      "Ġbrigade": 6495,
      "Ġham": 6496,
      "ĠFive": 6497,
      "Ġaspects": 6498,
      "Ġdated": 6499,
      "Ġskin": 6500,
      "ĠTar": 6501,
      "ĠBry": 6502,
      "Ġ1947": 6503,
      "Ġtow": 6504,
      "Ġaer": 6505,
      "Ġvolcan": 6506,
      "ĠKat": 6507,
      "ĠCult": 6508,
      "Ġnoting": 6509,
      "Ġslowly": 6510,
      "Ġ1958": 6511,
      "regon": 6512,
      "Ġcolour": 6513,
      "Ġarmor": 6514,
      "ĠBrist": 6515,
      "Ġvir": 6516,
      "Ġposted": 6517,
      "ĠPortug": 6518,
      "Ġrestaur": 6519,
      "ĠGill": 6520,
      "ubb": 6521,
      "ez": 6522,
      "Ġvessels": 6523,
      "ensus": 6524,
      "ĠMountain": 6525,
      "after": 6526,
      "ione": 6527,
      "ĠScient": 6528,
      "Ġspeak": 6529,
      "ĠTurk": 6530,
      "Ġ1910": 6531,
      "ĠPear": 6532,
      "Ġ110": 6533,
      "Ġclean": 6534,
      "iley": 6535,
      "Ġ86": 6536,
      "Ġsupporters": 6537,
      "aware": 6538,
      "ĠBa": 6539,
      "ivals": 6540,
      "ĠDrag": 6541,
      "cknow": 6542,
      "Ġinvolving": 6543,
      "Ġentering": 6544,
      "Ġdescribing": 6545,
      "Ġ1957": 6546,
      "ĠAk": 6547,
      "Ġbra": 6548,
      "ĠAssembly": 6549,
      "Ġenemies": 6550,
      "ĠResearch": 6551,
      "ĠRose": 6552,
      "ĠScience": 6553,
      "veland": 6554,
      "Ġdepartment": 6555,
      "nic": 6556,
      "ĠSpace": 6557,
      "Ġequivalent": 6558,
      "Ġobtained": 6559,
      "Ġ1937": 6560,
      "ĠConstitution": 6561,
      "Ġdebate": 6562,
      "Ġmemorial": 6563,
      "Ġdress": 6564,
      "Ġaccur": 6565,
      "Ġclasses": 6566,
      "ĠRyan": 6567,
      "Ġsettled": 6568,
      "orney": 6569,
      "Ġoldest": 6570,
      "ĠHug": 6571,
      "ĠDisc": 6572,
      "Ġdin": 6573,
      "risis": 6574,
      "Ġpurchase": 6575,
      "Ġwidespread": 6576,
      "ĠMagazine": 6577,
      "fl": 6578,
      "Ġsongwrit": 6579,
      "Ġbasic": 6580,
      "Ġtele": 6581,
      "ĠRolling": 6582,
      "Ġdecline": 6583,
      "ĠArgent": 6584,
      "ĠIra": 6585,
      "agues": 6586,
      "Ġparliament": 6587,
      "ĠPier": 6588,
      "ĠOregon": 6589,
      "Ġattached": 6590,
      "Ġincome": 6591,
      "Ġdecor": 6592,
      "erto": 6593,
      "Ġfaith": 6594,
      "Ġconcerned": 6595,
      "ĠLenn": 6596,
      "Ġdeparture": 6597,
      "heastern": 6598,
      "Ġformal": 6599,
      "Ġfolk": 6600,
      "Ġconnection": 6601,
      "ĠCleveland": 6602,
      "ĠIllinois": 6603,
      "Ġpup": 6604,
      "Ġaccused": 6605,
      "ĠThroughout": 6606,
      "cation": 6607,
      "Ġrecognition": 6608,
      "ĠDouglas": 6609,
      "ophy": 6610,
      "Ġcertified": 6611,
      "Ġinteg": 6612,
      "hered": 6613,
      "Ġnest": 6614,
      "Ġdeleg": 6615,
      "Ġha": 6616,
      "Ġ<": 6617,
      "ĠNow": 6618,
      "Ġouter": 6619,
      "Ġdisturb": 6620,
      "rates": 6621,
      "Ġsequel": 6622,
      "Ġderived": 6623,
      "ĠWeekly": 6624,
      "ĠRele": 6625,
      "Ġcommitted": 6626,
      "icit": 6627,
      "ĠSav": 6628,
      "iot": 6629,
      "Ġmode": 6630,
      "aret": 6631,
      "ĠStand": 6632,
      "Ġacknow": 6633,
      "Ġassumed": 6634,
      "Ġ1959": 6635,
      "ĠAndy": 6636,
      "ooth": 6637,
      "Ġswim": 6638,
      "Ġhosted": 6639,
      "Ġwearing": 6640,
      "ĠâĢĿ": 6641,
      "ĠFamily": 6642,
      "ĠStanley": 6643,
      "ĠJordan": 6644,
      "western": 6645,
      "Ġwed": 6646,
      "ĠFreder": 6647,
      "Ġsegment": 6648,
      "Ġfoss": 6649,
      "Ġreturns": 6650,
      "wan": 6651,
      "Ġtorn": 6652,
      "Ġhip": 6653,
      "Ġcharges": 6654,
      "ĠFeder": 6655,
      "Ġsurvey": 6656,
      "ekend": 6657,
      "Ġchampion": 6658,
      "Ġacclaim": 6659,
      "Ġtemple": 6660,
      "Ġhang": 6661,
      "ĠMediter": 6662,
      "ĠThird": 6663,
      "Ġliterary": 6664,
      "ĠArsenal": 6665,
      "Ġvalley": 6666,
      "ĠMedia": 6667,
      "ĠRoger": 6668,
      "ĠDal": 6669,
      "Ġflo": 6670,
      "Ġdenied": 6671,
      "ĠLow": 6672,
      "Ġterminus": 6673,
      "Ġfine": 6674,
      "Ġpopulations": 6675,
      "Ġtransition": 6676,
      "ĠTreat": 6677,
      "ĠTenn": 6678,
      "ĠPhilip": 6679,
      "ĠKevin": 6680,
      "Ġsessions": 6681,
      "ĠRecording": 6682,
      "agonist": 6683,
      "ĠMediterranean": 6684,
      "ĠBeatles": 6685,
      "Ġregional": 6686,
      "ĠBruce": 6687,
      "Ġcanc": 6688,
      "Ġcircum": 6689,
      "Ġthousands": 6690,
      "Ġsupposed": 6691,
      "Ġ1955": 6692,
      "ĠEs": 6693,
      "Ġ1954": 6694,
      "ĠâĢľ": 6695,
      "Ġwarm": 6696,
      "ĠISBN": 6697,
      "ĠNorwegian": 6698,
      "ĠBristol": 6699,
      "Ġdemand": 6700,
      "Ġintelligence": 6701,
      "Ġdowntown": 6702,
      "Ġans": 6703,
      "Ġshots": 6704,
      "iva": 6705,
      "Ġcommit": 6706,
      "Ġstrongly": 6707,
      "RA": 6708,
      "ĠAz": 6709,
      "ĠRain": 6710,
      "Ġwickets": 6711,
      "ĠDig": 6712,
      "udden": 6713,
      "hedral": 6714,
      "Ġsailed": 6715,
      "ĠDer": 6716,
      "ĠFederal": 6717,
      "Ġpassengers": 6718,
      "Ġcirculation": 6719,
      "heme": 6720,
      "emed": 6721,
      "ĠBush": 6722,
      "Ġpossibility": 6723,
      "Ġgeneration": 6724,
      "Ġhill": 6725,
      "Ġfreedom": 6726,
      "organ": 6727,
      "Ġcloud": 6728,
      "Ġfictional": 6729,
      "achel": 6730,
      "Ġthirty": 6731,
      "ĠHo": 6732,
      "Ġanimated": 6733,
      "Ġhope": 6734,
      "vens": 6735,
      "ĠChannel": 6736,
      "rage": 6737,
      "Ġreplacement": 6738,
      "IA": 6739,
      "Ġcommanded": 6740,
      "eing": 6741,
      "ĠMexican": 6742,
      "Ġrich": 6743,
      "Ġbegun": 6744,
      "Ġassistance": 6745,
      "ito": 6746,
      "Ġbehavior": 6747,
      "ĠBol": 6748,
      "Ġminister": 6749,
      "Ġmissions": 6750,
      "ĠKorea": 6751,
      "Ġdestruction": 6752,
      "ĠWeb": 6753,
      "Ġfruit": 6754,
      "Ġcrash": 6755,
      "Ġmissed": 6756,
      "Ġcriminal": 6757,
      "atinum": 6758,
      "borne": 6759,
      "mes": 6760,
      "ami": 6761,
      "ĠÃĹ": 6762,
      "orced": 6763,
      "ĠPur": 6764,
      "ĠRaj": 6765,
      "Ġmoves": 6766,
      "ĠRow": 6767,
      "Ġexception": 6768,
      "Ġtied": 6769,
      "Ġvolunte": 6770,
      "lig": 6771,
      "ĠWithin": 6772,
      "char": 6773,
      "ĠColor": 6774,
      "ĠCas": 6775,
      "ĠConc": 6776,
      "Ġcosts": 6777,
      "Ġbringing": 6778,
      "ĠMaster": 6779,
      "upt": 6780,
      "Ġintention": 6781,
      "Ġhighlight": 6782,
      "Ġfeeling": 6783,
      "elsh": 6784,
      "ĠNar": 6785,
      "Ġalleged": 6786,
      "Ġfinishing": 6787,
      "ĠBah": 6788,
      "ĠEric": 6789,
      "isms": 6790,
      "ĠAdditionally": 6791,
      "Ġrecovered": 6792,
      "Ġunusual": 6793,
      "Ġspeaking": 6794,
      "Ġdemol": 6795,
      "ĠFame": 6796,
      "Ġshop": 6797,
      "ĠSab": 6798,
      "oral": 6799,
      "lets": 6800,
      "Ġserves": 6801,
      "Ġproperties": 6802,
      "Ġstayed": 6803,
      "Ġincorporated": 6804,
      "Ġstrateg": 6805,
      "onto": 6806,
      "Ġattributed": 6807,
      "Ġ83": 6808,
      "Ġbreaking": 6809,
      "aza": 6810,
      "Ġemerged": 6811,
      "Ġsons": 6812,
      "Ġintercept": 6813,
      "Ġopposite": 6814,
      "ĠLisa": 6815,
      "Ġdipl": 6816,
      "Ġ1952": 6817,
      "emeter": 6818,
      "enses": 6819,
      "ĠPhill": 6820,
      "Ġdriven": 6821,
      "Ġtheatre": 6822,
      "riers": 6823,
      "ĠMorris": 6824,
      "rating": 6825,
      "ĠMorgan": 6826,
      "Ġatmosphere": 6827,
      "ĠIron": 6828,
      "Ġchorus": 6829,
      "aire": 6830,
      "ĠRobinson": 6831,
      "othing": 6832,
      "Ġclassic": 6833,
      "Ġoccasionally": 6834,
      "ĠNorman": 6835,
      "ĠPrior": 6836,
      "ĠKr": 6837,
      "Ġready": 6838,
      "olec": 6839,
      "ĠEle": 6840,
      "Ġestablishment": 6841,
      "Ġcavalry": 6842,
      "Ġspok": 6843,
      "umin": 6844,
      "ĠEver": 6845,
      "Ġregularly": 6846,
      "Ġcourts": 6847,
      "Ġeffectively": 6848,
      "Ġdissip": 6849,
      "Ġsurviving": 6850,
      "Ġvary": 6851,
      "ĠTemple": 6852,
      "Ġdream": 6853,
      "Ġ1933": 6854,
      "thm": 6855,
      "Ġdivers": 6856,
      "Ġresponsibility": 6857,
      "Ġmethods": 6858,
      "Ġprey": 6859,
      "ĠTelevision": 6860,
      "ĠSimilar": 6861,
      "ĠHawai": 6862,
      "ĠSky": 6863,
      "ogen": 6864,
      "Ġsounds": 6865,
      "ĠAround": 6866,
      "Ġshore": 6867,
      "Ġcompletion": 6868,
      "pective": 6869,
      "ĠUnlike": 6870,
      "Ġmaterials": 6871,
      "weight": 6872,
      "Ġsuperv": 6873,
      "Ġ176": 6874,
      "Ġprovince": 6875,
      "ĠConstruction": 6876,
      "don": 6877,
      "ĠCE": 6878,
      "uty": 6879,
      "Ġclassified": 6880,
      "Ġheat": 6881,
      "Ġattracted": 6882,
      "Ġwarning": 6883,
      "Ġfields": 6884,
      "wen": 6885,
      "oslav": 6886,
      "sole": 6887,
      "Ġdivisions": 6888,
      "Ġaccommod": 6889,
      "rim": 6890,
      "ĠGh": 6891,
      "ĠCab": 6892,
      "Ġquant": 6893,
      "Ġentertain": 6894,
      "Ġpersu": 6895,
      "ĠFrancis": 6896,
      "ĠNelson": 6897,
      "ece": 6898,
      "ban": 6899,
      "Ġtechnical": 6900,
      "Ġglobal": 6901,
      "ĠNich": 6902,
      "Ġinterpret": 6903,
      "nold": 6904,
      "ĠFinn": 6905,
      "ĠPatrick": 6906,
      "Ġmo": 6907,
      "Ġdifferences": 6908,
      "inton": 6909,
      "Ġpassage": 6910,
      "AC": 6911,
      "ĠLanc": 6912,
      "ĠAnton": 6913,
      "ĠFord": 6914,
      "abled": 6915,
      "Ġkid": 6916,
      "Ġ1935": 6917,
      "Ġcruiser": 6918,
      "Ġbrain": 6919,
      "icks": 6920,
      "ĠPremier": 6921,
      "Ġnone": 6922,
      "Ġneither": 6923,
      "ĠSweden": 6924,
      "20": 6925,
      "ĠBudd": 6926,
      "ĠDE": 6927,
      "Ġaboard": 6928,
      "ĠTechn": 6929,
      "Ġstood": 6930,
      "ipe": 6931,
      "Ġsam": 6932,
      "ĠMit": 6933,
      "Ġbattleships": 6934,
      "Ġreinforce": 6935,
      "oyd": 6936,
      "Ġ1949": 6937,
      "Ġclubs": 6938,
      "Ġbasketball": 6939,
      "Ġassociation": 6940,
      "Ġ1951": 6941,
      "ĠWelsh": 6942,
      "Ġrooms": 6943,
      "nce": 6944,
      "Ġeleven": 6945,
      "Ġancest": 6946,
      "Ġratings": 6947,
      "nings": 6948,
      "ĠNations": 6949,
      "ĠHell": 6950,
      "Ġmusicians": 6951,
      "idden": 6952,
      "Ġhal": 6953,
      "Ġdesire": 6954,
      "Ġshif": 6955,
      "Ġmedic": 6956,
      "Ġsqu": 6957,
      "Ġrose": 6958,
      "Ġoutbreak": 6959,
      "Ġseparated": 6960,
      "Ġclassification": 6961,
      "Ġclimate": 6962,
      "Ġseemed": 6963,
      "omot": 6964,
      "ĠAnne": 6965,
      "Ġvotes": 6966,
      "teenth": 6967,
      "agle": 6968,
      "Ġpredecess": 6969,
      "ĠToronto": 6970,
      "Ġrequested": 6971,
      "Ã³n": 6972,
      "Ġvehicle": 6973,
      "Ġpicture": 6974,
      "Ġhistorians": 6975,
      "ĠMatthew": 6976,
      "Ġment": 6977,
      "Ġreality": 6978,
      "Ġmemory": 6979,
      "ĠDog": 6980,
      "Ġmovements": 6981,
      "ĠAllen": 6982,
      "ĠProfess": 6983,
      "Ġchemical": 6984,
      "ici": 6985,
      "ĠMarg": 6986,
      "ji": 6987,
      "ĠByzantine": 6988,
      "ewhere": 6989,
      "Ġmap": 6990,
      "Ġhoped": 6991,
      "ĠMarine": 6992,
      "ĠNetherlands": 6993,
      "ĠChron": 6994,
      "ĠBelg": 6995,
      "Ġille": 6996,
      "reck": 6997,
      "abil": 6998,
      "ĠOpen": 6999,
      "Ġraise": 7000,
      "Ġdifficulty": 7001,
      "ĠJournal": 7002,
      "ĠSn": 7003,
      "ogy": 7004,
      "ĠEvery": 7005,
      "Ġrestored": 7006,
      "ĠPow": 7007,
      "ĠSports": 7008,
      "burn": 7009,
      "Ġexpect": 7010,
      "Ġprogramme": 7011,
      "ĠWhe": 7012,
      "inder": 7013,
      "Ġvide": 7014,
      "Ġcommunities": 7015,
      "ĠBang": 7016,
      "ĠUSS": 7017,
      "ige": 7018,
      "Ġremember": 7019,
      "Ġraid": 7020,
      "Ġfer": 7021,
      "Ġteen": 7022,
      "ĠIraq": 7023,
      "Ġflank": 7024,
      "ĠJews": 7025,
      "Ġfal": 7026,
      "Ġpremiere": 7027,
      "Ġdelayed": 7028,
      "Ġdiscovery": 7029,
      "Ġpure": 7030,
      "ĠDean": 7031,
      "ĠJacob": 7032,
      "Ġrelative": 7033,
      "ĠAgain": 7034,
      "Ġanniversary": 7035,
      "Ġinspiration": 7036,
      "Ġgreatly": 7037,
      "Ġinjuries": 7038,
      "har": 7039,
      "Ġgal": 7040,
      "Ġsatisf": 7041,
      "ĠDesign": 7042,
      "Ġotherwise": 7043,
      "ĠBishop": 7044,
      "Ġ1900": 7045,
      "Ġneighbor": 7046,
      "ĠSax": 7047,
      "Ġaccounts": 7048,
      "Ġfunding": 7049,
      "ĠUlt": 7050,
      "Ġdepict": 7051,
      "hire": 7052,
      "ĠDomin": 7053,
      "ilers": 7054,
      "Ġpraise": 7055,
      "Ġsurrounded": 7056,
      "Ġstrate": 7057,
      "iate": 7058,
      "Ġrecru": 7059,
      "Ġdens": 7060,
      "ĠNC": 7061,
      "Ġmassive": 7062,
      "Ġpenalty": 7063,
      "Ġspoke": 7064,
      "Ġpartner": 7065,
      "Ġcrop": 7066,
      "Ġneeds": 7067,
      "Ġclaiming": 7068,
      "Ġtries": 7069,
      "Ġdie": 7070,
      "ĠWright": 7071,
      "Ġsuit": 7072,
      "Ġassemb": 7073,
      "Ġbatting": 7074,
      "Ġweapon": 7075,
      "Ġcrosses": 7076,
      "Ġphotograph": 7077,
      "Ġstrategy": 7078,
      "Ġcra": 7079,
      "Ġlat": 7080,
      "Ġconsp": 7081,
      "Ġforming": 7082,
      "anth": 7083,
      "ĠDor": 7084,
      "Ġwrong": 7085,
      "ĠStra": 7086,
      "Ġastron": 7087,
      "ĠRick": 7088,
      "Ġlegend": 7089,
      "Ġinvolvement": 7090,
      "Ġfled": 7091,
      "Ġaccompl": 7092,
      "Ġstands": 7093,
      "ĠGlob": 7094,
      "Ġdocumentary": 7095,
      "gets": 7096,
      "ĠArmen": 7097,
      "Ġworst": 7098,
      "ĠCroatian": 7099,
      "real": 7100,
      "aired": 7101,
      "ĠDick": 7102,
      "Ġarchitecture": 7103,
      "Ġremn": 7104,
      "ĠHop": 7105,
      "ĠOak": 7106,
      "ĠDa": 7107,
      "Ġtemporary": 7108,
      "Ġash": 7109,
      "uble": 7110,
      "Ġbombard": 7111,
      "Ġchairman": 7112,
      "ĠHeart": 7113,
      "Ġdetermine": 7114,
      "ĠJam": 7115,
      "Ġplane": 7116,
      "Ġenf": 7117,
      "ĠThompson": 7118,
      "going": 7119,
      "Ġdismissed": 7120,
      "uther": 7121,
      "ĠLast": 7122,
      "Ġgirls": 7123,
      "ĠRussell": 7124,
      "Ġrot": 7125,
      "formula": 7126,
      "ĠIslam": 7127,
      "Ġinner": 7128,
      "Ġhear": 7129,
      "Ġweekend": 7130,
      "Ġsale": 7131,
      "ĠTrib": 7132,
      "ĠHend": 7133,
      "Ġconvinced": 7134,
      "rum": 7135,
      "ĠCentre": 7136,
      "Ġensure": 7137,
      "Ġcategory": 7138,
      "Ġreserv": 7139,
      "Ġcul": 7140,
      "Ġ06": 7141,
      "Ġadaptation": 7142,
      "ĠNFL": 7143,
      "ĠMars": 7144,
      "Ġresources": 7145,
      "onds": 7146,
      "Ġsight": 7147,
      "Ġcolonial": 7148,
      "Ġsomewhat": 7149,
      "Ġlibrary": 7150,
      "Ġinterests": 7151,
      "ĠHoly": 7152,
      "lyn": 7153,
      "ĠModern": 7154,
      "Ġstreets": 7155,
      "ĠFree": 7156,
      "Ġimmediate": 7157,
      "wing": 7158,
      "Ġscheme": 7159,
      "ĠCarter": 7160,
      "ĠWinter": 7161,
      "ĠPuerto": 7162,
      "body": 7163,
      "Ġstarred": 7164,
      "ĠFront": 7165,
      "Ġmedieval": 7166,
      "Ġcommemor": 7167,
      "ĠCooper": 7168,
      "agre": 7169,
      "Ġray": 7170,
      "Ġfalling": 7171,
      "ĠKelly": 7172,
      "oster": 7173,
      "Ġabsor": 7174,
      "Ġcarbon": 7175,
      "Ġpresidential": 7176,
      "itzer": 7177,
      "Ġic": 7178,
      "wealth": 7179,
      "ĠKer": 7180,
      "Ġthrone": 7181,
      "ĠSpe": 7182,
      "po": 7183,
      "Ġacademic": 7184,
      "Ġsurviv": 7185,
      "Ġappropri": 7186,
      "Ġclassical": 7187,
      "ĠDra": 7188,
      "ĠAlong": 7189,
      "Ġtechniques": 7190,
      "Ġraces": 7191,
      "Ġsed": 7192,
      "Ġfitted": 7193,
      "Ġmeets": 7194,
      "Ġeggs": 7195,
      "Ġfighter": 7196,
      "aya": 7197,
      "Ġconvent": 7198,
      "Ġori": 7199,
      "Ã±": 7200,
      "icide": 7201,
      "Ġloyal": 7202,
      "Ġninth": 7203,
      "ĠBrother": 7204,
      "ĠHungarian": 7205,
      "ĠRang": 7206,
      "ĠNetwork": 7207,
      "night": 7208,
      "Ġbright": 7209,
      "ĠGard": 7210,
      "ĠNiel": 7211,
      "Ġadults": 7212,
      "ĠPak": 7213,
      "ĠBou": 7214,
      "Ġsuperior": 7215,
      "Ġsubmarine": 7216,
      "ĠNob": 7217,
      "Ġpassenger": 7218,
      "Ġreviewer": 7219,
      "rine": 7220,
      "Ġinterior": 7221,
      "Ġlake": 7222,
      "Ġattacking": 7223,
      "Ġabsence": 7224,
      "Ġseeing": 7225,
      "ester": 7226,
      "Ġ1913": 7227,
      "Ġrenew": 7228,
      "ĠThus": 7229,
      "Ġfavorite": 7230,
      "ĠTok": 7231,
      "ĠWy": 7232,
      "Ġairport": 7233,
      "ĠLabor": 7234,
      "ĠParker": 7235,
      "ivan": 7236,
      "ĠEst": 7237,
      "Ġelse": 7238,
      "ĠGri": 7239,
      "Ġengineer": 7240,
      "Ġpremiered": 7241,
      "bec": 7242,
      "Ġconvection": 7243,
      "Ġsynthes": 7244,
      "Ġalien": 7245,
      "osure": 7246,
      "arsh": 7247,
      "Ġdeemed": 7248,
      "ĠBatman": 7249,
      "Ġvisible": 7250,
      "á»": 7251,
      "Ġdub": 7252,
      "Ġconclusion": 7253,
      "Ġlanded": 7254,
      "ronze": 7255,
      "ĠHarris": 7256,
      "Ġdating": 7257,
      "ĠLate": 7258,
      "ĠAI": 7259,
      "Ġappearing": 7260,
      "Ġ1927": 7261,
      "Ġpartn": 7262,
      "ĠPA": 7263,
      "Ġcharacteristics": 7264,
      "Ġ1926": 7265,
      "Ġrum": 7266,
      "acent": 7267,
      "omp": 7268,
      "Ġoperate": 7269,
      "Ġafterwards": 7270,
      "Ġleads": 7271,
      "Ġromantic": 7272,
      "Ġlies": 7273,
      "ĠBi": 7274,
      "Ġelections": 7275,
      "using": 7276,
      "Ġfacility": 7277,
      "Ġmunicip": 7278,
      "ĠLibrary": 7279,
      "Ġsuffering": 7280,
      "Ġencouraged": 7281,
      "book": 7282,
      "Ġx": 7283,
      "Ġcolony": 7284,
      "Ġtemperatures": 7285,
      "eor": 7286,
      "chang": 7287,
      "Ġmodified": 7288,
      "Ġ1934": 7289,
      "Ġ1921": 7290,
      "ĠMurray": 7291,
      "Ġretirement": 7292,
      "ania": 7293,
      "ĠDNA": 7294,
      "Ġbuy": 7295,
      "Ġdoct": 7296,
      "Ġcredit": 7297,
      "Ġeveryone": 7298,
      "ĠTs": 7299,
      "Ġpainted": 7300,
      "oen": 7301,
      "Ġholds": 7302,
      "Ġcontroversial": 7303,
      "asure": 7304,
      "Ġsan": 7305,
      "ossible": 7306,
      "Ġlegislation": 7307,
      "ĠEducation": 7308,
      "aver": 7309,
      "ĠKnight": 7310,
      "Ġchalleng": 7311,
      "ĠCommonwealth": 7312,
      "Ġattempting": 7313,
      "ĠâĤ": 7314,
      "urches": 7315,
      "Ġbelieves": 7316,
      "roit": 7317,
      "uster": 7318,
      "Ġarchae": 7319,
      "Ġgone": 7320,
      "ĠBerlin": 7321,
      "Ġ08": 7322,
      "ĠPolice": 7323,
      "Ġ900": 7324,
      "Ġwings": 7325,
      "Ġpound": 7326,
      "ĠCommander": 7327,
      "ĠHouston": 7328,
      "Ġod": 7329,
      "Ġcode": 7330,
      "Ġcontinuing": 7331,
      "Ġdistributed": 7332,
      "Ġdominated": 7333,
      "Ġrescue": 7334,
      "ĠBrand": 7335,
      "ĠRAAF": 7336,
      "Ġbattleship": 7337,
      "Ġsecured": 7338,
      "ixon": 7339,
      "Ġdepicted": 7340,
      "aws": 7341,
      "ĠPalace": 7342,
      "ĠSanta": 7343,
      "Ġjudge": 7344,
      "tic": 7345,
      "Ġlooked": 7346,
      "Ġauthors": 7347,
      "Ġanyone": 7348,
      "ĠFI": 7349,
      "apse": 7350,
      "ĠStory": 7351,
      "ĠUt": 7352,
      "Ġ1912": 7353,
      "Ġstandards": 7354,
      "scape": 7355,
      "encies": 7356,
      "eline": 7357,
      "Ġimmig": 7358,
      "ĠAdvent": 7359,
      "ĠÅ": 7360,
      "Ġlongest": 7361,
      "Ġcancer": 7362,
      "Ġgrass": 7363,
      "Ġunsuccessful": 7364,
      "Ġwel": 7365,
      "Ġmonarch": 7366,
      "coming": 7367,
      "ache": 7368,
      "ĠHospital": 7369,
      "Ġrailroad": 7370,
      "Ġhabitat": 7371,
      "Ġwins": 7372,
      "Ġneck": 7373,
      "Ġgraphics": 7374,
      "ĠYug": 7375,
      "Ġobtain": 7376,
      "ĠCook": 7377,
      "ĠMort": 7378,
      "Ġtrained": 7379,
      "ĠLi": 7380,
      "Ġunion": 7381,
      "Ġbiggest": 7382,
      "emetery": 7383,
      "ĠSwedish": 7384,
      "Ġsudden": 7385,
      "ĠGet": 7386,
      "Ġarrangement": 7387,
      "ĠOt": 7388,
      "ĠIndians": 7389,
      "li": 7390,
      "ĠRoberts": 7391,
      "Ġmeasures": 7392,
      "Ġjump": 7393,
      "ĠObs": 7394,
      "ultane": 7395,
      "Ġ1932": 7396,
      "ĠSimpson": 7397,
      "inals": 7398,
      "Ġcarrier": 7399,
      "ĠYan": 7400,
      "ĠEy": 7401,
      "aska": 7402,
      "Ġacknowled": 7403,
      "Ġdeployed": 7404,
      "owa": 7405,
      "Ġnickn": 7406,
      "eenth": 7407,
      "ĠSilver": 7408,
      "opes": 7409,
      "Ġbelt": 7410,
      "ĠLyn": 7411,
      "oming": 7412,
      "ĠCorporation": 7413,
      "Ġinformed": 7414,
      "Ġrepresenting": 7415,
      "ternal": 7416,
      "Ġster": 7417,
      "ĠSocial": 7418,
      "Ġreleases": 7419,
      "Ġachieve": 7420,
      "ching": 7421,
      "ĠWarner": 7422,
      "ture": 7423,
      "hess": 7424,
      "Ġ09": 7425,
      "Ġsees": 7426,
      "Ġcloser": 7427,
      "Ġgarrison": 7428,
      "Ġgenerated": 7429,
      "Ġformerly": 7430,
      "Ġalleg": 7431,
      "ĠMerc": 7432,
      "tenance": 7433,
      "ĠJason": 7434,
      "una": 7435,
      "ĠNBC": 7436,
      "Ġhistoric": 7437,
      "fare": 7438,
      "Ġbab": 7439,
      "ĠYugoslav": 7440,
      "Ġconvention": 7441,
      "Ġstyles": 7442,
      "Ġtrials": 7443,
      "ĠAnthony": 7444,
      "ĠCru": 7445,
      "Ġgrade": 7446,
      "Ġemergency": 7447,
      "Ġgets": 7448,
      "Ġmoderate": 7449,
      "elle": 7450,
      "Ġveter": 7451,
      "Ġinfluential": 7452,
      "Ġbats": 7453,
      "olph": 7454,
      "ĠRAF": 7455,
      "agu": 7456,
      "Ġfestival": 7457,
      "Ġsuccessor": 7458,
      "Ġsiege": 7459,
      "ĠHin": 7460,
      "Ġcycle": 7461,
      "Ġassass": 7462,
      "Ġquestions": 7463,
      "Ġmolec": 7464,
      "otype": 7465,
      "ĠDetroit": 7466,
      "Ġru": 7467,
      "Ġemotional": 7468,
      "ĠCroatia": 7469,
      "Ġowners": 7470,
      "hemat": 7471,
      "ĠTal": 7472,
      "uts": 7473,
      "Ġ1929": 7474,
      "ĠBure": 7475,
      "ĠPC": 7476,
      "Ġinfluences": 7477,
      "Ġnovels": 7478,
      "Ġnarrative": 7479,
      "Ġridge": 7480,
      "Ġwooden": 7481,
      "aria": 7482,
      "Ġthin": 7483,
      "Ġstead": 7484,
      "Ġdefended": 7485,
      "Ġexcess": 7486,
      "ĠAuthor": 7487,
      "Ġconstant": 7488,
      "Ġ1911": 7489,
      "Ġapparently": 7490,
      "ĠGaga": 7491,
      "Ġveget": 7492,
      "Ġvictims": 7493,
      "Ġjournalist": 7494,
      "fire": 7495,
      "Ġexperiences": 7496,
      "Ġdiscussed": 7497,
      "mate": 7498,
      "aints": 7499,
      "ĠChamber": 7500,
      "Ġ140": 7501,
      "Ġchildhood": 7502,
      "Ġdetail": 7503,
      "Ġexecuted": 7504,
      "ĠGilbert": 7505,
      "Ġdiplom": 7506,
      "noon": 7507,
      "Ġeat": 7508,
      "Ġalco": 7509,
      "Ġlegs": 7510,
      "Ġinstruments": 7511,
      "Ġpregn": 7512,
      "ĠRap": 7513,
      "arked": 7514,
      "Ġconcur": 7515,
      "Ġoffices": 7516,
      "Ġtreated": 7517,
      "Ġenvironmental": 7518,
      "yard": 7519,
      "usted": 7520,
      "ĠPrincess": 7521,
      "Ġgiant": 7522,
      "Ġdepos": 7523,
      "Ġmine": 7524,
      "ila": 7525,
      "ĠAsian": 7526,
      "Ġenters": 7527,
      "rams": 7528,
      "ĠSpears": 7529,
      "Ġ1931": 7530,
      "imore": 7531,
      "ĠDesc": 7532,
      "Ġ1922": 7533,
      "Ġcoins": 7534,
      "achment": 7535,
      "obi": 7536,
      "ĠMelbourne": 7537,
      "anny": 7538,
      "30": 7539,
      "Ġfactors": 7540,
      "Ġbear": 7541,
      "ĠVice": 7542,
      "ĠHeavy": 7543,
      "ĠClinton": 7544,
      "Ġhunting": 7545,
      "ĠJesus": 7546,
      "iens": 7547,
      "ĠSomers": 7548,
      "Ġhundreds": 7549,
      "DS": 7550,
      "iliar": 7551,
      "ĠEvans": 7552,
      "Ġchannel": 7553,
      "aste": 7554,
      "ĠUSA": 7555,
      "ĠNielsen": 7556,
      "Ġocean": 7557,
      "ĠPope": 7558,
      "Ġuniform": 7559,
      "Ġresigned": 7560,
      "alo": 7561,
      "Ġgay": 7562,
      "ĠAtlant": 7563,
      "Ġride": 7564,
      "Ġreveals": 7565,
      "ĠOrgan": 7566,
      "ĠGuy": 7567,
      "text": 7568,
      "Ġenh": 7569,
      "ĠXbox": 7570,
      "Ġnavig": 7571,
      "Ġskills": 7572,
      "ĠNevertheless": 7573,
      "Ġprevented": 7574,
      "ĠMun": 7575,
      "ĠBed": 7576,
      "Ġpointed": 7577,
      "Ġclim": 7578,
      "rees": 7579,
      "Ġbon": 7580,
      "ĠWing": 7581,
      "Ġwatching": 7582,
      "Ġpushed": 7583,
      "Ġspend": 7584,
      "rot": 7585,
      "Ġ05": 7586,
      "ĠCategory": 7587,
      "ES": 7588,
      "usic": 7589,
      "Ġchapter": 7590,
      "orous": 7591,
      "Ġdrums": 7592,
      "Ġfacing": 7593,
      "ĠStewart": 7594,
      "Ġintent": 7595,
      "Ġopponents": 7596,
      "Ġhappened": 7597,
      "Ġpreferred": 7598,
      "Ġflew": 7599,
      "ĠMuslim": 7600,
      "ĠReal": 7601,
      "Ġfootage": 7602,
      "Ġfil": 7603,
      "ĠOrigin": 7604,
      "lie": 7605,
      "Ġpull": 7606,
      "Ġdifference": 7607,
      "Ġreportedly": 7608,
      "ĠBulgar": 7609,
      "Ġformat": 7610,
      "Ġformally": 7611,
      "Ġfiring": 7612,
      "icians": 7613,
      "ĠTower": 7614,
      "ĠLim": 7615,
      "Ġpoetry": 7616,
      "Ġaccomp": 7617,
      "Ġcheck": 7618,
      "Ġinhabit": 7619,
      "Ġintense": 7620,
      "Ġlanguages": 7621,
      "ĠTurkish": 7622,
      "Ġthereafter": 7623,
      "oto": 7624,
      "Ġlocomot": 7625,
      "Ġhanded": 7626,
      "Ġthousand": 7627,
      "ĠExpress": 7628,
      "itter": 7629,
      "ogether": 7630,
      "Ġresign": 7631,
      "Ġrelationships": 7632,
      "ĠSarah": 7633,
      "Ġchain": 7634,
      "ĠCarib": 7635,
      "tty": 7636,
      "ĠBenn": 7637,
      "Ġnotably": 7638,
      "ĠAustria": 7639,
      "ĠSamuel": 7640,
      "ski": 7641,
      "ĠRey": 7642,
      "ĠQueens": 7643,
      "Ġdevice": 7644,
      "Ġvisitors": 7645,
      "Ġvision": 7646,
      "ĠLennon": 7647,
      "Ġgather": 7648,
      "Ġexposed": 7649,
      "Ġanimation": 7650,
      "ĠColorado": 7651,
      "Ġexisted": 7652,
      "Ġsurrender": 7653,
      "Ġemployees": 7654,
      "Ġbes": 7655,
      "ĠAud": 7656,
      "ologists": 7657,
      "ĠGreece": 7658,
      "onies": 7659,
      "Ġhearing": 7660,
      "idi": 7661,
      "ĠRaw": 7662,
      "Ġdeparted": 7663,
      "Ġaccompany": 7664,
      "ĠBird": 7665,
      "ĠAlbums": 7666,
      "Ġparticipate": 7667,
      "roc": 7668,
      "Ġlinked": 7669,
      "Ġ170": 7670,
      "ĠBaltimore": 7671,
      "ĠHans": 7672,
      "mad": 7673,
      "ois": 7674,
      "hatt": 7675,
      "bean": 7676,
      "ds": 7677,
      "Ġrebell": 7678,
      "Ġdialogue": 7679,
      "olis": 7680,
      "ĠArk": 7681,
      "spec": 7682,
      "yo": 7683,
      "stic": 7684,
      "ĠMalays": 7685,
      "Ġextent": 7686,
      "Ġresidential": 7687,
      "Ġafternoon": 7688,
      "Ġcruisers": 7689,
      "ĠStock": 7690,
      "da": 7691,
      "ican": 7692,
      "Ġinstance": 7693,
      "Ġannounce": 7694,
      "Ġlearning": 7695,
      "Ġsubstantial": 7696,
      "ullivan": 7697,
      "Ġdetailed": 7698,
      "igen": 7699,
      "Ġbeach": 7700,
      "Ġaudio": 7701,
      "ropolitan": 7702,
      "Ġvul": 7703,
      "Ġimpressed": 7704,
      "orage": 7705,
      "ĠWriting": 7706,
      "Ġutil": 7707,
      "ĠCz": 7708,
      "ĠCam": 7709,
      "ĠHorn": 7710,
      "ĠLane": 7711,
      "MA": 7712,
      "jo": 7713,
      "Ġstem": 7714,
      "unes": 7715,
      "Ġuniverse": 7716,
      "Ġavo": 7717,
      "prise": 7718,
      "ĠInitially": 7719,
      "Ġmart": 7720,
      "ĠMarshall": 7721,
      "Ġske": 7722,
      "Ġeasy": 7723,
      "endment": 7724,
      "Ġperiods": 7725,
      "ĠWrestling": 7726,
      "Ġplate": 7727,
      "ĠFoundation": 7728,
      "Ġhuge": 7729,
      "orial": 7730,
      "Ġtempor": 7731,
      "lock": 7732,
      "Ġpublisher": 7733,
      "ĠDave": 7734,
      "Ġenthus": 7735,
      "Ġhat": 7736,
      "ribed": 7737,
      "Ġimprison": 7738,
      "Ġtaught": 7739,
      "Ġterritories": 7740,
      "Ġteeth": 7741,
      "ĠFrederick": 7742,
      "Ġreviewers": 7743,
      "opter": 7744,
      "Ġdriver": 7745,
      "Ġtesting": 7746,
      "ĠErn": 7747,
      "Ġvideos": 7748,
      "viation": 7749,
      "Ġ1928": 7750,
      "Ġhappy": 7751,
      "Ġisolated": 7752,
      "otes": 7753,
      "Ġstable": 7754,
      "Ġfeud": 7755,
      "ogan": 7756,
      "Ġvessel": 7757,
      "iami": 7758,
      "boy": 7759,
      "Ġtests": 7760,
      "Ġca": 7761,
      "Ġupd": 7762,
      "ĠHorse": 7763,
      "Ġbridges": 7764,
      "ĠHaving": 7765,
      "Ġdiameter": 7766,
      "Ġlob": 7767,
      "ĠBanks": 7768,
      "Ġreprodu": 7769,
      "Ġunderstand": 7770,
      "Ġwithdrew": 7771,
      "Ġpicked": 7772,
      "Ġencountered": 7773,
      "Ġupgraded": 7774,
      "roph": 7775,
      "Ġnegotiations": 7776,
      "eping": 7777,
      "Ġagents": 7778,
      "FC": 7779,
      "Ġsympt": 7780,
      "Ġgoods": 7781,
      "Ġinher": 7782,
      "cho": 7783,
      "ĠMario": 7784,
      "ĠSomerset": 7785,
      "ĠRelease": 7786,
      "atically": 7787,
      "ĠAnna": 7788,
      "Ġ1925": 7789,
      "roke": 7790,
      "ĠBuck": 7791,
      "ĠJess": 7792,
      "Ġdangerous": 7793,
      "idae": 7794,
      "Ġaged": 7795,
      "ĠKnow": 7796,
      "Ġsimultane": 7797,
      "Ġ1890": 7798,
      "Ġdiagn": 7799,
      "mission": 7800,
      "Ġjunior": 7801,
      "Ġfounder": 7802,
      "Ġsatell": 7803,
      "Ġnormally": 7804,
      "Ġdeter": 7805,
      "ĠAnglo": 7806,
      "Ġbehavi": 7807,
      "sea": 7808,
      "Ġrelie": 7809,
      "Ġwindow": 7810,
      "Ġfactor": 7811,
      "Ġkeeping": 7812,
      "ĠMississ": 7813,
      "Ġcollaps": 7814,
      "Ġspecimens": 7815,
      "Ġreun": 7816,
      "Ġpartly": 7817,
      "ĠMiami": 7818,
      "utt": 7819,
      "Ġsure": 7820,
      "ĠGiants": 7821,
      "Ġfur": 7822,
      "Ġmedium": 7823,
      "borough": 7824,
      "Ġethnic": 7825,
      "Ġtechnique": 7826,
      "Ġfrequent": 7827,
      "ĠPlayer": 7828,
      "Ġtie": 7829,
      "Ġcrisis": 7830,
      "olas": 7831,
      "Ġpounds": 7832,
      "ĠCall": 7833,
      "Ġmir": 7834,
      "Ġlowest": 7835,
      "etime": 7836,
      "ĠAlab": 7837,
      "ĠExt": 7838,
      "bridge": 7839,
      "Ġvic": 7840,
      "Ġprohib": 7841,
      "Ġmonument": 7842,
      "Ġorganizations": 7843,
      "Ġoutf": 7844,
      "ĠSeattle": 7845,
      "Ġapprec": 7846,
      "Ġ1924": 7847,
      "Ġtoll": 7848,
      "Ġdiet": 7849,
      "Ġengineering": 7850,
      "Ġturrets": 7851,
      "Ġtraveled": 7852,
      "iable": 7853,
      "away": 7854,
      "Ġwhereas": 7855,
      "ĠChampionships": 7856,
      "ĠSoon": 7857,
      "Ġrefers": 7858,
      "chen": 7859,
      "ĠCre": 7860,
      "Ġinsc": 7861,
      "Ġrarely": 7862,
      "ĠOp": 7863,
      "Ġresear": 7864,
      "Ġdesigner": 7865,
      "helm": 7866,
      "Ġtone": 7867,
      "Ġped": 7868,
      "ĠTrek": 7869,
      "usal": 7870,
      "Ġproced": 7871,
      "ĠTreaty": 7872,
      "Ġlose": 7873,
      "Ġvice": 7874,
      "Ġmaintenance": 7875,
      "ĠHuman": 7876,
      "Ġax": 7877,
      "amese": 7878,
      "Ã©e": 7879,
      "iece": 7880,
      "brid": 7881,
      "Ġdoesn": 7882,
      "ĠCR": 7883,
      "ĠHand": 7884,
      "Ġpartially": 7885,
      "Ġ07": 7886,
      "ĠML": 7887,
      "Ġorb": 7888,
      "gery": 7889,
      "Ġpermission": 7890,
      "ĠIowa": 7891,
      "Ġspending": 7892,
      "Ġadvice": 7893,
      "Ġverse": 7894,
      "ĠAlabama": 7895,
      "Ġlad": 7896,
      "Ġcriticised": 7897,
      "Ġbypass": 7898,
      "ennis": 7899,
      "ĠForces": 7900,
      "ĠAustralians": 7901,
      "ĠNapole": 7902,
      "igs": 7903,
      "Ġplatinum": 7904,
      "Ġcomplic": 7905,
      "Ġdifficulties": 7906,
      "xual": 7907,
      "Ġfinale": 7908,
      "ygen": 7909,
      "Ġagree": 7910,
      "Ġrestric": 7911,
      "Ġuncertain": 7912,
      "Ġpolicies": 7913,
      "ls": 7914,
      "oked": 7915,
      "Ġexcell": 7916,
      "Ġfinals": 7917,
      "Ġcompete": 7918,
      "Ġranking": 7919,
      "Ġphen": 7920,
      "Ġproport": 7921,
      "Ġmainstream": 7922,
      "Ġindicate": 7923,
      "col": 7924,
      "Ġpersonality": 7925,
      "Ġunn": 7926,
      "Ġrefuge": 7927,
      "ĠBuff": 7928,
      "ĠHu": 7929,
      "ĠDur": 7930,
      "Ġliqu": 7931,
      "Ġpitched": 7932,
      "ilst": 7933,
      "Ġanticip": 7934,
      "attered": 7935,
      "inction": 7936,
      "Ġconcerts": 7937,
      "ĠThen": 7938,
      "Ġcomments": 7939,
      "Ġrecordings": 7940,
      "Ġremove": 7941,
      "ĠCharlie": 7942,
      "ĠCaribbean": 7943,
      "uscript": 7944,
      "Ġmamm": 7945,
      "Ġshear": 7946,
      "Ġwindows": 7947,
      "Ġcovers": 7948,
      "Ġsafe": 7949,
      "ĠCanal": 7950,
      "ĠMinnes": 7951,
      "Ġsymp": 7952,
      "Ġ1923": 7953,
      "ĠLawrence": 7954,
      "Ġrepair": 7955,
      "Ġstrip": 7956,
      "Ġmoral": 7957,
      "Ġfalls": 7958,
      "Ġrepresentative": 7959,
      "Ġseats": 7960,
      "Ġforcing": 7961,
      "uda": 7962,
      "ĠAh": 7963,
      "Ġrecur": 7964,
      "Ġextreme": 7965,
      "Ġrestrict": 7966,
      "ĠMcD": 7967,
      "ĠYanke": 7968,
      "Ġfighters": 7969,
      "Ġhull": 7970,
      "ĠBros": 7971,
      "Ġrecommend": 7972,
      "Ġrates": 7973,
      "Ġjur": 7974,
      "Ġovers": 7975,
      "ĠCrown": 7976,
      "chell": 7977,
      "ĠMP": 7978,
      "Ġalter": 7979,
      "ĠNat": 7980,
      "power": 7981,
      "Ġprotest": 7982,
      "Ġprompted": 7983,
      "Ġtot": 7984,
      "Ġtruth": 7985,
      "Ġdestroyers": 7986,
      "ĠTownship": 7987,
      "Ġtenth": 7988,
      "rang": 7989,
      "ĠSenator": 7990,
      "Ġdynasty": 7991,
      "enh": 7992,
      "Ġdiff": 7993,
      "Ġdescribe": 7994,
      "ĠMach": 7995,
      "Ġreconst": 7996,
      "Ġunderw": 7997,
      "Ġexamples": 7998,
      "ĠEP": 7999,
      "Ġminimum": 8000,
      "ĠIan": 8001,
      "Ġbases": 8002,
      "Ġtub": 8003,
      "Ġphr": 8004,
      "isd": 8005,
      "Ġpin": 8006,
      "ĠMinistry": 8007,
      "ĠNazi": 8008,
      "mates": 8009,
      "Ġtravelled": 8010,
      "Ġhockey": 8011,
      "Ar": 8012,
      "urance": 8013,
      "Ġchurches": 8014,
      "ĠUSD": 8015,
      "Ġfriendly": 8016,
      "ĠGarden": 8017,
      "ĠBlood": 8018,
      "ĠGrammy": 8019,
      "sk": 8020,
      "ĠBrig": 8021,
      "ifer": 8022,
      "ĠHealth": 8023,
      "ĠDead": 8024,
      "ĠHungary": 8025,
      "Ġneighborhood": 8026,
      "die": 8027,
      "Ġboys": 8028,
      "Ġpric": 8029,
      "imeter": 8030,
      "Ġbombers": 8031,
      "alions": 8032,
      "ĠPolit": 8033,
      "Ġdrawing": 8034,
      "ĠCountry": 8035,
      "ĠÃĨ": 8036,
      "ĠBenj": 8037,
      "ĠChristopher": 8038,
      "mers": 8039,
      "ĠDance": 8040,
      "ĠReturn": 8041,
      "ĠBan": 8042,
      "Ġinaug": 8043,
      "Ġju": 8044,
      "ugby": 8045,
      "Ġdoctor": 8046,
      "Ġmand": 8047,
      "Ġhousing": 8048,
      "Ġdisplayed": 8049,
      "Ġapproval": 8050,
      "Ġtribute": 8051,
      "Ġadjacent": 8052,
      "ĠBelgium": 8053,
      "ĠRoc": 8054,
      "onnaissance": 8055,
      "Ġcollapse": 8056,
      "Ġturb": 8057,
      "Ġcredits": 8058,
      "Ġaware": 8059,
      "eu": 8060,
      "Ġjoining": 8061,
      "Ġlisting": 8062,
      "wa": 8063,
      "ĠHamp": 8064,
      "ods": 8065,
      "Ġ01": 8066,
      "Ġcreator": 8067,
      "Ġgrown": 8068,
      "Ġdesignation": 8069,
      "ĠDiego": 8070,
      "bra": 8071,
      "ĠDC": 8072,
      "ĠEvent": 8073,
      "odore": 8074,
      "ante": 8075,
      "zz": 8076,
      "ĠShakesp": 8077,
      "Ġpartnership": 8078,
      "ĠRand": 8079,
      "Ġadvis": 8080,
      "Ġfung": 8081,
      "ĠCold": 8082,
      "Ġexplo": 8083,
      "Ġprotagonist": 8084,
      "Ġrefere": 8085,
      "iac": 8086,
      "Ġstorms": 8087,
      "Ġmoments": 8088,
      "Äį": 8089,
      "ĠRepresent": 8090,
      "Ġarts": 8091,
      "Ġacted": 8092,
      "Ġcreative": 8093,
      "icy": 8094,
      "ĠMedal": 8095,
      "Ġchanging": 8096,
      "Ġpowered": 8097,
      "ĠGab": 8098,
      "Ġwheel": 8099,
      "ĠMuch": 8100,
      "Ġasks": 8101,
      "Ġ*": 8102,
      "ĠHud": 8103,
      "ãģ": 8104,
      "ĠKal": 8105,
      "ĠLaure": 8106,
      "itud": 8107,
      "Ġrounds": 8108,
      "Ġinstrumental": 8109,
      "ĠChildren": 8110,
      "Ġradar": 8111,
      "Ġtrend": 8112,
      "Ġvictories": 8113,
      "velt": 8114,
      "Ġpossession": 8115,
      "ĠCamer": 8116,
      "ĠLl": 8117,
      "Ġ1908": 8118,
      "Ġdollars": 8119,
      "Ġels": 8120,
      "ĠBeck": 8121,
      "Ġpaintings": 8122,
      "Ġcanal": 8123,
      "Ġtreaty": 8124,
      "Ġappointment": 8125,
      "ounced": 8126,
      "Ġcovering": 8127,
      "ĠKhan": 8128,
      "ĠMichel": 8129,
      "Ġelsewhere": 8130,
      "sters": 8131,
      "Ġ1905": 8132,
      "Ġvillages": 8133,
      "Ġsurvive": 8134,
      "ĠCred": 8135,
      "esh": 8136,
      "Ġminimal": 8137,
      "Ġ1909": 8138,
      "Ġeliminated": 8139,
      "ĠRecord": 8140,
      "otten": 8141,
      "ĠLegacy": 8142,
      "icts": 8143,
      "Ġscientists": 8144,
      "Ġsurprise": 8145,
      "ĠBenjamin": 8146,
      "ĠGuardian": 8147,
      "Ġpool": 8148,
      "Ġinnov": 8149,
      "Ġprecip": 8150,
      "Ã§": 8151,
      "Ġtelling": 8152,
      "ĠKurt": 8153,
      "ĠMinnesota": 8154,
      "ivated": 8155,
      "ĠHills": 8156,
      "Ġoccupation": 8157,
      "Ġseeking": 8158,
      "ĠRoose": 8159,
      "ĠMississipp": 8160,
      "Ġbrick": 8161,
      "Ġhelic": 8162,
      "Ġarriving": 8163,
      "Ġrhythm": 8164,
      "cop": 8165,
      "Ġsuicide": 8166,
      "Ġanaly": 8167,
      "Ġloan": 8168,
      "Ġnewspapers": 8169,
      "Ġemperor": 8170,
      "Ġhelping": 8171,
      "ĠVietnamese": 8172,
      "ecraft": 8173,
      "ĠHockey": 8174,
      "Ġpurposes": 8175,
      "Ġbenefit": 8176,
      "Ġtwin": 8177,
      "Ġsmooth": 8178,
      "ĠAlfred": 8179,
      "Ġvalues": 8180,
      "ĠAR": 8181,
      "Ġoccasions": 8182,
      "ouri": 8183,
      "ĠSet": 8184,
      "Ġgard": 8185,
      "active": 8186,
      "ĠInterstate": 8187,
      "ĠFal": 8188,
      "Ġunlike": 8189,
      "ĠManhatt": 8190,
      "Ġdispute": 8191,
      "ĠAdminist": 8192,
      "ĠHong": 8193,
      "rupted": 8194,
      "Ġfishing": 8195,
      "ĠHind": 8196,
      "ĠDiv": 8197,
      "ĠManhattan": 8198,
      "vy": 8199,
      "Ġoption": 8200,
      "ĠTun": 8201,
      "ĠThor": 8202,
      "Ġdegrees": 8203,
      "ĠStevens": 8204,
      "Ġwet": 8205,
      "Ġ105": 8206,
      "Ġgat": 8207,
      "ĠWalker": 8208,
      "orious": 8209,
      "Ġmurd": 8210,
      "uman": 8211,
      "Ġ125": 8212,
      "Ġsoil": 8213,
      "ographical": 8214,
      "roid": 8215,
      "Ġmanuscript": 8216,
      "no": 8217,
      "ĠLin": 8218,
      "Ġschedule": 8219,
      "Ġstruggle": 8220,
      "Ġbalance": 8221,
      "ĠAff": 8222,
      "ĠFranklin": 8223,
      "Ġ04": 8224,
      "Ġpreserved": 8225,
      "ĠPeninsula": 8226,
      "ĠComb": 8227,
      "rm": 8228,
      "Ġcryst": 8229,
      "overs": 8230,
      "ĠShel": 8231,
      "ĠFlight": 8232,
      "ĠPerform": 8233,
      "ĠSon": 8234,
      "Ġresumed": 8235,
      "ĠAnim": 8236,
      "Ġcircumst": 8237,
      "ĠRoosevelt": 8238,
      "gon": 8239,
      "ĠTrust": 8240,
      "ĠKansas": 8241,
      "Ġ1907": 8242,
      "ĠBh": 8243,
      "acks": 8244,
      "Ġsurvivors": 8245,
      "orph": 8246,
      "Ġpublicly": 8247,
      "Ġcompeted": 8248,
      "ĠÄ": 8249,
      "Ġcateg": 8250,
      "munition": 8251,
      "nik": 8252,
      "Ġflash": 8253,
      "atherine": 8254,
      "Ġcooper": 8255,
      "Ġviolent": 8256,
      "Ġ164": 8257,
      "Ġcandidates": 8258,
      "rix": 8259,
      "Ġhonour": 8260,
      "Ġpy": 8261,
      "rome": 8262,
      "Ġprocl": 8263,
      "Ġintensified": 8264,
      "ĠBull": 8265,
      "ĠWard": 8266,
      "Ġspan": 8267,
      "ishment": 8268,
      "Ġimpossible": 8269,
      "ĠPortland": 8270,
      "Ġpilots": 8271,
      "Ġwrest": 8272,
      "Ġdies": 8273,
      "acle": 8274,
      "ĠFried": 8275,
      "action": 8276,
      "ĠIndustry": 8277,
      "Ġneutral": 8278,
      "Ġwedding": 8279,
      "ĠNash": 8280,
      "Ġbid": 8281,
      "incial": 8282,
      "SP": 8283,
      "ĠIce": 8284,
      "Ġabilities": 8285,
      "Ġcoordin": 8286,
      "Ġcook": 8287,
      "ulating": 8288,
      "Ġbeautiful": 8289,
      "mph": 8290,
      "sky": 8291,
      "Ġalignment": 8292,
      "Ġconcrete": 8293,
      "Ġmulti": 8294,
      "ĠSatur": 8295,
      "oking": 8296,
      "Ġassisted": 8297,
      "ĠHotel": 8298,
      "ĠPhilippines": 8299,
      "ĠBorn": 8300,
      "fted": 8301,
      "ĠVI": 8302,
      "Ġpoison": 8303,
      "Ġargument": 8304,
      "ĠLith": 8305,
      "Ġprosp": 8306,
      "Ġdefeating": 8307,
      "Ġconsult": 8308,
      "Ġadvoc": 8309,
      "Ġelectronic": 8310,
      "obile": 8311,
      "Ġteaching": 8312,
      "Ġnations": 8313,
      "Ġ1880": 8314,
      "ĠBuilding": 8315,
      "ĠDom": 8316,
      "ensions": 8317,
      "Ġsimpl": 8318,
      "Ġbusinesses": 8319,
      "Ġcustom": 8320,
      "isp": 8321,
      "Ġlists": 8322,
      "Ġovert": 8323,
      "ĠPle": 8324,
      "ĠJos": 8325,
      "Ġrivers": 8326,
      "aph": 8327,
      "Ġserial": 8328,
      "ilty": 8329,
      "ĠNative": 8330,
      "Ġ165": 8331,
      "Ġlem": 8332,
      "Ġdiscip": 8333,
      "ĠCole": 8334,
      "Ġdanc": 8335,
      "Ġelabor": 8336,
      "Ġabsol": 8337,
      "ĠWolf": 8338,
      "Ġsuitable": 8339,
      "Ġopponent": 8340,
      "Ġassists": 8341,
      "ĠMississippi": 8342,
      "Ġagricultural": 8343,
      "ĠLam": 8344,
      "ĠBrun": 8345,
      "Ġmines": 8346,
      "Ġencounter": 8347,
      "Ġoxygen": 8348,
      "Ġsubmitted": 8349,
      "Ġfoundation": 8350,
      "Ġinteresting": 8351,
      "Ġtunnel": 8352,
      "eare": 8353,
      "à¤": 8354,
      "Ġsigning": 8355,
      "ĠDigital": 8356,
      "Ġparent": 8357,
      "ĠArea": 8358,
      "Ġbacking": 8359,
      "Ġfifteen": 8360,
      "Ġscholar": 8361,
      "ĠCob": 8362,
      "ĠBlues": 8363,
      "Ġunderstanding": 8364,
      "itated": 8365,
      "CA": 8366,
      "Ġbehalf": 8367,
      "ĠDw": 8368,
      "rows": 8369,
      "iveness": 8370,
      "Ġsunk": 8371,
      "Ġciting": 8372,
      "icer": 8373,
      "ĠHem": 8374,
      "Ġwaves": 8375,
      "Ġgrey": 8376,
      "Ġsank": 8377,
      "ĠWol": 8378,
      "ĠSullivan": 8379,
      "Ġpercentage": 8380,
      "ĠAlexand": 8381,
      "Ġforests": 8382,
      "face": 8383,
      "Ġninet": 8384,
      "Ġammunition": 8385,
      "Ġsymptoms": 8386,
      "ĠShakespeare": 8387,
      "dale": 8388,
      "ĠTag": 8389,
      "Ġorbit": 8390,
      "Ġspiritual": 8391,
      "ctic": 8392,
      "ĠDod": 8393,
      "ĠCampbell": 8394,
      "ĠTenness": 8395,
      "bl": 8396,
      "Ġparish": 8397,
      "unch": 8398,
      "Ġsubjects": 8399,
      "ĠHalo": 8400,
      "Ġforty": 8401,
      "Ġskull": 8402,
      "Ġsituated": 8403,
      "Ġclosing": 8404,
      "ĠAthlet": 8405,
      "Ġimperial": 8406,
      "ĠHindu": 8407,
      "Ġnom": 8408,
      "Ġsigns": 8409,
      "Ġjunction": 8410,
      "ĠVinc": 8411,
      "Ġrepairs": 8412,
      "alities": 8413,
      "ĠProm": 8414,
      "agen": 8415,
      "Ġusual": 8416,
      "ĠKings": 8417,
      "ĠNon": 8418,
      "ĠHero": 8419,
      "onymous": 8420,
      "Ġresolution": 8421,
      "Ġillness": 8422,
      "Ġvoiced": 8423,
      "Ġdeliber": 8424,
      "Ġportra": 8425,
      "ĠSteven": 8426,
      "Ġcorpor": 8427,
      "ĠRab": 8428,
      "asters": 8429,
      "Ġassess": 8430,
      "Ġcontroll": 8431,
      "ĠBox": 8432,
      "Ġfunctions": 8433,
      "Ġaudiences": 8434,
      "Ġattendance": 8435,
      "ĠHistoric": 8436,
      "ĠFriend": 8437,
      "ĠLucas": 8438,
      "10": 8439,
      "ĠRace": 8440,
      "ĠDest": 8441,
      "ĠJosh": 8442,
      "Ġasking": 8443,
      "lah": 8444,
      "Ġdisaster": 8445,
      "ĠEgyptian": 8446,
      "Ġcollaboration": 8447,
      "ĠKu": 8448,
      "Ġrestaurant": 8449,
      "father": 8450,
      "amic": 8451,
      "Ġstring": 8452,
      "Ġfeelings": 8453,
      "Ġsuspended": 8454,
      "ĠMack": 8455,
      "Ġunderground": 8456,
      "Ġflights": 8457,
      "Ġmountains": 8458,
      "Ġlieutenant": 8459,
      "Ġworship": 8460,
      "Ġevil": 8461,
      "amps": 8462,
      "Ġtargets": 8463,
      "Ġcargo": 8464,
      "ĠRen": 8465,
      "Ġaffairs": 8466,
      "Ġexit": 8467,
      "Ġ1870": 8468,
      "ĠTennessee": 8469,
      "Ġearthqu": 8470,
      "Äĥ": 8471,
      "aron": 8472,
      "ĠWarren": 8473,
      "Ġoperational": 8474,
      "Ġiniti": 8475,
      "Ġpron": 8476,
      "Ġwilling": 8477,
      "ĠLouisiana": 8478,
      "ĠMargaret": 8479,
      "rator": 8480,
      "sex": 8481,
      "Ġ1906": 8482,
      "Ġaffair": 8483,
      "Ġrecre": 8484,
      "rus": 8485,
      "ËĪ": 8486,
      "osm": 8487,
      "Ġfuneral": 8488,
      "ĠDepression": 8489,
      "ori": 8490,
      "Ġanch": 8491,
      "Ġaimed": 8492,
      "ĠLabour": 8493,
      "Ġprol": 8494,
      "resents": 8495,
      "Ġ360": 8496,
      "ĠMontreal": 8497,
      "ĠTan": 8498,
      "idd": 8499,
      "Ġcompilation": 8500,
      "ĠMcL": 8501,
      "Ġ1904": 8502,
      "ĠPalest": 8503,
      "Ġpoorly": 8504,
      "Ġdocuments": 8505,
      "Ġabol": 8506,
      "Ġfiled": 8507,
      "uv": 8508,
      "ques": 8509,
      "Ġlect": 8510,
      "Ġmeasured": 8511,
      "uable": 8512,
      "Ġadopt": 8513,
      "ĠMissouri": 8514,
      "Ġsector": 8515,
      "Ġsubt": 8516,
      "Ġaffili": 8517,
      "Ġfavorable": 8518,
      "racts": 8519,
      "Ġregistered": 8520,
      "Ġliked": 8521,
      "rants": 8522,
      "weet": 8523,
      "Ġrecognised": 8524,
      "Ġrout": 8525,
      "Ġelder": 8526,
      "Ġconscious": 8527,
      "Ġcircuit": 8528,
      "ĠApple": 8529,
      "Ġstatue": 8530,
      "Ġtemporarily": 8531,
      "Ġbot": 8532,
      "andal": 8533,
      "Ġexplosion": 8534,
      "ateur": 8535,
      "ĠStat": 8536,
      "Ġshells": 8537,
      "Ġentertainment": 8538,
      "Ġrepresents": 8539,
      "Ġprofessor": 8540,
      "ĠCritics": 8541,
      "ĠNag": 8542,
      "fe": 8543,
      "anium": 8544,
      "Ġjazz": 8545,
      "Ġreplacing": 8546,
      "ĠBilly": 8547,
      "ĠDragon": 8548,
      "ĠMitchell": 8549,
      "ception": 8550,
      "ĠRing": 8551,
      "Ġsequences": 8552,
      "ĠCow": 8553,
      "Ġpreparation": 8554,
      "ĠJoh": 8555,
      "ĠStr": 8556,
      "ĠSmall": 8557,
      "Ġfifty": 8558,
      "inea": 8559,
      "ika": 8560,
      "Ġben": 8561,
      "ĠCzech": 8562,
      "idel": 8563,
      "Ġoffering": 8564,
      "ĠKirk": 8565,
      "Ġartwork": 8566,
      "Ġinterpre": 8567,
      "ĠIndependent": 8568,
      "Ġ03": 8569,
      "overe": 8570,
      "Ġresidence": 8571,
      "Ġrestoration": 8572,
      "ĠSnow": 8573,
      "ĠPed": 8574,
      "Ġcyl": 8575,
      "gate": 8576,
      "Ġrig": 8577,
      "Ġdirectors": 8578,
      "Ġnucle": 8579,
      "ĠGraham": 8580,
      "ĠMess": 8581,
      "ĠVis": 8582,
      "Ġmargin": 8583,
      "ĠBusiness": 8584,
      "Ġwore": 8585,
      "adi": 8586,
      "ĠMes": 8587,
      "Ġterror": 8588,
      "ĠMagn": 8589,
      "ĠFem": 8590,
      "orders": 8591,
      "era": 8592,
      "Ġreluct": 8593,
      "Ġreflected": 8594,
      "ĠNear": 8595,
      "Ġoverw": 8596,
      "Ġprime": 8597,
      "Ġexpensive": 8598,
      "issions": 8599,
      "species": 8600,
      "Ġalliance": 8601,
      "Ġsuggesting": 8602,
      "ĠYe": 8603,
      "Ġtouring": 8604,
      "Ġthinking": 8605,
      "inental": 8606,
      "ĠLov": 8607,
      "Ġcompleting": 8608,
      "artney": 8609,
      "Ġrebuilt": 8610,
      "Ġalcohol": 8611,
      "ancell": 8612,
      "Ġamongst": 8613,
      "Ġbanks": 8614,
      "unc": 8615,
      "bishop": 8616,
      "Ġfrig": 8617,
      "CC": 8618,
      "ĠMaur": 8619,
      "ĠUE": 8620,
      "ĠSeven": 8621,
      "ylan": 8622,
      "Ġhorror": 8623,
      "race": 8624,
      "Ġescaped": 8625,
      "Ġpulled": 8626,
      "Ġbay": 8627,
      "ellect": 8628,
      "quir": 8629,
      "Ġlacked": 8630,
      "ĠAriz": 8631,
      "Ġcancelled": 8632,
      "ĠFrid": 8633,
      "Ġgrav": 8634,
      "ĠCuba": 8635,
      "rep": 8636,
      "ĠEdge": 8637,
      "Ġarmored": 8638,
      "Ġcod": 8639,
      "Ġdimens": 8640,
      "Ġcoverage": 8641,
      "TA": 8642,
      "Ġreven": 8643,
      "Ġwasn": 8644,
      "Ġracing": 8645,
      "Ġamounts": 8646,
      "Ġclearly": 8647,
      "acon": 8648,
      "ĠChand": 8649,
      "Ġdecides": 8650,
      "ĠGuide": 8651,
      "Ġengagement": 8652,
      "Ġpredomin": 8653,
      "Ġtribes": 8654,
      "Ġargues": 8655,
      "Ġerupt": 8656,
      "Ġcolonies": 8657,
      "iph": 8658,
      "Ġdramatic": 8659,
      "Ġgarden": 8660,
      "Ġfamiliar": 8661,
      "Ġcommunication": 8662,
      "apping": 8663,
      "overeign": 8664,
      "Ġpatterns": 8665,
      "Ġcous": 8666,
      "Ġrit": 8667,
      "ĠIndies": 8668,
      "Ġmarks": 8669,
      "ĠPhoen": 8670,
      "ĠFiles": 8671,
      "Ġdrove": 8672,
      "okes": 8673,
      "urally": 8674,
      "Ġownership": 8675,
      "rak": 8676,
      "ĠTamil": 8677,
      "Ġseed": 8678,
      "Ġremnants": 8679,
      "Ġperspective": 8680,
      "Ġmerchant": 8681,
      "ĠCher": 8682,
      "ĠPersian": 8683,
      "uary": 8684,
      "Ġsaved": 8685,
      "ĠSony": 8686,
      "storm": 8687,
      "Ġgang": 8688,
      "ĠGrey": 8689,
      "ĠArizona": 8690,
      "Ġcontributions": 8691,
      "ĠSaturday": 8692,
      "Ġmathemat": 8693,
      "Ġpoems": 8694,
      "Ġsolution": 8695,
      "Ġbadly": 8696,
      "Ġprint": 8697,
      "Ġfastest": 8698,
      "Ġadministrative": 8699,
      "Ġwicket": 8700,
      "Ġfalse": 8701,
      "Ġtag": 8702,
      "Ġexecut": 8703,
      "ĠMarie": 8704,
      "Ġ115": 8705,
      "Ġarmament": 8706,
      "Ġcrews": 8707,
      "Ġplayoffs": 8708,
      "ti": 8709,
      "Ãº": 8710,
      "ĠDylan": 8711,
      "Ġmilitia": 8712,
      "ieties": 8713,
      "Ġexcav": 8714,
      "Ġartistic": 8715,
      "ĠScout": 8716,
      "Ġcharacterized": 8717,
      "Ġbulk": 8718,
      "athy": 8719,
      "Ġboundary": 8720,
      "Ġseverely": 8721,
      "Ġinstitutions": 8722,
      "Ġrising": 8723,
      "Ġearning": 8724,
      "exp": 8725,
      "je": 8726,
      "ses": 8727,
      "Ġflagship": 8728,
      "ĠConfederate": 8729,
      "ĠBureau": 8730,
      "ĠLas": 8731,
      "Ġdisappoin": 8732,
      "fish": 8733,
      "idency": 8734,
      "Ġkings": 8735,
      "Ġretail": 8736,
      "ĠPa": 8737,
      "oga": 8738,
      "Ġdepending": 8739,
      "Ġinhabitants": 8740,
      "Ġnotice": 8741,
      "itting": 8742,
      "Ġbran": 8743,
      "Ġcontext": 8744,
      "ova": 8745,
      "omber": 8746,
      "Ġexplains": 8747,
      "Ġideal": 8748,
      "Ġdistinctive": 8749,
      "bre": 8750,
      "orer": 8751,
      "mented": 8752,
      "Ġfrust": 8753,
      "Ġdemonstrated": 8754,
      "Ġthrew": 8755,
      "Ġinland": 8756,
      "Ġcomparison": 8757,
      "ĠOklah": 8758,
      "Ġbronze": 8759,
      "Ġgenetic": 8760,
      "Ġrestricted": 8761,
      "Ġcondem": 8762,
      "equ": 8763,
      "Ġranks": 8764,
      "Ġbowling": 8765,
      "Ġranging": 8766,
      "cru": 8767,
      "Ġrecip": 8768,
      "Ġarrive": 8769,
      "Ġfallen": 8770,
      "ĠSin": 8771,
      "elli": 8772,
      "Ġearn": 8773,
      "Ġsisters": 8774,
      "ĠAustrian": 8775,
      "Ġcontrols": 8776,
      "ectic": 8777,
      "uations": 8778,
      "Ġquiet": 8779,
      "ivia": 8780,
      "ĠNik": 8781,
      "Ġexplain": 8782,
      "ĠSwitzer": 8783,
      "ĠAmy": 8784,
      "Ġgap": 8785,
      "ĠLang": 8786,
      "Ġmaneu": 8787,
      "Ġloop": 8788,
      "ĠProgram": 8789,
      "ĠSuch": 8790,
      "ĠLiz": 8791,
      "Ġvel": 8792,
      "ĠkW": 8793,
      "Ġobvious": 8794,
      "ĠBroadway": 8795,
      "Ġwider": 8796,
      "life": 8797,
      "Ġpractices": 8798,
      "Ġwants": 8799,
      "Ġelectron": 8800,
      "Ġ1901": 8801,
      "Ġrevol": 8802,
      "Ġ174": 8803,
      "ĠHarvey": 8804,
      "ĠWilhelm": 8805,
      "Ġvulner": 8806,
      "Ġtip": 8807,
      "Ġtrick": 8808,
      "ĠEconom": 8809,
      "formation": 8810,
      "ĠSwitzerland": 8811,
      "Ġshield": 8812,
      "Ġconservative": 8813,
      "Ġriders": 8814,
      "ĠMrs": 8815,
      "ĠMurphy": 8816,
      "Ġfaster": 8817,
      "Ġmental": 8818,
      "lings": 8819,
      "otton": 8820,
      "ĠABC": 8821,
      "Ġacceler": 8822,
      "asts": 8823,
      "ocking": 8824,
      "Ġnorthward": 8825,
      "Ġexhibition": 8826,
      "Ġkit": 8827,
      "Ġmeat": 8828,
      "Ġsynd": 8829,
      "ĠNa": 8830,
      "Ġsurge": 8831,
      "Ġframe": 8832,
      "Ġdistinguished": 8833,
      "Ġplus": 8834,
      "Ġevolved": 8835,
      "Ġspotted": 8836,
      "eton": 8837,
      "ĠBarry": 8838,
      "Ġpace": 8839,
      "oven": 8840,
      "Ġexclud": 8841,
      "ĠDelaware": 8842,
      "Ġreaches": 8843,
      "tha": 8844,
      "Ġmillimet": 8845,
      "Ġsatellite": 8846,
      "pha": 8847,
      "uma": 8848,
      "Ġnominations": 8849,
      "Ġtriple": 8850,
      "anton": 8851,
      "rÃ©": 8852,
      "Ġprepare": 8853,
      "Ġpalace": 8854,
      "Ġapplication": 8855,
      "hu": 8856,
      "Ġagency": 8857,
      "ĠOklahoma": 8858,
      "EC": 8859,
      "Ġgate": 8860,
      "ĠFederation": 8861,
      "Ġwreck": 8862,
      "ĠTel": 8863,
      "inations": 8864,
      "Ġquarterback": 8865,
      "Ġdominant": 8866,
      "Ġstorage": 8867,
      "Ġtex": 8868,
      "Ġhouseholds": 8869,
      "Ġarmour": 8870,
      "sequently": 8871,
      "ruption": 8872,
      "Ġcarriers": 8873,
      "ĠClar": 8874,
      "ĠOriginal": 8875,
      "Ġprotein": 8876,
      "Ġsubspecies": 8877,
      "Ġpredicted": 8878,
      "Ġautobi": 8879,
      "ĠRat": 8880,
      "Ġ02": 8881,
      "Ġtyphoon": 8882,
      "Ġ1903": 8883,
      "ĠBomb": 8884,
      "Ġvs": 8885,
      "Ġslaves": 8886,
      "Ġ155": 8887,
      "Ġattained": 8888,
      "Ġblocks": 8889,
      "urer": 8890,
      "Ġboss": 8891,
      "Ġintellect": 8892,
      "Ġallies": 8893,
      "Ġbattalions": 8894,
      "Ġ1902": 8895,
      "grade": 8896,
      "Ġprinted": 8897,
      "Ġrepeatedly": 8898,
      "eland": 8899,
      "Ġabund": 8900,
      "uki": 8901,
      "Ġpredecessor": 8902,
      "Ġvast": 8903,
      "ĠLithuan": 8904,
      "Ġthor": 8905,
      "Ġfixed": 8906,
      "Ġstores": 8907,
      "Ġstrict": 8908,
      "Ġvertical": 8909,
      "Ġpeaking": 8910,
      "Ġsurgery": 8911,
      "Ġarticles": 8912,
      "ĠPerry": 8913,
      "ĠRidge": 8914,
      "din": 8915,
      "ĠMik": 8916,
      "Ġoutl": 8917,
      "ĠHarv": 8918,
      "Ġtack": 8919,
      "oned": 8920,
      "iders": 8921,
      "Ġyield": 8922,
      "ĠOriginally": 8923,
      "Ġsignal": 8924,
      "Ġexcellent": 8925,
      "riptions": 8926,
      "ĠLeslie": 8927,
      "lus": 8928,
      "ĠAy": 8929,
      "ĠAld": 8930,
      "ĠFif": 8931,
      "Ġwestward": 8932,
      "ĠBaseball": 8933,
      "Ġbombs": 8934,
      "ĠBaby": 8935,
      "Ġphilosophy": 8936,
      "Å«": 8937,
      "Ġillegal": 8938,
      "IS": 8939,
      "rose": 8940,
      "Ġdisagre": 8941,
      "ascar": 8942,
      "imen": 8943,
      "ĠVe": 8944,
      "Ġbiographer": 8945,
      "ĠTokyo": 8946,
      "Ġphenomen": 8947,
      "Ġadventure": 8948,
      "Ġperceived": 8949,
      "Ġpretty": 8950,
      "Ġremarked": 8951,
      "ĠRih": 8952,
      "vant": 8953,
      "ĠDS": 8954,
      "ĠLess": 8955,
      "Ġwaiting": 8956,
      "Ġcircumstances": 8957,
      "ĠHur": 8958,
      "icate": 8959,
      "Ġcomfort": 8960,
      "ĠDenmark": 8961,
      "ĠMother": 8962,
      "Ġuseful": 8963,
      "Ġmeetings": 8964,
      "Ġseriously": 8965,
      "Ġchoose": 8966,
      "Ġtight": 8967,
      "aro": 8968,
      "ĠHann": 8969,
      "Ġcurren": 8970,
      "Ġapartment": 8971,
      "ĠJonathan": 8972,
      "Ġsurrend": 8973,
      "TW": 8974,
      "Ġcivilian": 8975,
      "ĠRico": 8976,
      "Ġcoinc": 8977,
      "itage": 8978,
      "Ġreconnaissance": 8979,
      "ĠBernard": 8980,
      "ĠJohnny": 8981,
      "yler": 8982,
      "aughters": 8983,
      "Ġsket": 8984,
      "ĠPlayers": 8985,
      "ĠCampaign": 8986,
      "ĠAtlanta": 8987,
      "ĠTerrit": 8988,
      "Ġdrugs": 8989,
      "Ġsick": 8990,
      "Ġgust": 8991,
      "rings": 8992,
      "ĠRoll": 8993,
      "ĠRihanna": 8994,
      "ĠChel": 8995,
      "Ġphone": 8996,
      "Ġdollar": 8997,
      "ĠAbbey": 8998,
      "apolis": 8999,
      "Ġlayer": 9000,
      "Ġbreat": 9001,
      "ĠTon": 9002,
      "Ġwhilst": 9003,
      "Ġchamber": 9004,
      "Ġretain": 9005,
      "azing": 9006,
      "Ġreaders": 9007,
      "Ġinstitution": 9008,
      "ĠPil": 9009,
      "Ġ101": 9010,
      "ĠJuan": 9011,
      "Ġcasting": 9012,
      "emen": 9013,
      "ĠWor": 9014,
      "ĠNixon": 9015,
      "Ġrub": 9016,
      "Ġfriendship": 9017,
      "ng": 9018,
      "Ġholid": 9019,
      "Ġsimilarly": 9020,
      "Ġvisiting": 9021,
      "Ġstrengthened": 9022,
      "rik": 9023,
      "Ġmatters": 9024,
      "Ġtiss": 9025,
      "LC": 9026,
      "mi": 9027,
      "estone": 9028,
      "Ġalive": 9029,
      "Ġdemanded": 9030,
      "Ġhorn": 9031,
      "ĠMaj": 9032,
      "Ġplanets": 9033,
      "rint": 9034,
      "ĠChen": 9035,
      "esses": 9036,
      "ĠEdwards": 9037,
      "ĠInn": 9038,
      "Ġsimultaneously": 9039,
      "inian": 9040,
      "Ġ168": 9041,
      "Ġlegacy": 9042,
      "Ġenlisted": 9043,
      "mingham": 9044,
      "Ġpanel": 9045,
      "arth": 9046,
      "Ġalternate": 9047,
      "ĠPitts": 9048,
      "jan": 9049,
      "ĠArnold": 9050,
      "ĠMcM": 9051,
      "onomy": 9052,
      "Ġempt": 9053,
      "Ġinsisted": 9054,
      "ĠOpp": 9055,
      "ĠRailroad": 9056,
      "ĠWag": 9057,
      "Ġshipping": 9058,
      "Ġbombing": 9059,
      "Ġrevers": 9060,
      "estyle": 9061,
      "ĠKeith": 9062,
      "gro": 9063,
      "Ġlanes": 9064,
      "acc": 9065,
      "Ġjustice": 9066,
      "ĠSoul": 9067,
      "Ġhook": 9068,
      "ĠRal": 9069,
      "ĠRub": 9070,
      "ĠLex": 9071,
      "Ġdemands": 9072,
      "Ġmainland": 9073,
      "Ġneighb": 9074,
      "rov": 9075,
      "Ġrevenue": 9076,
      "ĠMadag": 9077,
      "Ġathletes": 9078,
      "ĠPrize": 9079,
      "ĠIran": 9080,
      "Ġpromised": 9081,
      "ĠJimmy": 9082,
      "PA": 9083,
      "entle": 9084,
      "Ġroots": 9085,
      "Ġportions": 9086,
      "aration": 9087,
      "Ġconsole": 9088,
      "ghan": 9089,
      "ĠSem": 9090,
      "Ġpersonally": 9091,
      "Ġstruggled": 9092,
      "regation": 9093,
      "Ġguilty": 9094,
      "Ġlooks": 9095,
      "Ġdrivers": 9096,
      "ĠInternet": 9097,
      "Ġguitarist": 9098,
      "Ġdefinition": 9099,
      "Ġcontinu": 9100,
      "Ġpropag": 9101,
      "Ġpione": 9102,
      "Ġbacked": 9103,
      "ĠMicro": 9104,
      "lain": 9105,
      "Ġbehaviour": 9106,
      "ĠRachel": 9107,
      "Ġorchestra": 9108,
      "acre": 9109,
      "Ġarmies": 9110,
      "Ġaudition": 9111,
      "Ġdiver": 9112,
      "ĠPars": 9113,
      "Ġsung": 9114,
      "ĠCost": 9115,
      "otyp": 9116,
      "ĠJar": 9117,
      "Ġartific": 9118,
      "iti": 9119,
      "ĠVik": 9120,
      "Ġjobs": 9121,
      "ĠFurthermore": 9122,
      "ĠShaw": 9123,
      "Ġdemolished": 9124,
      "ĠYankees": 9125,
      "odox": 9126,
      "Ġ166": 9127,
      "Ġoblig": 9128,
      "ĠTracy": 9129,
      "arant": 9130,
      "Ġtheater": 9131,
      "Ġstarring": 9132,
      "Ġindu": 9133,
      "ĠBach": 9134,
      "ĠLost": 9135,
      "agh": 9136,
      "Ġmarketing": 9137,
      "ĠHugh": 9138,
      "ĠFel": 9139,
      "Ġconspir": 9140,
      "itis": 9141,
      "Ġruling": 9142,
      "Ġessential": 9143,
      "ĠBirmingham": 9144,
      "Ġdancing": 9145,
      "azines": 9146,
      "Ġbelieving": 9147,
      "Ġfeels": 9148,
      "ĠComple": 9149,
      "Ġsurpass": 9150,
      "ĠConstant": 9151,
      "Ġpursue": 9152,
      "Ġorganisation": 9153,
      "Ġprofile": 9154,
      "ĠGray": 9155,
      "ĠEventually": 9156,
      "ĠFat": 9157,
      "inding": 9158,
      "Ġcounties": 9159,
      "Ġpunk": 9160,
      "Ġcompens": 9161,
      "Ġheading": 9162,
      "ĠMans": 9163,
      "atern": 9164,
      "ĠCanter": 9165,
      "ĠMcCartney": 9166,
      "ication": 9167,
      "ĠNine": 9168,
      "Ġobst": 9169,
      "Ġfactory": 9170,
      "ĠImpact": 9171,
      "Ġbonus": 9172,
      "avery": 9173,
      "Ġcup": 9174,
      "Ġmining": 9175,
      "Ġincreases": 9176,
      "Ġcompliment": 9177,
      "ĠObama": 9178,
      "ĠUniversal": 9179,
      "folk": 9180,
      "Ġ109": 9181,
      "ĠDefence": 9182,
      "ĠSak": 9183,
      "Ġdiscont": 9184,
      "raction": 9185,
      "Ġforecast": 9186,
      "Ġdiscovers": 9187,
      "Ġdelivery": 9188,
      "Ġpages": 9189,
      "apped": 9190,
      "Ġexpression": 9191,
      "ouver": 9192,
      "ĠSig": 9193,
      "umps": 9194,
      "Ġerected": 9195,
      "Ġclothing": 9196,
      "Ġpatron": 9197,
      "ĠJup": 9198,
      "Ġelevation": 9199,
      "ĠBuddh": 9200,
      "Ġaffect": 9201,
      "ĠEnterprise": 9202,
      "Ġsucceed": 9203,
      "Ġsq": 9204,
      "ĠBaker": 9205,
      "Ġports": 9206,
      "ĠBobby": 9207,
      "Ġmobile": 9208,
      "Ġsalt": 9209,
      "ĠHudson": 9210,
      "ĠPhoenix": 9211,
      "Ġmultipl": 9212,
      "fle": 9213,
      "Ġsad": 9214,
      "Ġsecretary": 9215,
      "ĠTol": 9216,
      "ĠSi": 9217,
      "ĠKl": 9218,
      "cles": 9219,
      "Ġstick": 9220,
      "Ġorn": 9221,
      "ĠPotter": 9222,
      "Ġoverseas": 9223,
      "ĠPearl": 9224,
      "py": 9225,
      "ĠPubl": 9226,
      "Ġengage": 9227,
      "Ġdoubt": 9228,
      "ultan": 9229,
      "Ġcrest": 9230,
      "Ġhoriz": 9231,
      "Ġacou": 9232,
      "Ġmayor": 9233,
      "ĠWayne": 9234,
      "ĠKarl": 9235,
      "Ġdefences": 9236,
      "ĠConnectic": 9237,
      "Ġdrink": 9238,
      "Ġdemocr": 9239,
      "Ġdeterior": 9240,
      "ĠMadagascar": 9241,
      "Ġkiss": 9242,
      "ĠPeace": 9243,
      "tario": 9244,
      "Ġaccum": 9245,
      "ĠGirls": 9246,
      "ĠRights": 9247,
      "ĠTodd": 9248,
      "ĠConnecticut": 9249,
      "Ġaltered": 9250,
      "Ġsettlers": 9251,
      "bird": 9252,
[...]
